the 9204183
. 8261635
, 6918967
of 5484497
and 4410840
to 4292094
a 3027704
in 2857514
is 1772205
for 1498400
The 1362939
that 1349193
I 1180543
@-@ 1153312
on 1151172
you 1020832
with 1002341
be 973793
&apos;s 874816
it 831771
are 810036
as 796482
was 771259
by 746488
&quot; 743124
have 681842
not 622116
at 607683
or 604705
) 574705
( 548125
this 545546
from 544875
an 533812
: 521844
will 501454
? 498052
has 486946
he 460209
his 429381
can 428956
all 390528
; 383396
their 375125
your 366056
its 353758
we 346736
which 339768
- 336038
had 330340
but 323261
one 321026
It 319636
&apos;t 315792
they 314111
my 304448
were 304108
more 301446
In 300512
been 294886
up 289925
He 285258
out 279904
A 279490
me 277043
time 258773
her 258286
said 257424
would 256383
people 250949
also 249726
about 248060
other 241442
do 239983
so 229743
should 229239
We 227348
our 223074
into 218529
This 213204
who 212231
&apos; 210883
there 205324
like 204876
China 203628
no 201938
new 199589
when 197712
/ 197560
them 197026
him 195909
than 195629
shall 194047
if 186964
some 185287
You 185149
! 177800
she 177056
what 176444
two 175909
may 170802
work 168869
only 164514
But 164278
development 163077
any 162452
could 157201
such 156596
And 154702
make 153278
system 149949
over 148326
United 147650
very 147091
made 145451
first 140396
know 139531
just 138195
year 137983
If 137157
us 135494
years 135473
these 135402
good 135303
must 132201
well 131880
get 129605
under 129452
most 129224
international 129060
world 128908
after 126874
between 126733
way 126439
They 125889
through 125571
many 125093
now 125091
take 124133
countries 123010
use 122375
man 122248
see 120931
life 119416
day 119001
go 118334
To 117408
how 116952
She 111839
Chinese 110878
those 109719
before 108583
need 108116
Nations 108055
much 107670
right 106908
used 104604
long 101977
There 101334
important 101306
down 101038
don 99164
think 98393
information 97400
then 96418
because 96365
economic 95750
country 95510
What 95183
high 95028
back 94636
1 94097
General 93995
As 93070
Council 92638
did 91664
being 91624
un@@ 90616
want 89475
Article 89099
2 88638
States 88385
When 87537
where 87281
three 87200
even 87014
last 86736
come 85922
government 85279
still 84973
off 84671
&apos;m 84494
water 84305
say 82820
i 82319
$ 82221
own 81469
too 81288
same 81154
great 80876
part 80801
Committee 80567
For 80554
&apos;re 79932
each 79163
human 79134
company 78987
process 78384
number 78239
public 77809
help 77607
against 77302
little 77097
here 76753
S@@ 76611
without 76606
That 76352
re@@ 76214
business 75969
s 75004
law 74803
support 74640
old 74405
3 73930
always 73833
control 73823
both 73762
report 73731
set 73378
per 73254
am 72897
market 72796
&apos;ll 72000
order 71977
able 71918
women 71785
never 70963
going 70162
Mr. 70034
every 69912
children 69753
place 69695
love 69624
different 69382
level 68917
give 68598
during 68570
At 68444
put 68378
within 67903
end 67258
while 66702
rights 66640
activities 66552
national 66356
paper 66058
Government 66039
social 66027
in@@ 65974
better 63763
including 63665
management 63121
So 62989
says 62809
State 62761
financial 62519
study 62493
found 62125
does 61911
next 61886
money 61466
peace 61465
home 61403
person 60953
P@@ 60737
got 60508
state 59871
based 59790
No 59752
around 59627
method 59490
away 59236
power 59132
My 58912
another 58677
cooperation 58582
things 58536
security 58527
D@@ 58439
C@@ 58312
days 58249
find 58206
look 57982
again 57898
might 57730
small 57669
provide 57318
Hong 57244
o 57169
change 57052
less 56902
4 56820
resolution 56729
How 56716
become 56547
Kong 56508
men 56270
non 56241
best 56141
B@@ 55864
few 55727
5 55500
areas 55430
.@@ 55395
data 55218
resources 54656
&#91; 54655
% 54435
10 54230
technology 53890
really 53788
research 53411
&apos;ve 53408
often 53365
came 53283
foreign 53198
problem 53154
area 53145
let 53088
measures 52583
All 52491
G@@ 52362
large 52333
quality 52241
something 52183
His 52172
T@@ 51778
e 51753
M@@ 51608
since 51532
local 51509
full 51495
health 51424
service 51380
meeting 51379
F@@ 51375
food 51305
family 51234
Secretary 51157
On 51106
education 51093
H@@ 50997
&apos;@@ 50956
A@@ 50899
case 50845
problems 50814
means 50762
further 50579
One 50514
L@@ 50375
&#93; 50284
-- 50159
services 50119
6 50106
hand 50106
efforts 49641
land 49393
among 49380
political 49223
school 49183
today 49158
s@@ 49116
special 49112
New 49037
application 48646
working 48408
People 48257
er 48161
trade 47974
house 47941
organizations 47589
These 47536
called 47392
K@@ 47248
went 47071
upon 47061
situation 46913
period 46901
thought 46816
making 46731
ate 46494
present 46407
taken 46344
future 46314
point 46181
keep 46161
given 46105
field 46015
production 45931
With 45858
form 45459
kind 45315
name 45298
community 45264
members 45112
economy 45102
second 45046
took 44947
effect 44904
following 44882
together 44804
face 44668
growth 44604
e@@ 44568
Do 44482
t 44376
term 44357
developing 44295
using 44199
tell 44181
million 44154
according 44153
above 44148
already 44115
far 43977
left 43967
possible 43965
role 43920
thing 43903
R@@ 43858
air 43798
feel 43794
night 43777
big 43730
policy 43718
group 43578
light 43507
English 43391
major 43355
cent 43320
However 43156
body 43153
relevant 43127
design 43110
ed 43037
age 42885
products 42836
past 42835
results 42830
1994 42789
energy 42740
value 42738
job 42447
students 42332
five 42303
needs 42292
ing 42289
Assembly 42262
After 42250
action 42122
city 42111
N@@ 42024
es 41974
heart 41942
y@@ 41755
room 41706
necessary 41691
line 41527
t@@ 41490
d@@ 41409
young 41379
open 41268
view 41246
whole 41207
free 41198
provided 41041
related 40923
E@@ 40887
God 40885
four 40854
week 40849
main 40772
held 40713
class 40702
current 40687
continue 40683
head 40423
believe 40413
hard 40391
rate 40374
environment 40222
implementation 40146
decision 40132
party 40091
show 40083
building 40075
ever 40068
International 40067
region 39946
price 39860
effective 39774
Then 39746
course 39687
general 39673
al 39665
question 39633
result 39562
issues 39440
American 39419
cost 39399
training 39301
side 39294
Some 39267
various 39214
low 39072
cannot 38809
7 38757
once 38757
told 38756
enough 38717
lot 38697
real 38556
play 38531
programme 38492
others 38437
increase 38416
industry 38393
conditions 38382
times 38277
hope 38251
global 38197
k@@ 38193
20 38081
pay 37915
B 37852
call 37827
live 37785
plan 37709
whether 37684
assistance 37613
An 37535
why 37441
dis@@ 37424
common 37401
early 37315
US 37309
President 37282
1993 37269
W@@ 37220
Commission 37211
matter 37153
done 36965
project 36940
several 36837
8 36715
until 36617
Mr 36598
least 36568
experience 36562
model 36548
&apos;d 36544
military 36466
Now 36448
meet 36363
staff 36273
regional 36249
b 36091
mind 36077
asked 35967
child 35958
30 35944
o@@ 35870
basis 35844
companies 35825
ers 35722
words 35712
y 35671
legal 35627
p@@ 35520
fact 35393
issue 35389
15 35372
en@@ 35361
analysis 35359
ation 35313
key 35177
self 35170
administrative 34767
parties 34613
operation 34549
oil 34536
mother 34428
care 34366
Republic 34293
an@@ 34239
accordance 34205
ensure 34161
Security 34082
months 34054
investment 34001
9 33943
office 33891
nothing 33845
strong 33831
protection 33822
having 33787
father 33723
improve 33696
al@@ 33667
established 33643
car 33477
woman 33437
g@@ 33418
particular 33397
didn 33349
developed 33326
month 33262
Development 33250
half 33244
test 33211
interest 33074
book 33065
higher 33003
Beijing 32947
l@@ 32940
12 32930
saw 32896
account 32858
ability 32845
yet 32829
m@@ 32820
n@@ 32820
try 32683
please 32661
son 32585
makes 32574
attention 32547
recent 32537
doing 32314
i@@ 32288
performance 32278
space 32189
respect 32180
red 32166
total 32106
force 32069
position 32039
seen 32020
session 32009
sure 31992
eyes 31966
led 31908
friends 31821
b@@ 31789
population 31764
available 31688
ated 31656
especially 31583
run 31559
society 31551
team 31538
bring 31425
Law 31394
O@@ 31353
required 31316
start 31256
cases 31221
m 31178
structure 31113
World 31093
progress 31063
example 31050
living 31021
construction 31016
levels 31015
... 30711
short 30662
certain 30661
programmes 30639
hours 30603
leave 30535
May 30484
include 30432
soon 30335
article 30204
By 30141
Well 30114
treatment 30097
forward 30016
ago 30010
war 29992
product 29973
basic 29885
cause 29877
known 29876
technical 29876
capital 29855
taking 29855
provisions 29813
however 29750
South 29717
won 29693
property 29677
draft 29661
clear 29660
11 29630
concerned 29602
amount 29567
percent 29493
on@@ 29480
along 29398
top 29392
America 29390
subject 29353
V@@ 29252
close 29190
difficult 29166
Our 29111
language 29080
risk 29056
systems 29041
type 29009
looking 28960
d 28953
Please 28932
changes 28849
Don 28817
prices 28805
Your 28787
morning 28784
specific 28779
himself 28701
nuclear 28696
ating 28671
understand 28644
word 28574
Special 28542
I@@ 28540
Let 28488
bad 28380
de@@ 28344
began 28337
Department 28316
bank 28268
ask 28177
institutions 28157
fire 28156
h@@ 28148
3@@ 28127
later 28105
natural 28082
history 28041
door 27980
rather 27966
c 27957
Africa 27952
Is 27944
Why 27942
S 27902
turn 27899
third 27871
Conference 27799
though 27790
computer 27750
private 27689
date 27681
equipment 27670
deal 27604
Objective 27549
environmental 27464
groups 27464
almost 27458
projects 27415
material 27296
adopted 27263
department 27259
serious 27115
mean 27100
gave 27092
r@@ 27051
er@@ 27048
f@@ 27030
death 26991
operations 26985
proposed 26925
idea 26921
fully 26897
persons 26862
talk 26841
c@@ 26789
read 26784
anything 26773
ways 26756
king 26473
es@@ 26397
considered 26387
due 26380
return 26349
requirements 26322
a@@ 26305
National 26286
l 26283
terms 26277
easy 26249
outside 26215
ch@@ 26207
reason 26198
importance 26176
towards 26136
six 26111
particularly 26104
ates 26100
Many 26087
decided 26070
practice 26052
culture 25972
addition 25954
appropriate 25942
In@@ 25904
promote 25894
safety 25874
4@@ 25817
nature 25815
received 25814
table 25798
heard 25738
friend 25685
n 25677
wife 25674
5@@ 25653
quite 25631
knowledge 25532
u@@ 25521
w@@ 25431
trying 25407
1995 25394
goods 25365
likely 25340
University 25268
over@@ 25255
ting 25236
looked 25185
someone 25159
single 25064
true 25048
longer 25029
European 25024
move 25012
14 24985
50 24984
it@@ 24927
poor 24921
girl 24899
materials 24851
across 24839
rules 24818
pressure 24794
Can 24792
methods 24736
themselves 24703
comes 24678
income 24641
network 24639
happy 24600
exchange 24599
wish 24596
develop 24556
lost 24535
Group 24532
stop 24489
directly 24477
relationship 24452
capacity 24435
responsibility 24422
approach 24410
police 24408
coming 24401
individual 24390
step 24375
cut 24316
hold 24309
buy 24266
am@@ 24262
policies 24256
workers 24225
share 24219
im@@ 24210
theory 24196
itself 24183
enterprises 24168
agreement 24127
v@@ 24094
reports 24093
December 24083
ted 24082
st@@ 24039
en 24038
J@@ 24036
at@@ 24008
Where 23952
Convention 23928
demand 23926
access 23916
1996 23897
moment 23818
usually 23791
learn 23743
near 23716
paragraph 23694
parts 23675
brought 23658
needed 23636
white 23610
16 23600
ro@@ 23561
ar@@ 23556
ts 23517
C 23503
Japan 23487
yourself 23394
ly 23382
planning 23334
court 23331
front 23329
everything 23313
personnel 23297
While 23233
road 23207
D 23183
delegation 23172
review 23111
administration 23035
act 23020
personal 23014
member 22990
13 22953
increased 22951
rest 22931
cultural 22917
boy 22905
bed 22866
lead 22861
25 22858
offer 22842
late 22834
hands 22825
sea 22793
18 22776
impact 22731
markets 22731
beautiful 22728
hear 22715
Organization 22690
item 22612
list 22612
z@@ 22607
Yes 22581
function 22561
plans 22552
therefore 22552
regard 22537
ad@@ 22525
sense 22501
behind 22484
getting 22483
felt 22452
keeping 22435
funds 22419
works 22408
Y@@ 22382
k 22381
as@@ 22368
address 22344
success 22312
= 22307
authorities 22300
costs 22282
expected 22265
create 22241
doesn 22194
game 22160
cold 22156
blood 22107
g 22098
tax 22097
responsible 22083
principle 22069
parents 22041
effects 22028
ground 22015
forces 21999
supply 21973
billion 21957
questions 21933
continued 21926
regulations 21835
wanted 21813
Oh 21801
traditional 21773
21 21763
organization 21748
saying 21721
credit 21680
ant 21630
letter 21610
modern 21582
or@@ 21547
news 21515
banks 21464
enterprise 21440
Asia 21405
6@@ 21381
provides 21376
charge 21305
simple 21292
stay 21276
became 21268
started 21259
relations 21258
eat 21220
_ 21198
7@@ 21194
u 21165
el@@ 21114
consider 21078
Europe 21054
ready 21047
ations 21043
contract 21019
interests 20991
ine 20972
is@@ 20930
laws 20924
civil 20913
seems 20897
status 20890
factors 20879
Office 20848
complete 20847
June 20830
apply 20804
domestic 20777
introduced 20723
sound 20686
medical 20678
sent 20661
stage 20656
follow 20651
speak 20650
ag@@ 20614
significant 20602
di@@ 20528
lower 20528
E 20506
former 20477
standards 20470
re 20465
2@@ 20458
fall 20443
lives 20441
Lord 20434
potential 20381
media 20378
visit 20373
carry 20361
Z@@ 20350
existing 20344
positive 20334
July 20327
shows 20318
central 20298
Central 20287
Since 20282
surface 20279
sector 20244
points 20219
p 20213
post 20202
ac@@ 20191
sh@@ 20172
ic@@ 20135
criminal 20131
either 20127
carried 20126
turned 20105
wide 20103
bit 20087
24 20086
agencies 20072
music 20066
fine 20058
build 20042
gas 20030
concern 20017
reform 20014
j@@ 19987
ab@@ 19984
met 19964
round 19962
17 19951
officials 19915
greater 19900
software 19885
size 19880
growing 19867
source 19850
caused 19835
Because 19805
crisis 19803
additional 19737
learning 19718
th@@ 19688
whose 19687
activity 19661
opportunity 19646
art 19631
knew 19629
response 19584
request 19582
deep 19578
standard 19572
exercise 19563
鈥 19525
story 19502
September 19500
agreed 19470
answer 19467
ship 19460
2008 19442
&amp; 19435
&gt; 19427
From 19425
involved 19422
Israel 19413
active 19405
earth 19405
departments 19390
alone 19377
similar 19377
sub@@ 19364
purpose 19359
O 19358
direct 19323
U@@ 19293
First 19286
U.S. 19282
thus 19268
19 19265
science 19221
le 19210
Bank 19202
achieve 19199
mechanism 19196
black 19170
During 19163
paid 19161
8@@ 19148
ten 19077
East 19068
joint 19058
reduce 19056
hour 19049
board 19035
establishment 19035
insurance 19034
pre@@ 19019
disease 19013
takes 19004
site 18988
final 18982
content 18914
stock 18910
range 18894
scale 18894
ous 18866
statement 18843
establish 18841
average 18817
Not 18784
stand 18772
Her 18770
representative 18755
budget 18751
ti@@ 18739
con@@ 18724
record 18707
ic 18669
principles 18621
consideration 18618
stability 18605
unit 18604
program 18596
speed 18595
9@@ 18572
ap@@ 18560
sales 18558
March 18550
added 18526
est 18521
Re@@ 18487
reported 18451
ol@@ 18442
de 18387
wrong 18379
fast 18373
written 18356
increasing 18340
Even 18278
books 18278
influence 18250
meetings 18225
image 18217
understanding 18214
Most 18178
focus 18177
ator 18153
hot 18153
solution 18136
actually 18135
governmental 18132
allow 18107
inside 18088
thinking 18083
note 18071
Governments 18067
T 18055
flow 18052
quickly 18033
strength 18018
agenda 17999
minutes 17999
comprehensive 17995
Member 17993
rich 17992
nation 17991
1992 17977
rates 17975
22 17970
teaching 17954
ar 17934
studies 17934
strategy 17916
discussed 17897
P 17895
be@@ 17895
African 17878
machine 17867
October 17863
prevent 17861
limited 17794
regions 17778
th 17771
else 17750
beginning 17729
bodies 17710
effort 17695
reached 17690
100 17667
issued 17637
official 17598
tried 17588
approval 17569
ones 17569
presented 17535
April 17488
everyone 17469
strengthen 17428
rise 17408
remember 17397
Programme 17394
below 17386
communication 17362
Just 17361
conflict 17357
seem 17348
president 17341
als 17338
section 17335
40 17327
enjoy 17326
arms 17320
remain 17315
os@@ 17308
2007 17305
voice 17301
text 17291
North 17261
concerning 17261
condition 17248
23 17231
weapons 17225
overall 17211
drug 17209
document 17172
Board 17171
transfer 17162
Economic 17156
essential 17150
evidence 17135
designed 17133
Of 17130
task 17125
co@@ 17109
Party 17108
forms 17100
ice 17096
units 17094
characteristics 17059
India 17035
crime 17025
teacher 17009
applied 16996
Shanghai 16983
protect 16960
Although 16951
mainly 16950
card 16935
scientific 16904
cover 16902
running 16878
ri@@ 16863
patients 16859
weeks 16848
humanitarian 16845
January 16840
Are 16819
functions 16807
wind 16806
31 16780
distribution 16780
sometimes 16777
le@@ 16770
series 16759
ec@@ 16746
--@@ 16730
write 16712
schools 16701
export 16697
rule 16663
em@@ 16657
gold 16635
Centre 16618
chance 16617
II 16597
documents 16597
check 16579
avoid 16572
green 16558
loss 16547
balance 16545
fell 16536
governments 16524
ent 16520
fish 16509
el 16504
Its 16486
dead 16479
Information 16477
om@@ 16468
studied 16465
damage 16463
myself 16463
Social 16459
per@@ 16452
goal 16439
inter@@ 16431
mission 16429
John 16424
town 16407
Human 16381
physical 16375
facilities 16374
sun 16358
efficiency 16333
gone 16332
prepared 16327
ling 16323
probably 16305
heavy 16288
spirit 16275
procedures 16261
walk 16250
base 16245
items 16240
temperature 16217
ex@@ 16210
lack 16209
firm 16200
se@@ 16198
commercial 16191
places 16177
seven 16173
phone 16165
M 16154
um 16145
break 16136
tree 16132
recently 16124
showed 16120
steps 16108
professional 16106
x 16102
ings 16099
French 16096
tions 16091
goes 16047
According 16018
industrial 16012
sp@@ 16000
built 15996
actions 15987
anti 15981
send 15960
op@@ 15933
sleep 15931
sign 15872
2006 15865
poverty 15856
debt 15853
safe 15840
York 15839
leaders 15839
nor 15823
trust 15808
48 15792
rural 15770
hair 15759
Con@@ 15738
ans 15737
included 15728
regular 15723
L 15712
applications 15711
leading 15706
ing@@ 15702
cities 15674
providing 15671
matters 15670
expressed 15660
yesterday 15657
writing 15655
accept 15630
looks 15627
travel 15623
monitoring 15619
reach 15604
middle 15594
style 15590
normal 15582
seemed 15575
connection 15553
code 15512
ons 15457
reasons 15457
previous 15432
die 15397
eye 15386
event 15373
feeling 15370
processing 15366
Therefore 15364
film 15361
immediately 15357
noted 15356
circumstances 15351
century 15328
confidence 15326
November 15323
contact 15318
maintain 15316
London 15299
tomorrow 15298
pe@@ 15288
uses 15278
states 15266
annual 15260
created 15256
benefit 15253
enhance 15215
authority 15188
skin 15180
primary 15172
approved 15170
British 15167
internal 15163
framework 15145
acts 15108
successful 15106
ethnic 15089
decisions 15087
receive 15075
h 15074
Such 15064
plant 15048
sustainable 15047
color 15046
practical 15044
waste 15044
il@@ 15024
Rights 15020
ter 15020
degree 14981
summer 14963
urban 14948
ul@@ 14942
traffic 14939
train 14929
hit 14927
complex 14925
worked 14925
throughout 14922
kept 14913
original 14912
context 14885
id@@ 14865
worth 14861
watch 14860
27 14859
fund 14858
weight 14856
mine 14805
fields 14801
gives 14795
wants 14791
fl@@ 14786
li@@ 14782
remains 14780
opening 14774
competition 14765
Internet 14759
wall 14756
28 14750
benefits 14750
26 14738
box 14729
Service 14719
gonna 14710
Two 14705
19@@ 14698
difference 14689
August 14682
truth 14678
weather 14674
pro@@ 14671
direction 14659
instead 14649
Al@@ 14635
customers 14633
submitted 14632
employment 14613
participation 14609
fear 14598
co 14583
ad 14582
produce 14568
changed 14527
shown 14516
investors 14510
stress 14485
Here 14483
Olympic 14481
reading 14468
giving 14464
concept 14427
types 14418
largest 14416
heat 14401
husband 14401
simply 14397
isn 14386
representatives 14371
events 14361
F 14355
ha@@ 14355
aid 14354
Have 14350
reference 14349
ness 14334
choice 14331
opened 14331
affected 14326
character 14321
search 14318
beyond 14302
dollars 14300
easily 14298
window 14296
popular 14295
provision 14284
sides 14275
allowed 14269
pass 14262
freedom 14259
implement 14245
examination 14227
win 14221
TV 14219
violence 14213
conduct 14212
ist 14211
require 14210
passed 14203
skills 14186
improved 14179
tr@@ 14171
dark 14165
agency 14143
file 14136
nearly 14127
Fund 14116
assets 14105
serve 14082
Iraq 14074
ideas 14070
drive 14058
manner 14041
net 14030
user 14026
recommendations 14014
entire 14013
station 14012
Who 14008
feet 14008
Those 14003
talking 13984
ance 13982
save 13970
out@@ 13936
survey 13936
dog 13928
wait 13905
aspects 13896
ot@@ 13895
users 13895
dream 13880
mis@@ 13871
opportunities 13854
priority 13849
choose 13848
cl@@ 13829
clean 13823
Any 13822
grow 13820
to@@ 13818
.. 13810
Japanese 13803
yuan 13783
Sh@@ 13782
sell 13759
coordination 13754
earlier 13754
ity 13753
college 13730
unto 13724
begin 13708
Mar@@ 13707
te@@ 13706
Court 13690
ed@@ 13676
2005 13656
happened 13646
lo@@ 13603
measure 13593
der 13592
High 13584
anyone 13572
chief 13565
spend 13562
baby 13561
doctor 13551
student 13527
ds 13523
Good 13514
street 13510
huge 13508
equal 13491
City 13489
clearly 13469
maintenance 13466
died 13464
etc 13463
Union 13461
piece 13461
views 13428
Women 13414
emergency 13396
playing 13396
determined 13384
steel 13381
useful 13368
target 13357
message 13325
Chapter 13321
blue 13314
includes 13299
spent 13297
limit 13288
welcome 13288
Other 13269
floor 13265
29 13262
famous 13226
Their 13216
chemical 13214
online 13210
registration 13209
conference 13203
cash 13191
pain 13186
individuals 13166
Congress 13153
finally 13139
effectively 13137
add 13130
ies 13115
object 13107
brain 13095
resource 13070
tic 13069
trees 13068
An@@ 13037
played 13035
payment 13034
Taiwan 13025
et 13015
fixed 13015
raise 13013
ent@@ 13010
Korea 13009
press 12995
interested 12990
contained 12981
lose 12981
fight 12980
factor 12949
Foreign 12942
standing 12941
Every 12936
elements 12932
par@@ 12923
Russian 12918
pl@@ 12898
manager 12891
duty 12884
born 12869
us@@ 12853
eight 12852
Today 12851
seek 12850
core 12846
nations 12844
store 12844
completed 12842
r 12837
ia 12836
memory 12834
improvement 12813
agree 12808
river 12808
climate 12798
actual 12797
failure 12795
Ex@@ 12793
ahead 12784
brother 12782
conducted 12778
mutual 12767
highly 12763
kinds 12762
raised 12759
pollution 12752
qu@@ 12739
features 12724
biggest 12723
ism 12719
advice 12716
achieved 12712
goals 12710
cross 12696
ur@@ 12696
independent 12693
sky 12692
daily 12680
mentioned 12664
evaluation 12661
mass 12659
ative 12657
promoting 12655
assessment 12653
daughter 12652
expect 12649
described 12642
families 12623
drink 12619
transport 12615
compared 12611
followed 12610
Under 12576
phase 12566
discussion 12561
enter 12559
picture 12546
causes 12525
ite 12517
election 12513
bo@@ 12509
evening 12497
animals 12495
perfect 12491
ors 12482
ill 12474
bear 12462
sorry 12458
Ch@@ 12456
citizens 12450
glass 12449
generally 12443
1.@@ 12432
France 12430
System 12425
commitment 12423
owned 12422
Asian 12415
critical 12404
Chairman 12402
although 12399
he@@ 12398
toward 12394
whom 12390
tion 12384
trouble 12376
advantage 12373
except 12364
Each 12361
Health 12351
ally 12348
Only 12347
Secretariat 12346
60 12343
clothes 12328
returned 12327
advanced 12315
ancient 12315
movement 12314
signed 12299
Management 12296
Once 12288
hundred 12271
et@@ 12269
bus 12248
covered 12229
mouth 12228
produced 12225
gets 12211
experts 12210
vote 12202
killed 12198
cells 12185
relief 12175
inspection 12160
f 12158
published 12158
attack 12156
territory 12140
鈥@@ 12136
rain 12135
afraid 12119
Ar@@ 12116
details 12112
completely 12109
jobs 12109
improving 12089
Public 12071
prevention 12066
relating 12055
February 12050
ir@@ 12047
speech 12043
values 12041
affairs 12039
cell 12039
fundamental 12037
s.@@ 12028
moving 12022
bi@@ 12018
organs 12013
Services 12002
procedure 12002
contributions 11985
Agreement 11972
investigation 11970
arrangements 11950
Executive 11945
latest 11944
West 11943
tive 11943
Finally 11939
ball 11935
armed 11934
car@@ 11932
proposal 11924
opinion 11922
St@@ 11915
Action 11912
stood 11907
More 11903
lines 11899
discuss 11897
-@@ 11892
center 11886
resolutions 11886
Also 11882
and@@ 11875
medium 11870
soil 11868
trading 11860
les 11833
Russia 11828
meaning 11814
currently 11811
negotiations 11802
girls 11783
obtained 11779
knows 11772
external 11765
supported 11760
speaking 11751
couple 11730
double 11730
requested 11725
stone 11725
calls 11703
challenges 11703
regarding 11699
R 11696
waiting 11692
under@@ 11688
Research 11687
2004 11684
sale 11666
learned 11664
married 11664
requires 11664
G 11660
ked 11659
consumption 11650
sort 11622
appear 11617
entitled 11606
concerns 11601
moved 11582
reduction 11571
encourage 11559
operating 11548
securities 11547
rapid 11544
join 11540
season 11539
holding 11534
spread 11520
plants 11506
warm 11505
ch 11504
peaceful 11504
affect 11503
Day 11495
animal 11495
contribution 11495
En@@ 11476
justice 11476
coal 11473
negative 11466
mandate 11463
sc@@ 11462
nice 11454
N 11435
end@@ 11414
marriage 11410
device 11409
wear 11404
specified 11403
employees 11401
closed 11400
objective 11400
sex 11400
becomes 11397
technique 11390
ie 11389
thousand 11388
Thank 11369
Administration 11355
ding 11353
author 11312
forest 11312
Another 11306
Would 11303
for@@ 11295
numbers 11288
generation 11285
sports 11279
difficulties 11273
legislation 11266
decide 11262
fair 11262
teachers 11261
Will 11230
page 11226
technologies 11214
&#124; 11204
sources 11202
figure 11189
happiness 11187
television 11185
registered 11178
rose 11171
couldn 11164
healthy 11162
um@@ 11162
unique 11157
Year 11151
proposals 11147
49 11138
agricultural 11138
cancer 11137
committee 11130
determination 11129
Americans 11128
perhaps 11126
ve 11118
purposes 11107
housing 11106
trend 11100
widely 11093
Tibet 11091
concrete 11085
objectives 11085
thank 11082
me@@ 11072
ical 11071
ages 11069
agreements 11058
properties 11056
Yet 11052
ended 11051
lay 11049
placed 11049
career 11042
notice 11042
setting 11031
shape 11027
committed 11025
customer 11022
doubt 11022
element 11021
determine 11017
offered 11016
Be 11015
cr@@ 11015
announced 11008
settlement 11006
promotion 11005
forget 10999
Did 10978
challenge 10977
engineering 10977
path 10977
offices 10961
spring 10958
associated 10955
Trade 10954
medicine 10951
happen 10948
ter@@ 10948
ful 10946
z 10946
si@@ 10944
claim 10936
supervision 10934
Based 10927
Minister 10924
strengthening 10921
match 10910
talks 10884
certainly 10882
sold 10882
ence 10881
university 10881
sit 10878
mail 10873
assist 10872
helped 10871
behavior 10866
lived 10857
35 10853
gr@@ 10852
UNDP 10838
the@@ 10836
Germany 10834
scope 10833
dinner 10826
De@@ 10817
estimated 10809
drop 10808
wood 10801
ne@@ 10793
bottom 10782
preparation 10781
video 10776
45 10765
express 10765
Obama 10749
res 10744
addressed 10734
hotel 10726
， 10716
dry 10702
fresh 10700
increasingly 10692
algorithm 10689
av@@ 10686
collection 10684
becoming 10679
thy 10676
organized 10672
multi 10669
efficient 10663
master 10660
hospital 10657
participate 10657
zone 10652
island 10648
abroad 10633
delivery 10626
oc@@ 10618
proper 10616
ring 10603
contribute 10599
6.@@ 10586
ph@@ 10585
changing 10563
electric 10559
majority 10558
articles 10548
47 10544
testing 10544
labour 10540
flowers 10539
director 10532
Both 10531
presence 10523
0@@ 10520
slow 10519
man@@ 10518
realize 10517
foot 10513
fuel 10503
mo@@ 10502
closely 10496
electronic 10495
ran 10479
ou@@ 10475
Pro@@ 10470
officers 10462
Ministry 10449
Monday 10448
ob@@ 10444
no@@ 10439
believed 10432
.The 10428
pretty 10425
secret 10425
sat 10419
recognized 10411
Y 10406
inter 10405
drugs 10402
senior 10402
dynamic 10399
analyzed 10392
expression 10391
guarantee 10390
border 10387
dialogue 10387
lies 10376
mode 10369
ut@@ 10363
afternoon 10359
18@@ 10348
agent 10348
illegal 10339
solve 10338
Before 10329
democratic 10329
x@@ 10327
Thus 10321
Western 10313
lie 10312
锛 10310
Come 10309
religious 10302
sight 10297
Games 10295
reduced 10293
compensation 10285
ig@@ 10281
po@@ 10281
up@@ 10272
separate 10271
leadership 10267
rising 10267
finance 10265
threat 10265
advance 10264
br@@ 10255
accepted 10252
permanent 10242
do@@ 10237
autonomous 10223
rock 10218
H 10212
pattern 10202
economies 10192
Street 10189
00 10187
distance 10171
executive 10171
Road 10164
2000 10157
formed 10157
shop 10151
X@@ 10148
suggested 10139
ks 10134
kill 10131
variety 10130
refugees 10123
80 10122
se 10122
ment 10115
ton 10112
Tom 10106
unless 10101
failed 10100
version 10099
broken 10096
reality 10095
bought 10090
Working 10089
highest 10088
noise 10084
David 10065
listen 10061
thou 10061
sing 10060
thousands 10051
race 10048
aim 10040
implemented 10035
ah 10031
entered 10030
stable 10030
developments 10022
span 10020
star 10016
accounting 10004
Australia 10001
submit 9989
draw 9988
foundation 9987
soul 9983
organ 9979
Director 9977
ens 9975
Look 9968
appeared 9967
sister 9967
1991 9957
extent 9949
minute 9949
accident 9948
Administrative 9946
buildings 9933
leaves 9928
powerful 9921
relatively 9921
2009 9917
aimed 9895
dangerous 9888
friendly 9874
Britain 9866
tea 9843
boat 9842
winter 9837
* 9836
herself 9834
obligations 9830
democracy 9820
Take 9815
broad 9815
educational 9810
researchers 9809
bl@@ 9803
behalf 9802
spending 9800
Control 9794
ized 9793
plane 9792
disaster 9788
leader 9783
leaving 9778
trip 9776
su@@ 9773
map 9771
signal 9766
Car@@ 9758
clinical 9757
beauty 9756
os 9749
scheme 9748
western 9746
ties 9731
guy 9716
wine 9715
starting 9710
wasn 9706
Se@@ 9701
ps 9697
output 9693
differences 9687
games 9678
integration 9675
relation 9665
indicated 9663
ish 9663
peoples 9663
House 9653
garden 9653
greatly 9652
responsibilities 9643
Th@@ 9633
continues 9633
twenty 9632
Mission 9622
shares 9612
touch 9611
boss 9601
driving 9600
female 9600
Pacific 9596
south 9594
component 9591
cor@@ 9590
movie 9587
can@@ 9583
handle 9580
initial 9580
index 9578
strategies 9570
cars 9565
conclusion 9565
soft 9565
Education 9563
species 9562
names 9560
competent 9557
quarter 9556
labor 9555
operational 9555
loved 9552
flight 9550
host 9550
import 9548
carrying 9547
solid 9541
appears 9532
Christmas 9527
Three 9526
actively 9526
extremely 9519
ology 9517
bright 9515
com@@ 9496
ics 9495
ants 9491
excellent 9487
arm 9480
notes 9471
K 9470
Last 9469
Second 9469
wouldn 9469
desire 9466
dollar 9461
contains 9455
mechanisms 9453
army 9451
Region 9449
practices 9448
Friday 9445
currency 9445
enable 9444
ded 9437
listed 9436
sites 9435
integrated 9426
location 9422
arrived 9414
Middle 9413
shot 9405
Ad@@ 9399
technological 9394
indeed 9391
larger 9391
Technology 9388
Declaration 9384
selling 9384
Canada 9380
located 9374
Great 9371
filled 9360
V 9355
reasonable 9354
Application 9353
defined 9346
historical 9343
mon@@ 9343
strategic 9341
background 9339
attempt 9338
Charter 9327
vehicle 9327
referred 9325
gain 9322
dress 9316
bill 9315
willing 9315
eating 9313
correct 9298
stated 9298
caught 9296
Co@@ 9293
tool 9286
length 9279
adopt 9273
suitable 9271
radio 9266
diseases 9265
ong 9265
W 9264
finished 9264
delegations 9253
vehicles 9253
S. 9251
busy 9250
facilitate 9249
ard 9248
70 9236
fun 9232
trans@@ 9232
investigate 9230
2003 9229
creation 9213
Washington 9211
techniques 9211
Affairs 9204
aware 9196
profit 9195
obtain 9194
ge@@ 9193
haven 9193
Business 9188
structures 9185
village 9185
marketing 9183
overseas 9183
mental 9181
sir 9181
components 9178
coffee 9174
Yeah 9173
release 9163
wealth 9162
consultations 9156
Bush 9154
Institute 9153
significance 9151
Company 9148
explore 9148
losses 9145
patient 9145
processes 9145
financing 9143
tools 9142
hurt 9136
inflation 9136
laid 9129
recovery 9129
troops 9128
planned 9122
factory 9111
X 9096
fruit 9085
guide 9079
walked 9071
tasks 9068
track 9067
aged 9057
enemy 9051
models 9050
offers 9048
Palestinian 9046
ge 9044
explain 9038
remained 9037
ves 9027
detailed 9023
U 9022
mobile 9021
mark 9019
straight 9006
debate 9005
ty 9004
ters 9002
ble 8999
follows 8991
aircraft 8979
sitting 8979
ise 8978
32 8977
Like 8974
Love 8971
infrastructure 8971
forced 8968
metal 8958
tests 8958
Sunday 8952
Jesus 8951
ality 8951
duties 8950
pick 8946
sl@@ 8936
36 8934
Study 8933
e.@@ 8930
carefully 8929
facing 8929
digital 8927
bar 8926
recommended 8915
transportation 8914
Life 8909
Could 8905
fit 8905
stopped 8905
transition 8897
acid 8894
otherwise 8893
brand 8889
Moreover 8881
wrote 8881
interesting 8875
ver@@ 8872
alization 8864
ators 8864
Earth 8862
exist 8860
screen 8859
smile 8855
corresponding 8854
perform 8854
campaign 8846
ker 8846
ends 8843
instruments 8840
risks 8839
forth 8834
prepare 8831
Li@@ 8817
worry 8816
claims 8814
manufacturing 8813
exactly 8811
resistance 8798
German 8791
link 8791
46 8789
milk 8784
v 8783
purchase 8776
ian 8774
adequate 8772
website 8767
seeing 8761
wh@@ 8761
effectiveness 8748
spot 8748
catch 8744
accounts 8731
storage 8731
gradually 8729
iron 8716
partner 8713
Un@@ 8712
Use 8712
database 8711
experiment 8709
copy 8699
OF 8695
horse 8691
90 8686
Association 8685
sets 8685
rec@@ 8681
bridge 8679
anti@@ 8678
seat 8678
youth 8677
UN 8673
answered 8672
fly 8668
els 8666
birth 8665
situations 8660
No. 8659
wave 8657
atic 8654
judge 8652
Gu@@ 8651
bilateral 8651
count 8648
School 8646
greatest 8639
residents 8637
we@@ 8635
centre 8631
heads 8631
entry 8629
disarmament 8623
volume 8623
Li 8612
ang@@ 8608
telephone 8600
ization 8597
instance 8595
Maybe 8593
partners 8592
immediate 8591
extra 8588
funding 8582
Di@@ 8581
severe 8577
dec@@ 8572
plays 8569
weak 8566
released 8565
2.@@ 8564
England 8562
county 8561
north 8559
Dis@@ 8558
LORD 8553
ni@@ 8552
firms 8545
conflicts 8544
cur@@ 8544
bird 8526
thee 8525
named 8511
solutions 8511
respectively 8499
recognition 8495
existence 8488
tri@@ 8486
500 8485
controlled 8483
mountain 8483
Q@@ 8481
consumer 8481
load 8480
finding 8479
engine 8477
scientists 8476
der@@ 8469
engaged 8462
ste@@ 8460
nine 8458
33 8457
neither 8454
maybe 8453
impossible 8449
frequency 8448
Or 8437
suggest 8434
Chief 8433
error 8430
trial 8429
reflect 8428
Cooperation 8425
Peace 8420
fourth 8415
attitude 8414
records 8413
Force 8409
ore 8403
200 8398
ren@@ 8397
interpretation 8385
figures 8383
proved 8381
allows 8380
appeal 8378
Agency 8375
despite 8375
judicial 8369
kids 8367
Be@@ 8362
relative 8358
hole 8357
prior 8356
corporate 8339
soldiers 8335
ly@@ 8333
1@@ 8332
display 8331
mining 8331
layer 8325
identify 8324
Through 8323
feelings 8323
slowly 8317
ists 8313
ev@@ 8312
2001 8311
dont 8309
treated 8309
port 8308
Tuesday 8303
programs 8302
+ 8301
formation 8300
ry 8298
fighting 8286
combined 8285
continuing 8285
Advisory 8280
ten@@ 8280
expansion 8279
meat 8274
ching 8272
1997 8262
34 8254
possibility 8254
suddenly 8252
forty 8251
consequences 8244
IN@@ 8241
dealing 8237
THE 8236
faith 8235
helps 8232
receiving 8229
defense 8227
ke 8227
crimes 8223
ying 8221
communications 8219
statements 8218
edge 8214
whatever 8210
respective 8209
Report 8202
ordered 8196
Ordinance 8192
moon 8192
identified 8189
warning 8181
injury 8173
suit 8166
investigated 8165
scene 8162
sons 8161
Ac@@ 8156
fat 8156
pre 8154
ery 8153
ically 8141
sweet 8124
civilian 8113
male 8113
posts 8109
rapidly 8109
objects 8105
te 8101
res@@ 8090
players 8087
institution 8086
statistics 8086
industries 8084
all@@ 8082
adoption 8081
regulation 8079
quick 8076
suffering 8072
undertaken 8071
manage 8069
creating 8065
51 8064
ang 8062
sectors 8061
U. 8058
consensus 8056
businesses 8052
Mrs. 8047
gi@@ 8042
37 8040
orders 8037
instrument 8036
specialized 8034
AN@@ 8033
vi@@ 8031
cast 8030
39 8029
Iran 8028
Regulations 8025
hopes 8025
# 8024
3.@@ 8024
valuable 8022
Members 8019
grade 8014
consumers 8010
ments 8007
danger 8004
multilateral 8001
academic 7994
dr@@ 7991
ourselves 7989
1990 7987
awareness 7979
violation 7977
\ 7973
square 7971
supplies 7971
watching 7969
Over 7966
loans 7965
Conclusion 7964
multiple 7962
sufficient 7960
ents 7959
missions 7958
requests 7951
spoke 7951
White 7950
dance 7948
province 7948
Section 7947
informed 7942
intended 7941
concluded 7939
tonight 7937
seriously 7934
thoughts 7931
chapter 7920
boys 7919
discovered 7915
tired 7913
houses 7908
combination 7904
appearance 7900
ina 7900
IT 7898
ze 7898
walking 7897
District 7895
invited 7891
ay 7880
26@@ 7875
elections 7875
wonder 7872
observed 7868
ati@@ 7859
signs 7856
respond 7852
ering 7851
urgent 7851
reporting 7848
AR@@ 7847
Protection 7846
so@@ 7846
go@@ 7843
requirement 7835
41 7834
tend 7834
thanks 7834
vision 7831
unable 7822
id 7820
maximum 7817
moral 7815
Sometimes 7814
bound 7814
till 7814
west 7814
broke 7812
44 7810
smaller 7808
RE@@ 7806
victims 7806
carbon 7802
ma 7798
corner 7793
contain 7792
liquid 7792
selected 7788
independence 7787
Water 7784
bar@@ 7780
fill 7776
consultation 7773
gu@@ 7772
introduce 7770
parameters 7770
Bureau 7734
Meanwhile 7733
increases 7733
enforcement 7728
cutting 7727
prescribed 7727
believes 7723
divided 7722
cards 7721
st 7721
sensitive 7718
38 7714
earthquake 7710
expensive 7708
Bar@@ 7707
extended 7706
involving 7705
Food 7704
ak@@ 7703
birds 7701
block 7701
positions 7697
Which 7692
reaction 7692
non@@ 7690
song 7690
pleased 7680
none 7668
finish 7665
ley 7665
shoes 7664
River 7662
Time 7661
park 7660
treat 7657
Division 7655
guidelines 7655
player 7655
implementing 7652
seeking 7651
Authority 7650
atmosphere 7650
innovation 7650
au@@ 7643
Arab 7641
easier 7639
ms 7639
offering 7637
miles 7636
focused 7635
micro@@ 7635
fault 7633
elected 7628
Wednesday 7627
characteristic 7627
launched 7622
demands 7611
work@@ 7609
careful 7607
banking 7603
Miss 7602
gift 7601
thesis 7601
restaurant 7597
expert 7596
deeply 7595
lots 7594
pieces 7594
formal 7591
adjustment 7585
comments 7585
5.@@ 7575
Province 7566
ho@@ 7566
helping 7565
managers 7564
thin 7564
43 7560
gate 7560
UN@@ 7557
af@@ 7551
ant@@ 7544
feature 7536
interview 7536
Furthermore 7520
meant 7517
wild 7514
Summit 7513
ping 7513
command 7511
Afghanistan 7510
ep@@ 7508
expenses 7507
chain 7503
holiday 7503
Bosnia 7502
telling 7502
Per@@ 7501
ell@@ 7500
bearing 7493
era 7487
falling 7487
advantages 7478
ending 7477
served 7477
detail 7473
motion 7473
shared 7470
Mary 7469
establishing 7461
ye 7461
pleasure 7450
asking 7447
silver 7440
plate 7438
quiet 7437
discrimination 7436
faced 7436
grass 7436
officer 7435
drawing 7433
membership 7432
participants 7430
powers 7427
Egypt 7424
agriculture 7424
charges 7424
monitor 7422
loan 7421
cycle 7416
certificate 7414
min@@ 7414
satisfaction 7414
equity 7410
promise 7409
sick 7409
Plan 7407
smoke 7406
pr@@ 7405
ned 7404
War 7403
experienced 7403
prove 7402
Web 7400
supports 7399
decades 7396
fail 7395
structural 7391
Paris 7389
acting 7387
Financial 7384
library 7384
crucial 7380
Non 7379
attached 7378
minimum 7376
plastic 7374
ars 7371
ines 7371
via 7368
decline 7366
battle 7361
imposed 7351
managed 7350
back@@ 7349
delay 7349
realized 7349
Thursday 7345
ched 7345
confirmed 7340
beat 7339
competitive 7338
Unit 7336
Ab@@ 7335
4.@@ 7334
package 7334
ary 7333
principal 7332
ide 7331
calling 7325
guidance 7321
mat@@ 7319
mid 7318
Co 7315
equality 7314
ming 7312
observe 7309
worse 7305
joined 7300
attacks 7298
forever 7296
dy 7283
snow 7283
10@@ 7281
dated 7280
grown 7278
str@@ 7277
achievements 7274
spokesman 7274
ay@@ 7271
remove 7270
wonderful 7266
resulting 7263
Go 7260
cool 7260
secure 7260
letters 7258
ast@@ 7253
wishes 7253
row 7252
pointed 7250
depth 7247
Le@@ 7246
supporting 7245
sanctions 7244
gender 7241
obvious 7238
King 7235
Make 7235
simulation 7235
newspaper 7219
properly 7219
studying 7218
dropped 7215
joy 7207
appointed 7205
east 7202
partnership 7201
frame 7200
estate 7197
twice 7195
ster 7188
Children 7187
hearing 7187
stocks 7182
vital 7180
grew 7178
rent 7176
expand 7175
stars 7172
initiative 7162
selection 7161
decade 7159
hi@@ 7159
attend 7156
topic 7154
writer 7154
Federal 7153
football 7145
push 7140
Police 7138
2002 7134
uc@@ 7132
UK 7131
Wang 7128
taste 7128
weapon 7128
Rwanda 7127
ideal 7125
initiatives 7125
Pakistan 7121
depends 7120
faces 7118
languages 7117
rice 7117
ches 7116
minister 7115
drawn 7109
Perhaps 7108
pair 7107
ation@@ 7105
est@@ 7105
courses 7100
ins 7098
ological 7096
reducing 7096
lady 7089
Com@@ 7085
of@@ 7082
violations 7082
replied 7081
evaluate 7079
Does 7078
electricity 7077
Jack 7076
communities 7075
ordinary 7075
stick 7075
buying 7072
appreciation 7071
Post 7069
Bill 7066
bag 7066
Despite 7062
putting 7055
鈥檚 7052
Tr@@ 7051
Michael 7038
constant 7036
characters 7026
storm 7026
super@@ 7020
fashion 7019
sw@@ 7017
alism 7016
performed 7015
discussions 7014
ning 7013
42 7012
occurred 7001
75 6997
liability 6996
networks 6996
universal 6991
temporary 6987
ingly 6986
reply 6985
experiences 6983
tears 6982
stations 6980
older 6978
recognize 6978
club 6976
diagnosis 6974
indicate 6971
tourism 6970
onto 6964
sample 6964
aren 6957
Q 6953
virus 6948
annex 6947
handling 6947
extend 6943
air@@ 6942
guess 6941
images 6939
Israeli 6938
terrorism 6937
integrity 6935
gh@@ 6933
IC@@ 6932
Red 6931
Part 6929
southern 6927
izing 6925
owner 6924
angry 6919
prison 6919
facts 6917
driver 6913
producing 6912
bu@@ 6910
ably 6909
happens 6909
truly 6909
empty 6903
az@@ 6899
0 6896
schedule 6896
exports 6891
significantly 6891
resolve 6890
outstanding 6880
miss 6879
regime 6876
weekend 6875
glad 6866
minority 6866
Iraqi 6864
ial 6864
classes 6855
cry 6853
fee 6851
remote 6851
mistake 6850
struggle 6850
farmers 6848
counter 6845
ships 6842
ensuring 6839
turning 6833
measurement 6828
strange 6823
devices 6821
sought 6821
Instead 6820
Representative 6818
du@@ 6818
emerging 6817
relationships 6812
Qu@@ 6810
reflected 6809
platform 6805
capable 6803
mal@@ 6803
ner 6802
harm 6798
quantity 6798
Olympics 6796
Science 6794
ber@@ 6792
rare 6787
composition 6785
multi@@ 6784
deposit 6782
Commissioner 6780
destruction 6775
encouraged 6774
difficulty 6770
continuous 6768
ff 6759
Bo@@ 6757
ao 6757
friendship 6755
provinces 6755
upper 6754
client 6752
connected 6749
input 6746
criteria 6743
ns 6742
revised 6739
Inter@@ 6737
grain 6737
EU 6736
Civil 6733
Federation 6733
ra@@ 6730
chairman 6728
EN@@ 6722
files 6722
Hey 6721
Indian 6719
inner 6716
saving 6716
branch 6713
prefer 6700
teams 6700
300 6695
bringing 6693
execution 6681
conversation 6679
shopping 6678
treaty 6678
utilization 6676
considerable 6674
church 6666
brings 6663
dispute 6663
Par@@ 6660
la@@ 6659
stuff 6658
proliferation 6655
Get 6654
proof 6649
sur@@ 6640
alternative 6637
intellectual 6637
linked 6636
authorized 6633
dreams 6633
Industry 6628
8.@@ 6624
cre@@ 6624
savings 6620
refer 6617
salary 6614
ve@@ 6613
000 6609
raising 6606
anger 6604
har@@ 6604
yellow 6603
crowd 6600
Saturday 6596
teach 6593
vast 6589
Yugoslavia 6586
cat 6584
consistent 6582
Methods 6578
evil 6577
Constitution 6573
literature 6573
ill@@ 6571
millions 6571
represented 6570
pace 6568
suffered 6562
Mo@@ 6561
flat 6561
sal@@ 6561
guys 6560
district 6559
ceremony 6557
ratio 6555
suggests 6553
explained 6550
airport 6544
El@@ 6542
identity 6541
transmission 6533
options 6531
collective 6527
commitments 6526
showing 6525
Dr. 6523
hardly 6522
limits 6521
web 6520
UNICEF 6518
emphasis 6518
ub@@ 6517
III 6514
ously 6511
remaining 6510
familiar 6509
ler 6509
Mon@@ 6507
presents 6507
Man@@ 6503
sexual 6499
Without 6496
combat 6494
sentence 6488
mostly 6487
license 6485
contents 6482
clients 6480
novel 6475
ver 6472
ke@@ 6471
Several 6460
band 6460
^ 6458
introduces 6457
division 6454
raw 6450
eventually 6449
substantial 6449
journey 6448
ement 6447
welcomed 6447
cup 6444
25@@ 6443
Singapore 6443
her@@ 6442
patterns 6440
ret@@ 6437
birthday 6436
occur 6435
George 6431
abuse 6428
mechanical 6424
Among 6420
expenditure 6420
Analysis 6419
exchanges 6416
represent 6416
motor 6411
tics 6409
definition 6407
containing 6400
ll 6400
Italy 6393
ain 6392
mar@@ 6391
iz@@ 6390
jurisdiction 6390
bid 6386
commodity 6384
declared 6384
es.@@ 6381
secondary 6380
ses 6380
Treaty 6379
stories 6379
ai 6377
granted 6377
recorded 6377
audience 6376
sharp 6370
bone 6369
wearing 6365
ely 6363
Ro@@ 6362
smoking 6352
tic@@ 6351
appointment 6350
About 6346
maintaining 6344
strongly 6343
surprise 6342
ou 6340
introduction 6339
likes 6338
centres 6333
Am@@ 6332
considering 6332
AL@@ 6328
achievement 6327
designated 6325
frequently 6324
option 6323
IS@@ 6316
Though 6315
shift 6314
ure 6313
usual 6312
phenomenon 6307
ai@@ 6304
diplomatic 6304
drinking 6303
pull 6302
sub 6300
protected 6293
server 6283
sand 6281
suggestions 6281
Agenda 6280
fees 6279
operate 6279
sharing 6276
meal 6275
perspective 6275
Latin 6273
burden 6256
tw@@ 6251
occupied 6249
SCO 6245
successfully 6245
ale 6244
Herzegovina 6242
Scheme 6241
timely 6238
supposed 6237
9.@@ 6236
ongoing 6236
ci@@ 6235
ys 6234
pictures 6232
55 6231
aries 6229
computers 6228
reviewed 6228
stressed 6228
ites 6224
Cor@@ 6223
coat 6212
roads 6209
voluntary 6209
flower 6204
hand@@ 6204
wedding 6203
conservation 6197
Gr@@ 6196
sum 6196
alive 6195
ily 6194
title 6192
sad 6191
bigger 6185
politics 6183
oriented 6180
shut 6178
sounds 6176
1,@@ 6175
ging 6174
applicable 6172
compliance 6172
heading 6172
holds 6172
grave 6165
latter 6165
dust 6162
Third 6159
begun 6159
missing 6158
substantive 6158
ess 6156
ize 6154
advertising 6153
dear 6151
Air 6149
fi@@ 6147
stands 6147
Sea 6145
estimates 6145
gap 6144
ak 6136
chair 6136
Using 6135
fied 6127
homes 6127
mer@@ 6126
diet 6124
tor 6121
fore@@ 6115
welfare 6113
Harry 6111
origin 6110
suffer 6110
y.@@ 6109
ER@@ 6107
painting 6105
ud@@ 6105
og@@ 6103
examine 6101
faster 6101
everybody 6100
flying 6097
ational 6096
findings 6094
worst 6094
28@@ 6093
appreciate 6091
channel 6091
Center 6090
ade 6090
typical 6087
customs 6086
wise 6086
Having 6081
root 6080
yes 6080
aspect 6074
brief 6070
union 6069
false 6067
marine 6066
0.@@ 6064
reconstruction 6063
Cl@@ 6060
comfortable 6060
adding 6059
experimental 6059
lunch 6058
repair 6056
accurate 6054
largely 6054
achieving 6052
outer 6048
squ@@ 6046
Mainland 6045
aging 6045
employed 6045
bread 6041
outcome 6041
ticket 6040
fying 6038
absence 6036
assembly 6036
fifth 6028
ought 6028
venture 6027
SC@@ 6025
ung 6025
intelligence 6016
sed 6013
detection 6004
hoped 6003
represents 6003
salt 6003
favorite 6002
punishment 6001
links 6000
waters 6000
jointly 5999
ear 5998
ease 5997
paying 5997
turns 5997
talked 5991
ber 5990
.I 5986
belief 5982
sovereignty 5981
numerous 5979
describe 5978
passing 5978
closer 5968
household 5968
entirely 5967
thirty 5967
alized 5965
profits 5964
unemployment 5961
regarded 5960
hundreds 5959
ats 5958
lights 5956
patent 5952
Long 5949
throw 5949
investments 5947
rehabilitation 5947
He@@ 5946
tor@@ 5944
Global 5940
Sha@@ 5940
approaches 5940
marked 5937
sts 5929
printing 5918
ride 5917
mines 5916
papers 5916
fellow 5912
fishing 5911
Wall 5910
maintained 5907
skill 5906
inform 5905
estimate 5902
satellite 5899
undertake 5898
deliver 5897
driven 5896
satisfied 5896
slightly 5896
eng@@ 5894
rescue 5894
guard 5893
therapy 5891
Man 5890
extension 5890
lock 5890
merely 5888
teeth 5887
observers 5886
overcome 5884
proportion 5884
targets 5882
Design 5880
poly@@ 5880
removed 5880
contracts 5874
escape 5868
Im 5864
launch 5849
smooth 5849
7.@@ 5846
feed 5845
Hu@@ 5844
thinks 5843
arrangement 5842
owners 5842
gun 5837
institutional 5833
angle 5832
ur 5831
neck 5828
complicated 5827
Standing 5825
pi@@ 5825
valid 5825
contrast 5821
ky 5818
Regional 5817
ion 5817
marry 5817
professor 5816
applying 5814
circuit 5809
capability 5805
doctors 5804
reliable 5804
CH@@ 5802
marks 5799
agents 5797
identification 5796
opposite 5796
leads 5794
ash 5792
apart 5789
fifty 5789
Ms. 5788
feels 5788
cy@@ 5787
ink 5787
translation 5785
reserve 5783
engage 5780
15@@ 5777
den@@ 5776
examples 5776
College 5775
ger 5774
rooms 5774
iness 5766
Sir 5761
automatic 5761
newly 5761
formulated 5759
lasting 5758
Mexico 5756
charged 5756
strict 5756
fe@@ 5755
ders 5753
comment 5752
tie 5749
struck 5748
wisdom 5748
sheet 5747
See 5745
Island 5742
Thanks 5740
amounts 5739
ES 5737
Park 5735
Democratic 5734
headquarters 5734
sugar 5731
od@@ 5729
Professor 5728
conventional 5725
inc@@ 5724
ently 5718
distributed 5704
streets 5702
subjects 5701
war@@ 5699
jump 5698
percentage 5697
commission 5695
zed 5692
spoken 5689
chosen 5683
steady 5682
visited 5681
flows 5680
noticed 5678
extensive 5677
constantly 5673
theme 5671
farm 5670
Spanish 5668
understood 5668
nose 5667
AS@@ 5665
listening 5663
tough 5663
cooperate 5662
heaven 5662
锛@@ 5662
measured 5657
ownership 5650
controls 5649
hate 5645
terrible 5644
pure 5643
productive 5642
are@@ 5641
stream 5641
confident 5631
Korean 5629
walls 5629
giant 5627
lets 5627
Power 5626
delivered 5621
previously 5616
hat 5615
Besides 5614
socialist 5614
causing 5612
legitimate 5611
replace 5608
blind 5604
ped 5600
Rapporteur 5599
Pre@@ 5598
constitute 5598
yield 5597
blow 5593
losing 5593
sk@@ 5592
fication 5590
trends 5590
honor 5587
Mc@@ 5586
fallen 5586
visitors 5584
transformation 5581
watched 5581
falls 5579
taught 5577
electrical 5576
recommendation 5574
ving 5573
runs 5569
theoretical 5569
refused 5566
commodities 5565
mineral 5562
ened 5559
stronger 5559
gl@@ 5555
lift 5552
leg 5550
accuracy 5549
collaboration 5548
Peter 5543
clothing 5541
massive 5540
54 5536
53 5535
calculation 5533
territorial 5532
victory 5529
equivalent 5524
deals 5521
gross 5520
gained 5519
commerce 5518
hydro@@ 5516
77 5515
fur@@ 5515
Project 5512
Planning 5511
normally 5510
reforms 5509
infection 5508
ot 5503
ip@@ 5499
prosperity 5496
mixed 5495
un 5494
kers 5491
ach@@ 5489
proud 5488
entity 5486
col@@ 5484
foods 5484
honest 5483
Ne@@ 5481
arbitration 5480
pool 5478
composed 5474
resulted 5474
AND 5472
oned 5471
mountains 5468
opinions 5468
65 5465
payments 5465
calm 5463
ecological 5458
luck 5457
Policy 5454
concentration 5454
ocean 5454
bottle 5452
creative 5451
aw@@ 5449
roll 5449
Smith 5446
judgment 5446
ency 5445
kitchen 5445
afford 5444
okay 5443
colleagues 5442
Vice 5441
tall 5440
association 5439
depend 5439
pulled 5439
Su@@ 5438
disputes 5436
Building 5435
preparing 5433
dogs 5431
ised 5429
strengthened 5427
discharge 5423
begins 5421
implications 5421
expanded 5420
Still 5417
biological 5416
Pl@@ 5415
Wan 5414
desk 5414
incident 5414
bul@@ 5412
Indeed 5410
asset 5410
Community 5405
puts 5405
revenue 5405
OK 5403
displaced 5403
ass@@ 5400
protecting 5398
strike 5398
sha@@ 5396
52 5395
Dr 5393
flexible 5393
picked 5391
informal 5390
Meeting 5385
Tibetan 5385
convenient 5380
ear@@ 5380
aff@@ 5378
hom@@ 5377
regularly 5374
waves 5374
Training 5373
candidates 5372
category 5372
courts 5371
ls 5369
ass 5367
thick 5367
2,@@ 5366
indigenous 5366
tical 5364
Nothing 5363
interface 5363
ING 5360
Br@@ 5358
silence 5358
Tribunal 5357
functional 5356
surprised 5356
shoulder 5355
atory 5354
enhanced 5352
Give 5351
sudden 5351
tested 5349
California 5346
committees 5341
keeps 5338
worldwide 5338
surgery 5334
hall 5332
17@@ 5331
messages 5331
Land 5326
imagine 5324
machines 5324
arrive 5322
reaching 5322
revealed 5321
consists 5318
courage 5316
federal 5316
fo@@ 5307
pol@@ 5306
ths 5301
alize 5299
exists 5299
Lo@@ 5298
aims 5297
argument 5295
tradition 5293
sessions 5290
sion 5290
1998 5287
mistakes 5286
opposition 5285
pursue 5285
decrease 5281
lying 5279
radiation 5279
HK@@ 5278
legs 5277
covering 5275
Brazil 5272
Customs 5269
hell 5269
fin@@ 5268
acy 5264
Keep 5261
ears 5258
employee 5256
recommend 5255
qualified 5253
Results 5252
destroyed 5252
regret 5252
Support 5251
magazine 5248
Work 5246
Haiti 5243
defence 5243
worker 5243
ute 5242
universities 5241
saved 5239
select 5238
protein 5236
Should 5235
attended 5231
down@@ 5231
ick 5224
comparison 5223
serving 5223
habit 5219
HK 5218
tight 5218
collected 5217
eg@@ 5211
Environmental 5207
smart 5207
consent 5206
w 5205
Geneva 5203
balanced 5202
somebody 5202
regulatory 5201
ening 5200
Joint 5199
Sudan 5199
Right 5197
SA@@ 5196
breath 5194
eliminate 5191
enjoyed 5191
height 5190
por@@ 5189
taxes 5189
settled 5187
Environment 5185
invention 5184
mention 5184
representation 5183
ana 5181
Tell 5178
applicant 5176
AC@@ 5175
everywhere 5170
ow@@ 5170
clock 5168
machinery 5168
organize 5168
expectations 5166
ey 5166
prime 5165
Further 5163
med 5161
secretary 5155
Okay 5154
earnings 5154
Never 5152
burning 5148
transaction 5148
print 5147
wake 5144
biennium 5142
radi@@ 5142
succeed 5140
totally 5138
personality 5137
sees 5137
~ 5137
monthly 5136
cease 5133
Rec@@ 5129
mood 5127
scheduled 5127
organic 5126
camera 5120
permit 5118
collect 5115
sport 5115
water@@ 5115
encouraging 5113
lessons 5111
northern 5111
sin 5111
format 5108
bs 5106
eli@@ 5106
600 5102
bonds 5101
visual 5098
verification 5096
rep@@ 5095
elderly 5093
powder 5093
tells 5092
UNHCR 5091
ising 5091
bro@@ 5090
humans 5089
Paul 5088
derived 5088
fiscal 5088
Mor@@ 5087
historic 5082
starts 5082
interaction 5081
ours 5078
ff@@ 5076
enhancing 5074
intergovernmental 5074
pri@@ 5070
Christ 5069
Har@@ 5069
Her@@ 5067
hang 5067
contributed 5065
Kingdom 5063
ase 5063
iting 5062
measuring 5062
wing 5061
forming 5059
penalty 5059
zones 5058
audit 5057
TE@@ 5053
grant 5052
wi@@ 5048
Everyone 5046
wet 5046
Data 5043
racial 5041
planet 5039
56 5037
makers 5036
examined 5034
tour 5033
des@@ 5032
switch 5032
refers 5031
younger 5031
windows 5029
pipe 5023
breaking 5019
reflects 5019
shadow 5018
urged 5015
claimed 5014
equally 5014
internet 5014
drew 5010
Greek 5008
ban 5006
intention 5006
aside 5001
Min@@ 4998
Population 4996
flood 4995
secretariat 4994
obligation 4993
oo@@ 4991
OR@@ 4988
completion 4986
For@@ 4985
att@@ 4984
que 4984
click 4983
route 4983
priorities 4982
spare 4982
Review 4981
talent 4980
detention 4978
gains 4978
indicates 4978
tiny 4978
religion 4976
wheel 4976
01 4975
genetic 4975
dly 4973
mor@@ 4973
Sub@@ 4972
IV 4971
bn 4971
enormous 4971
oral 4971
experiments 4963
possibly 4962
solar 4961
Me@@ 4960
assigned 4960
evolution 4958
railway 4957
branches 4955
golden 4955
Him 4954
boost 4953
&apos;I 4947
arranged 4945
discipline 4945
400 4943
eggs 4943
ID 4941
ane 4941
degrees 4940
generated 4939
pages 4937
Spain 4936
ile 4935
shareholders 4930
reputation 4928
attractive 4924
categories 4923
legislative 4921
tobacco 4921
Ge@@ 4920
mankind 4919
12@@ 4914
automatically 4914
participating 4913
tur@@ 4913
ture 4913
vice 4911
Ms 4908
passengers 4907
cream 4905
ered 4905
acute 4904
ges 4904
laser 4902
Mother 4894
worried 4894
colour 4892
helpful 4892
Sun 4891
corruption 4890
coverage 4890
declaration 4887
ny 4887
tension 4886
Green 4884
&lt; 4881
cheap 4880
58 4878
fiber 4878
funded 4878
Territories 4873
sive 4872
magnetic 4871
ell 4869
invest 4869
Note 4867
AIDS 4865
ser@@ 4865
alia 4864
citizen 4863
bond 4862
Men 4860
promised 4858
covers 4857
post@@ 4857
programming 4854
cul@@ 4851
handed 4851
samples 4849
winning 4849
vulnerable 4848
yl@@ 4846
amp 4845
ished 4844
conferences 4842
formula 4842
alcohol 4840
emotional 4836
Legislative 4834
involves 4834
Bi@@ 4833
pers 4833
column 4831
hardware 4831
66 4830
ities 4827
brown 4826
camp 4826
define 4823
publication 4823
Jerusalem 4821
Prime 4821
owing 4821
Local 4820
tone 4815
earn 4814
occasion 4814
controlling 4813
} 4812
narrow 4811
absolutely 4810
tender 4810
Parties 4808
tons 4808
minorities 4803
analyze 4798
primarily 4798
wire 4796
exploration 4794
meter 4792
ography 4789
Five 4787
certificates 4786
extreme 4786
rel@@ 4786
tion@@ 4786
Following 4785
Res@@ 4785
directors 4785
ER 4784
stores 4783
char@@ 4780
philosophy 4780
liked 4778
fy 4777
sm@@ 4777
namely 4776
shock 4776
warned 4775
Col@@ 4773
{ 4771
burn 4770
destroy 4769
guests 4769
EC@@ 4766
ru@@ 4764
candidate 4762
plus 4762
boundary 4761
tube 4760
register 4759
strictly 4758
ier 4755
Construction 4754
Zhang 4753
lawyer 4753
description 4752
exception 4749
favour 4749
knowing 4749
rely 4749
Remember 4747
Somalia 4747
Dec@@ 4746
deployment 4744
involve 4742
acceptance 4739
productivity 4737
arrested 4735
entering 4735
Safety 4733
pal@@ 4733
reserves 4733
thereof 4733
disabled 4732
proceedings 4728
Energy 4727
rational 4726
witness 4721
paragraphs 4719
chicken 4718
managing 4718
zing 4716
convinced 4715
Father 4714
enti@@ 4713
contrary 4712
servant 4712
finds 4710
string 4710
ther@@ 4706
tu@@ 4705
shirt 4701
accused 4698
domain 4698
email 4698
replaced 4697
smell 4694
sy 4694
imports 4693
mer 4692
explanation 4691
ric@@ 4691
Bur@@ 4690
ast 4689
discusses 4684
circle 4683
unity 4683
criticism 4682
pen@@ 4682
Kowloon 4681
cable 4679
Justice 4678
acquisition 4677
substance 4677
stages 4676
AP@@ 4668
comfort 4668
documentation 4668
assess 4667
calculated 4667
ann@@ 4664
Act 4663
illness 4662
generate 4659
cleaning 4658
mortgage 4658
fr@@ 4657
blame 4655
lake 4655
locked 4652
answers 4651
cuts 4651
tors 4650
breakfast 4649
retail 4649
lucky 4647
trained 4647
breast 4646
density 4646
Trans@@ 4643
eastern 4643
Lebanon 4642
coordinate 4641
symbol 4640
Macao 4639
bur@@ 4639
portion 4638
gathered 4637
1999 4636
So@@ 4636
ma@@ 4635
prospects 4635
statistical 4635
sending 4633
capabilities 4630
sustained 4628
imp@@ 4625
au 4624
lesson 4624
adjust 4620
As@@ 4619
cloud 4619
survival 4619
wash 4618
approximately 4616
Italian 4615
dem@@ 4614
captain 4610
participated 4610
tissue 4609
00@@ 4607
Measures 4607
channels 4607
servants 4604
ex 4602
moves 4602
favor 4599
hill 4597
monetary 4595
fairly 4594
vessels 4594
exam 4593
installation 4593
ited 4593
ances 4590
ure@@ 4590
ist@@ 4589
nobody 4589
zero 4589
fer@@ 4588
fails 4586
57 4583
assume 4583
adult 4578
closing 4577
roof 4576
award 4575
em 4572
observation 4572
refuse 4572
Cultural 4571
ide@@ 4571
apartment 4570
exploitation 4570
Four 4569
ain@@ 4567
expanding 4566
Labour 4565
coordinated 4562
Next 4559
tim@@ 4559
AD@@ 4558
recession 4557
LE@@ 4556
gen@@ 4556
brothers 4554
yours 4553
Chen 4550
abilities 4550
linear 4550
ey@@ 4549
arts 4546
summit 4546
transferred 4546
occurs 4544
swimming 4543
returns 4542
ads 4539
dle 4539
head@@ 4539
thermal 4539
lending 4534
directed 4533
transactions 4533
contributing 4531
furniture 4531
Brown 4528
heavily 4528
involvement 4525
behaviour 4524
summary 4522
Im@@ 4520
20@@ 4519
CO@@ 4517
Treasury 4517
victim 4514
hidden 4513
plenty 4513
ward 4513
sil@@ 4512
cried 4511
pilot 4508
seed 4507
ol 4505
invitation 4504
laugh 4503
09 4500
Festival 4499
la 4499
conclusions 4497
obviously 4497
spite 4497
85 4496
hide 4496
button 4495
stipulated 4494
San 4493
Pe@@ 4492
ged 4489
definitely 4488
Being 4486
affecting 4486
Whether 4484
precious 4483
Protocol 4482
istic 4482
harder 4481
photo 4479
signing 4477
ca@@ 4474
Lee 4472
Space 4471
disasters 4468
separation 4467
receipt 4464
lu@@ 4462
vegetables 4462
allowing 4460
demonstrated 4460
expertise 4458
&apos;clock 4457
architecture 4456
pot 4454
whenever 4453
singing 4452
attempts 4451
bing 4451
Islamic 4450
Limited 4446
organizational 4445
imported 4444
coast 4443
graduate 4442
intervention 4442
visiting 4442
Code 4441
pat@@ 4441
cha@@ 4438
sleeping 4438
Po@@ 4437
acceptable 4437
30@@ 4436
ids 4435
voltage 4435
adults 4434
seats 4434
bas@@ 4433
donor 4432
fans 4431
Listen 4430
ee 4430
wished 4430
95 4429
hearts 4428
hy@@ 4428
PC 4427
periods 4426
parent 4424
iti@@ 4423
dies 4422
anc@@ 4421
laboratory 4421
comply 4420
Lu@@ 4418
formulation 4417
restricted 4417
rolling 4416
honour 4413
para 4413
Eastern 4411
IN 4409
val@@ 4409
Fourth 4408
Caribbean 4405
Housing 4404
unknown 4402
presentation 4399
Legal 4396
Open 4393
WTO 4393
pump 4393
dressed 4391
forecast 4391
uniform 4391
static 4389
ved 4387
virtual 4387
64 4384
sized 4384
A. 4383
fortune 4383
mut@@ 4383
exposure 4380
3,@@ 4379
permission 4378
reconciliation 4378
gre@@ 4377
killing 4377
default 4371
TI@@ 4370
peak 4368
tongue 4367
constructive 4364
hal@@ 4360
resolved 4360
attract 4359
preventing 4359
Prince 4358
provisional 4358
Cuba 4357
Henry 4357
necessarily 4351
emb@@ 4350
fix 4349
Society 4348
mix 4348
thereby 4347
commonly 4344
movements 4343
procurement 4343
everyday 4341
contacts 4340
pounds 4340
shaped 4338
Rules 4337
restrictions 4336
sions 4336
shipment 4335
Queen 4334
lips 4334
declined 4333
headed 4332
Google 4329
72 4325
TR@@ 4325
kin@@ 4325
05 4323
gene 4322
ali@@ 4319
devoted 4318
Cal@@ 4315
innovative 4315
civilization 4314
61 4313
analysts 4313
mainland 4312
Quality 4311
beneficial 4311
Sal@@ 4310
profound 4310
occupation 4308
subsequent 4305
ue 4304
loves 4301
ong@@ 4301
revolution 4301
silent 4301
Wh@@ 4298
somewhat 4298
describes 4297
ra 4297
specifically 4294
landscape 4292
68 4289
dealt 4287
fewer 4287
Indonesia 4285
paint 4285
transparency 4284
damaged 4283
ious 4283
manufacture 4283
psychological 4283
beside 4280
pocket 4280
cal@@ 4279
lion 4277
ude 4277
demonstrate 4276
passage 4276
Fe@@ 4274
absolute 4274
sake 4274
governance 4272
suggestion 4272
16@@ 4269
Exchange 4269
settle 4269
strain 4268
unusual 4267
ath@@ 4266
59 4263
lam@@ 4263
cat@@ 4262
installed 4262
visits 4261
ven@@ 4260
solving 4258
vacation 4256
IT@@ 4255
threw 4255
AM@@ 4254
complaints 4254
optical 4254
crops 4252
economics 4252
harmony 4252
EM@@ 4251
films 4249
concepts 4248
gar@@ 4246
vessel 4244
dependent 4243
geographical 4242
filter 4239
ners 4239
Commercial 4236
territories 4235
surely 4233
governing 4232
threats 4232
Letter 4230
Zealand 4230
arrival 4229
Microsoft 4228
nearby 4228
Permanent 4227
obstacles 4227
osis 4227
08 4226
chemicals 4226
fac@@ 4226
hi 4226
humanity 4226
mad 4226
shouldn 4225
impose 4224
14@@ 4223
Unfortunately 4223
beer 4223
pa@@ 4223
cloth 4222
oring 4219
allocation 4218
Ltd 4217
custom 4217
logic 4217
modified 4217
men@@ 4216
speaker 4215
violent 4215
Nevertheless 4214
symptoms 4214
performing 4213
widespread 4213
tly 4212
Within 4209
Try 4208
fluid 4207
Medical 4206
hol@@ 4206
sen@@ 4206
tied 4206
Sp@@ 4205
native 4205
Cr@@ 4203
carrier 4202
ST@@ 4201
promoted 4199
precision 4198
Greece 4197
guilty 4197
om 4197
by@@ 4196
stayed 4196
colors 4194
presidential 4193
ok@@ 4192
realization 4192
syn@@ 4190
ta 4190
cotton 4189
Requests 4187
Recalling 4186
pursuant 4186
1,000 4183
anywhere 4183
dad 4182
heating 4181
wheat 4181
liver 4180
applies 4173
judges 4173
acquired 4172
hum@@ 4172
configuration 4169
egg 4169
communicate 4166
rough 4166
hoping 4165
Vienna 4164
roots 4164
ON@@ 4163
Self 4162
cooperative 4162
restore 4162
hath 4160
hel@@ 4160
innocent 4159
somewhere 4157
diversity 4156
mil@@ 4156
score 4156
Bri@@ 4155
tickets 4155
impression 4154
preventive 4154
firmly 4152
hor@@ 4152
tered 4152
63 4149
migration 4149
apple 4147
solved 4146
Bl@@ 4144
James 4144
dimensional 4144
valve 4144
essence 4140
Technical 4138
discount 4138
lin@@ 4137
interference 4134
beings 4132
fired 4132
cake 4130
ose 4130
Political 4129
repeated 4128
tech 4128
fears 4126
forum 4123
anniversary 4122
73 4121
logical 4121
expenditures 4120
trafficking 4120
darkness 4118
ess@@ 4117
mouse 4116
Criminal 4113
accidents 4113
childhood 4113
tail 4111
roles 4110
Ma@@ 4109
auto 4109
dish 4108
restructuring 4108
ya 4108
ha 4107
ae 4106
Go@@ 4105
Thailand 4103
remarkable 4103
tis 4102
flexibility 4101
hu@@ 4101
maritime 4098
harmonious 4097
artificial 4096
ements 4095
god 4093
parallel 4093
Taking 4092
compare 4092
songs 4092
minor 4089
lit@@ 4088
ari@@ 4086
belt 4084
exhibition 4084
sun@@ 4084
onic 4083
admit 4082
modernization 4082
Ap@@ 4079
oning 4079
Mal@@ 4078
pres@@ 4078
Or@@ 4077
Ste@@ 4076
panel 4076
emphasized 4075
fingers 4075
e. 4074
ole 4072
ES@@ 4069
ach 4069
profile 4069
Area 4068
J 4067
suppose 4064
Small 4062
ination 4062
safeguard 4062
Mi@@ 4058
ame 4058
ick@@ 4057
resume 4057
Angola 4056
parameter 4056
Decade 4055
Jo@@ 4055
off@@ 4055
67 4054
Tokyo 4053
ack 4052
clouds 4052
donors 4050
confirm 4048
beach 4046
ham@@ 4046
signals 4046
wider 4046
Army 4045
injured 4045
destination 4044
form@@ 4044
Method 4043
analyses 4042
belong 4042
mid@@ 4041
nationality 4040
Home 4039
62 4038
theories 4038
Black 4037
tional 4037
exact 4036
Offr 4032
instructions 4032
necessity 4032
copies 4030
1989 4028
printed 4027
prohibited 4025
rid 4024
variable 4023
municipalities 4022
availability 4019
fil@@ 4019
ban@@ 4018
ov@@ 4017
shipping 4016
choices 4013
entrance 4009
seconds 4006
considers 4005
coach 4004
fate 4004
cargo 4002
soci@@ 4002
conclude 4001
depression 4000
admitted 3999
badly 3999
mirror 3999
leaf 3998
AT@@ 3997
produces 3996
ultimate 3996
compound 3995
mom 3994
zhou 3992
acc@@ 3988
operators 3987
withdrawal 3987
cultures 3983
illicit 3983
ets 3982
publications 3981
crazy 3980
pan@@ 3980
facility 3979
arrange 3977
residential 3976
campus 3975
Ver@@ 3973
ail 3973
photos 3973
Pol@@ 3972
ene 3970
imprisonment 3970
Croatia 3967
elsewhere 3966
tin 3965
recall 3963
survive 3963
continent 3962
urge 3962
meters 3960
ular 3959
sole 3957
visible 3957
terrorist 3956
d.@@ 3955
arising 3954
excess 3953
accompanied 3951
ences 3950
reliability 3948
log 3947
substances 3947
tank 3947
TH@@ 3946
belongs 3946
Prevention 3945
funny 3944
deposits 3943
passenger 3942
finger 3941
06 3940
dev@@ 3939
convention 3938
plain 3937
exciting 3936
mothers 3936
regards 3936
lovely 3934
mate 3932
den 3931
ium 3930
tape 3930
Robert 3929
eless 3928
equ@@ 3928
injection 3928
routine 3928
ne 3927
Apple 3925
shell 3924
Commerce 3923
consciousness 3923
missile 3922
ef@@ 3920
perfectly 3920
sheep 3920
entities 3919
maker 3919
sword 3919
Put 3918
wages 3918
Old 3917
SO@@ 3915
kiss 3915
ut 3915
satisfy 3914
76 3912
ow 3912
pul@@ 3912
habits 3911
ware 3911
kid 3910
tering 3910
ir 3906
exposed 3905
rap@@ 3905
Little 3904
amp@@ 3901
Australian 3900
Family 3900
oxygen 3900
my@@ 3896
spiritual 3896
Sustainable 3895
magic 3892
conducting 3891
stuck 3891
Liu 3889
Ob@@ 3889
loving 3889
sections 3888
voting 3888
dying 3883
collapse 3882
eness 3882
03 3881
tendency 3881
towns 3880
beam 3877
copyright 3877
preliminary 3877
pressing 3875
nervous 3872
stones 3871
elling 3870
resident 3870
ah@@ 3869
lat@@ 3869
vers 3869
PO@@ 3868
doors 3866
superior 3866
Finance 3864
burst 3863
pleasant 3862
Countries 3861
dignity 3861
highway 3861
inv@@ 3861
sequence 3861
rejected 3860
Students 3859
touched 3859
lands 3858
thr@@ 3857
ards 3856
Em@@ 3853
operative 3853
ect 3852
worthy 3850
authors 3848
bri@@ 3848
populations 3848
surrounding 3847
actor 3846
classification 3846
UNPROFOR 3845
allocated 3845
71 3842
Secondly 3841
che@@ 3840
forests 3837
systematic 3837
addressing 3836
Fifth 3835
stroke 3835
IS 3833
vocational 3833
designing 3832
yard 3832
circulation 3831
newspapers 3830
exercises 3827
gro@@ 3827
hasn 3827
integral 3825
Officer 3822
exceed 3822
stomach 3821
disposal 3820
Ireland 3819
dic@@ 3814
split 3814
initiated 3813
propose 3813
Sorry 3812
ing.@@ 3812
Given 3811
pen 3808
soldier 3804
Martin 3803
any@@ 3803
contemporary 3803
invite 3803
minds 3803
star@@ 3803
grounds 3801
utility 3801
Headquarters 3800
ath 3800
emissions 3799
bills 3798
chest 3798
700 3796
ray 3796
ty@@ 3796
typically 3796
land@@ 3795
missed 3795
corn 3793
praise 3793
ine@@ 3792
pride 3792
arrest 3790
optimization 3790
bags 3788
Master 3787
continuously 3787
Ma 3786
permitted 3783
prospect 3782
DC 3781
sentenced 3781
treating 3779
02 3778
TS 3778
constitutes 3778
mere 3778
our@@ 3778
ented 3776
generations 3776
classroom 3775
knife 3774
Tai 3773
gifts 3773
Mark 3771
da 3770
flag 3769
uh 3769
founded 3768
movies 3768
cure 3767
topics 3767
phones 3766
07 3765
operator 3765
intensity 3764
ils 3763
murder 3763
excited 3762
im 3759
lowest 3758
ws 3757
satisfactory 3756
ures 3754
gear 3751
74 3750
cooking 3749
99 3748
connect 3748
hyper@@ 3746
pushed 3744
stored 3742
affects 3740
civilians 3740
mm 3740
News 3738
negotiation 3735
WHO 3734
coastal 3734
preceding 3732
stupid 3731
cant 3730
prisoners 3729
rocks 3729
Studies 3727
UR@@ 3727
genuine 3727
ta@@ 3727
Disarmament 3726
intelligent 3724
partly 3724
Ber@@ 3723
basketball 3722
rush 3720
IC 3716
Reserve 3714
ft 3714
tre@@ 3713
grateful 3712
brush 3710
jumped 3709
residence 3709
commit 3707
Carrie 3706
tin@@ 3706
stem 3705
apparent 3703
dumping 3703
EL@@ 3701
Sam@@ 3700
sted 3700
Supreme 3699
TA@@ 3699
fies 3699
binding 3698
happening 3698
Tri@@ 3697
artist 3697
ac 3696
chronic 3696
errors 3696
commissions 3695
top@@ 3695
Forum 3692
excessive 3692
indicators 3692
tures 3692
Form 3691
basically 3691
comm@@ 3691
pur@@ 3691
earned 3690
forgotten 3690
intense 3687
CC@@ 3686
attracted 3685
Network 3683
array 3683
underground 3683
bike 3680
ris@@ 3680
checked 3679
At@@ 3676
improvements 3676
premises 3676
Jane 3675
desert 3675
pose 3675
guest 3673
yn@@ 3672
Burundi 3670
truck 3670
bor@@ 3669
equation 3669
ous@@ 3669
Pi@@ 3668
tries 3668
induced 3667
serves 3666
oma 3664
M. 3663
executives 3663
holder 3663
copper 3661
licence 3661
eng 3659
cas@@ 3656
functioning 3656
ind@@ 3656
hungry 3655
proceed 3655
sor@@ 3655
Dynasty 3654
Organisation 3654
chart 3654
Turkey 3652
vibration 3652
CHAPTER 3651
speakers 3651
Ambassador 3648
mi@@ 3648
jo@@ 3647
lim@@ 3646
loud 3646
aggression 3645
discover 3645
intensive 3643
Sch@@ 3641
ately 3641
Mrs 3639
designs 3638
gri@@ 3637
ory 3636
Clinton 3635
cer@@ 3635
lab@@ 3634
Georgia 3631
bling 3627
secrets 3627
shore 3627
signature 3627
checking 3625
IP@@ 3624
ills 3624
book@@ 3622
announcement 3621
wanna 3621
cap@@ 3620
800 3619
Very 3619
ninth 3617
relate 3617
sn@@ 3617
threatened 3617
ulation 3617
Dad 3616
Model 3616
oneself 3616
2010 3615
athletes 3615
88 3613
mortality 3612
realistic 3611
SH@@ 3609
freely 3609
ple 3609
preserve 3609
welcomes 3609
inf@@ 3607
punished 3607
harmful 3606
fre@@ 3604
replacement 3604
naturally 3603
ON 3602
Provision 3600
asleep 3599
dancing 3599
sec@@ 3599
dri@@ 3598
prize 3598
chose 3597
meets 3597
relatives 3596
tower 3596
treaties 3596
fa@@ 3595
Standard 3594
frequent 3593
guns 3590
Jim 3589
couples 3589
discovery 3588
handled 3588
briefly 3587
locations 3587
rubber 3586
buried 3584
dedicated 3584
oh 3581
29@@ 3579
fan 3579
qualities 3579
cook 3577
removal 3577
Everything 3574
employer 3574
refugee 3574
chances 3573
seal 3573
twelve 3573
Tax 3571
chemistry 3570
ruling 3570
metres 3568
remembered 3568
expense 3567
Bu@@ 3566
itation 3566
Soviet 3565
Basic 3563
69 3562
argue 3562
Chicago 3561
formulate 3561
globalization 3561
loc@@ 3561
crack 3560
5,000 3559
divorce 3558
ens@@ 3558
ire 3556
curve 3554
tes 3554
optimal 3553
Decides 3552
loose 3549
muscle 3549
hood 3548
ment@@ 3548
pursuit 3548
Fl@@ 3547
autumn 3547
wings 3547
entertainment 3546
feedback 3546
lawyers 3546
reflection 3546
Cha@@ 3545
Hello 3543
submission 3543
emerged 3542
holy 3541
Press 3540
ei@@ 3540
crop 3537
98 3536
drinks 3536
schemes 3536
HIV 3535
provincial 3534
Dear 3533
fruits 3533
deemed 3531
shoot 3531
correctly 3529
excuse 3528
tourist 3528
Implementation 3526
hospitals 3526
Joe 3525
We@@ 3524
municipal 3524
Military 3523
zz@@ 3523
wound 3522
150 3521
advisory 3521
drove 3521
keys 3519
chip 3518
exclusive 3518
rivers 3517
eighth 3516
mit@@ 3516
Roman 3515
passion 3514
vertical 3513
Yang 3511
cap 3511
Industrial 3510
Iranian 3510
ome 3508
Mom 3506
Sichuan 3506
cope 3506
shops 3505
cher 3504
exp@@ 3504
micro 3504
societies 3503
78 3502
fed 3502
Christian 3501
clearance 3499
composite 3499
PR@@ 3498
Registration 3498
acted 3497
4,@@ 3496
bell 3496
crew 3496
employers 3496
tables 3495
anybody 3494
Assistant 3493
ides 3493
relates 3491
sol@@ 3491
ce 3490
adapt 3489
feeding 3489
Contract 3488
William 3488
dirty 3488
characterized 3487
ports 3486
04 3484
alarm 3484
Cross 3483
IL@@ 3483
ka 3483
container 3482
Dr@@ 3481
auction 3481
tip 3481
yp@@ 3481
bly 3480
dimension 3480
possess 3479
rarely 3478
TO 3475
surplus 3474
crystal 3473
Cup 3471
enemies 3469
AS 3467
stake 3467
trademark 3467
instruction 3466
sensor 3465
filed 3464
assessed 3463
deployed 3463
unified 3463
Investment 3462
Cre@@ 3460
tolerance 3459
ap 3458
mel@@ 3458
stamp 3458
96 3457
determining 3457
electoral 3457
celebrate 3456
Ser@@ 3454
US@@ 3454
suppliers 3453
constructed 3452
ther 3452
update 3447
pon@@ 3446
reward 3446
encourages 3445
int@@ 3445
lonely 3445
chocolate 3444
corporation 3443
incidents 3443
AC 3442
complexity 3442
ians 3442
shake 3442
competence 3441
seized 3440
bel@@ 3439
preferred 3439
validity 3437
heritage 3436
13@@ 3435
C. 3434
acquire 3434
conformity 3434
departure 3434
manufacturers 3434
AT 3433
County 3433
ek 3432
extraordinary 3432
margin 3432
ash@@ 3430
feasibility 3429
matrix 3428
pack 3428
amazing 3427
ori@@ 3427
tro@@ 3426
wor@@ 3426
accordingly 3425
gran@@ 3425
Jones 3424
oth 3424
unlikely 3424
Ji@@ 3423
gs 3423
packing 3422
GDP 3420
win@@ 3420
dare 3419
leather 3419
universe 3418
you@@ 3418
Assistance 3417
broader 3416
pos@@ 3416
RO@@ 3414
86 3412
Market 3412
waited 3412
des 3410
reverse 3410
separated 3410
Mike 3409
fire@@ 3409
holes 3408
constitutional 3407
AN 3406
bath 3405
preparations 3405
producers 3405
leg@@ 3403
Resources 3401
eling 3401
semi 3400
ums 3399
tennis 3398
constraints 3397
carries 3396
luxury 3396
Products 3395
spectrum 3395
Cap@@ 3394
lamp 3394
immune 3393
steam 3393
,@@ 3392
Covenant 3392
SA 3391
aps 3391
analyzes 3388
fathers 3388
glory 3388
92 3386
79 3384
suspect 3383
denied 3382
onal 3381
mature 3380
households 3379
AL 3376
Me 3376
ace 3375
Nuclear 3374
alist 3374
alizing 3373
Ministers 3372
observations 3372
homework 3371
ton@@ 3371
und@@ 3371
Young 3370
assistant 3369
cu@@ 3369
Ben@@ 3368
sponsors 3368
super 3367
arm@@ 3366
elled 3366
washing 3366
adds 3364
guided 3364
ans@@ 3362
bacteria 3362
suspended 3362
Fi@@ 3361
ack@@ 3360
returning 3359
Lesson 3357
ake 3357
silk 3357
defend 3356
separately 3354
tourists 3354
enthusiasm 3352
don@@ 3351
sincere 3351
hon@@ 3349
invested 3349
juice 3349
spar@@ 3349
wage 3349
Richard 3348
ere 3348
cement 3347
equipped 3347
directions 3344
ox@@ 3342
seeds 3342
asks 3341
qui@@ 3341
Welcome 3339
advised 3339
Big 3333
Times 3333
ish@@ 3333
retirement 3333
dramatic 3332
rats 3332
temple 3332
holidays 3330
Change 3329
outs 3329
representing 3329
toxic 3329
10.@@ 3326
creates 3324
Later 3322
hero 3322
No@@ 3321
ays 3320
ran@@ 3320
94 3319
upset 3319
Northern 3317
anymore 3316
def@@ 3316
remarks 3316
farmer 3315
ministers 3315
Bay 3313
pe 3313
Jordan 3312
remind 3312
day@@ 3311
tips 3311
Deputy 3310
reproductive 3308
sti@@ 3308
Was 3307
possession 3307
Whatever 3305
numerical 3305
Val@@ 3304
relax 3304
Ti@@ 3303
Staff 3302
originally 3302
exit 3301
Test 3300
sacrifice 3300
Shenzhen 3299
del@@ 3299
Morgan 3298
glasses 3298
IAEA 3297
accelerate 3296
villages 3295
distinct 3294
tens 3294
Think 3293
ii 3293
Guangdong 3292
Manager 3291
dozen 3291
tropical 3291
rac@@ 3290
Station 3289
repeat 3289
vary 3289
borne 3288
romantic 3288
ultimately 3288
League 3287
blocks 3286
forgot 3286
Gl@@ 3285
med@@ 3285
adjusted 3284
aut@@ 3284
arise 3280
concert 3280
dy@@ 3279
memories 3279
tan@@ 3278
Trust 3277
rolled 3274
accomplished 3273
EN 3272
Spring 3272
allowance 3270
reveal 3270
inate 3269
disk 3266
81 3265
Has 3265
filling 3264
workshop 3263
ades 3262
bitter 3262
equitable 3262
qualifications 3262
shelter 3262
Des@@ 3261
deficit 3261
Rome 3260
approve 3260
displayed 3259
han@@ 3259
gentle 3258
sixth 3258
aking 3257
abandoned 3256
analyzing 3256
lists 3256
feasible 3255
conc@@ 3254
wore 3254
B. 3253
Engineering 3253
inevitable 3253
investor 3253
taxi 3253
lifted 3252
stepped 3251
grand 3250
93 3249
Charles 3249
Ming 3249
Upon 3247
Communist 3246
Hotel 3246
correlation 3245
debts 3241
focusing 3241
Learn 3240
To@@ 3240
bled 3240
flesh 3240
hung 3239
transparent 3238
deaths 3237
desired 3237
ME@@ 3236
bomb 3236
instant 3236
pension 3236
troop 3236
Moscow 3235
abide 3235
gather 3235
plan@@ 3233
subsidiary 3233
aw 3232
depending 3232
fever 3232
usage 3232
enc@@ 3231
uncertainty 3231
transform 3230
Panel 3228
grows 3228
viewed 3228
opposed 3227
adverse 3226
recommends 3226
regardless 3226
Academy 3225
assumed 3223
compete 3223
telecommunications 3223
Ukraine 3222
detect 3222
Cambodia 3221
purchasing 3220
underlying 3220
Figure 3219
pile 3219
91 3218
Computer 3218
hanging 3218
PL@@ 3217
Foundation 3216
inventory 3216
pop 3216
ham 3215
mixture 3215
apparently 3214
nursing 3213
undertaking 3213
LO@@ 3212
Pen@@ 3211
crash 3211
prof@@ 3210
loading 3209
moments 3208
MO@@ 3207
fulfil 3207
organisations 3206
transit 3206
Art 3204
Char@@ 3204
Fed 3204
Rel@@ 3204
particles 3204
random 3204
voters 3203
Moses 3202
il 3201
anyway 3197
bil@@ 3197
soup 3197
treasure 3197
posed 3195
Child 3194
ama 3193
ries 3193
supplier 3193
Cur@@ 3192
Insurance 3190
elimination 3190
kick 3190
bio@@ 3189
clo@@ 3189
districts 3189
Corporation 3188
comp@@ 3188
dered 3188
horses 3187
play@@ 3187
processed 3187
Ah 3186
ailing 3186
swim 3186
chamber 3185
conversion 3185
Jean 3184
tremendous 3184
Hu 3183
shooting 3183
ashes 3181
duration 3180
L.@@ 3178
fun@@ 3178
emotions 3177
dil@@ 3176
pregnant 3176
one@@ 3175
82 3174
investigations 3174
applicants 3172
aviation 3172
electro@@ 3172
lifetime 3172
shortage 3172
Mil@@ 3171
angel 3171
lend 3171
Gar@@ 3170
concentrate 3170
influenced 3170
ney 3169
Sur@@ 3168
failing 3168
socio 3167
bon@@ 3166
com 3166
CD 3165
bones 3165
orientation 3165
Free 3164
ore@@ 3164
Library 3163
imagination 3163
thoroughly 3163
Hongkong 3162
distant 3162
snow@@ 3162
beneath 3161
logistics 3161
epidemic 3160
affair 3159
CS@@ 3158
Others 3158
ancy 3157
Language 3156
Main 3156
specify 3155
ured 3155
pursued 3154
mice 3153
painful 3152
stri@@ 3152
Gen@@ 3151
artistic 3151
defeat 3151
hurry 3150
readers 3150
observer 3149
Six 3148
she@@ 3148
boards 3146
pec@@ 3145
flu 3143
partial 3142
q@@ 3142
trace 3142
drought 3141
pled 3141
83 3139
borders 3139
bre@@ 3139
surveillance 3139
ble@@ 3138
Noting 3136
momentum 3136
emphasize 3135
1988 3134
Islands 3134
guaranteed 3134
slip 3134
suspected 3134
precise 3133
Si@@ 3132
Wu 3132
suspension 3132
Mer@@ 3128
kin 3128
D. 3127
nerve 3126
school@@ 3126
worn 3126
Hall 3125
graduates 3125
professionals 3124
advise 3123
ord@@ 3122
Property 3121
existed 3120
fulfill 3120
hur@@ 3120
drivers 3118
The@@ 3117
dates 3115
Vi@@ 3114
bet 3114
fool 3112
injuries 3112
recover 3111
ID@@ 3110
Southern 3110
Te@@ 3110
quit 3110
Transport 3109
fabric 3109
pending 3109
sting 3108
CI@@ 3106
limitation 3106
Capital 3104
searching 3104
Argentina 3103
87 3101
velocity 3101
Elizabeth 3100
Coordination 3099
alleged 3098
deserve 3098
valley 3097
dissemination 3096
． 3096
Scientific 3094
climb 3093
Ed@@ 3092
ishing 3092
900 3091
Customer 3091
Excuse 3091
Governing 3091
complaint 3091
sis 3091
terminal 3091
endorsed 3090
compulsory 3089
Palestine 3087
festival 3087
foreigners 3087
module 3087
engagement 3086
reviews 3086
factories 3085
brilliant 3084
restaurants 3084
tar@@ 3083
Treatment 3082
declare 3081
Tur@@ 3080
manual 3080
tends 3080
tle 3079
Nor@@ 3078
jet 3078
unprecedented 3078
autonomy 3077
organizing 3077
recording 3077
Liberia 3076
gathering 3075
intend 3075
poses 3075
sharply 3075
PA 3074
here@@ 3074
demonstration 3073
Survey 3072
Inter 3071
extraction 3071
girlfriend 3071
Accordingly 3070
seventh 3070
Much 3069
internationally 3069
politicians 3069
diverse 3067
sovereign 3067
VI 3064
museum 3064
Set 3063
listened 3062
updated 3062
€ 3061
aling 3059
na 3058
Gaza 3056
tide 3056
flu@@ 3055
responses 3055
cli@@ 3054
gray 3054
ica 3054
izes 3054
accomplish 3052
executed 3051
guarantees 3051
hed 3051
uncle 3051
Str@@ 3050
flew 3050
vo@@ 3049
centuries 3048
occasions 3048
profession 3047
promises 3047
Certificate 3046
Museum 3045
boxes 3045
brave 3045
centers 3045
compromise 3043
evident 3043
walks 3041
Bal@@ 3040
Shi@@ 3040
crude 3040
layout 3040
speaks 3040
CO 3039
hydraulic 3037
colleges 3036
economists 3036
weakness 3035
methodology 3033
subregional 3033
hire 3032
Works 3031
outlook 3030
backed 3029
sho@@ 3029
classical 3028
rows 3026
staying 3026
11.@@ 3025
amid 3024
gratitude 3022
kingdom 3022
Actually 3021
preservation 3021
bars 3020
actors 3019
honey 3018
ption 3017
ger@@ 3014
liable 3014
repeatedly 3014
ate@@ 3012
berg 3012
ino 3012
mandates 3012
aming 3011
mol@@ 3011
IP 3010
assignment 3009
prince 3009
deeper 3008
Daniel 3007
bow 3007
navigation 3007
consequence 3006
fracture 3005
Between 3004
engineer 3004
emp@@ 3003
loaded 3003
respected 3003
ams 3000
oul@@ 3000
awarded 2999
spr@@ 2999
tooth 2999
Atlantic 2998
27@@ 2997
Team 2997
ater 2997
promptly 2997
Due 2996
ail@@ 2994
countryside 2994
reservation 2994
Joseph 2993
frozen 2993
resistant 2993
ces 2992
warming 2992
bo 2990
graphic 2989
wooden 2988
aggressive 2987
occupational 2987
Ter@@ 2986
borrow 2986
budgetary 2985
spots 2985
nutrition 2984
pale 2984
pushing 2984
withdraw 2984
strive 2983
tunnel 2983
bears 2982
holders 2982
Natural 2980
broadcast 2979
dual 2979
assisted 2978
mathematical 2978
tically 2978
thorough 2977
yl 2975
Companies 2972
hadn 2972
possibilities 2972
chi@@ 2971
12.@@ 2970
decreased 2970
eager 2970
welding 2969
Lake 2968
predict 2968
reservoir 2966
Ri@@ 2965
crying 2965
rest@@ 2965
tom@@ 2965
acknowledged 2963
assure 2963
keen 2963
potentially 2963
DE@@ 2962
Nature 2962
rev@@ 2962
seminars 2962
promulgated 2960
ains 2959
Professional 2958
menu 2958
operated 2957
settlements 2957
89 2955
Fr@@ 2955
Mac@@ 2955
She@@ 2955
concentrated 2955
84 2954
Until 2954
battery 2954
emotion 2953
parking 2953
200@@ 2951
impl@@ 2950
tumor 2950
tot@@ 2948
talents 2947
valued 2947
literary 2946
passes 2946
Hospital 2945
packed 2945
buyers 2944
winner 2944
wireless 2944
sup@@ 2943
uck 2943
Hon@@ 2942
favorable 2942
Hol@@ 2941
conscious 2941
ading 2940
oid 2940
USA 2939
offence 2939
plenary 2939
dictionary 2938
protective 2938
DNA 2937
capture 2937
flame 2936
interior 2936
responded 2936
arian 2935
cooling 2935
focuses 2935
vis@@ 2935
Airport 2934
ave 2933
bol@@ 2933
Order 2930
Vol@@ 2930
Bre@@ 2927
Canadian 2927
bal@@ 2927
journalists 2927
meaningful 2927
Por@@ 2926
Republican 2926
Vietnam 2926
barriers 2926
quietly 2926
singer 2925
pay@@ 2924
aked 2923
folk 2923
fuzzy 2923
classic 2921
mutually 2921
simultaneously 2921
Ocean 2920
Real 2920
rises 2920
thread 2919
drunk 2917
pet 2917
fiftieth 2916
joining 2916
that@@ 2916
curriculum 2914
contr@@ 2913
1990s 2912
app@@ 2911
protocol 2911
Switzerland 2910
knee 2910
utter 2910
bus@@ 2908
genes 2908
delayed 2906
budgets 2905
Learning 2904
hear@@ 2904
considerations 2902
bles 2901
1st 2900
gg@@ 2900
Do@@ 2899
Lehman 2898
alists 2898
robot 2896
counter@@ 2895
didnt 2895
peacekeeping 2894
periodic 2894
wounded 2894
hunger 2893
subsidies 2893
qualification 2892
ables 2891
i.e. 2891
din@@ 2890
shoe 2890
spl@@ 2889
explosion 2888
virtue 2888
besides 2886
willingness 2886
dose 2884
ential 2884
diamond 2882
favourable 2882
islands 2882
harvest 2880
coordinates 2879
thrown 2879
advancement 2878
corporations 2878
UNFPA 2876
IM@@ 2874
disappeared 2874
exc@@ 2874
united 2874
5,@@ 2873
collecting 2873
ford 2873
UNCTAD 2872
spec@@ 2872
fu@@ 2871
eligible 2870
pu@@ 2869
Sweden 2868
ental 2868
install 2868
interim 2867
resort 2867
editor 2866
ups 2866
cigarette 2865
Personal 2863
quarters 2863
Town 2861
eaten 2861
risen 2861
Whoever 2860
mill 2860
Hel@@ 2859
Statistics 2858
.A 2857
Youth 2857
bite 2856
convenience 2856
steadily 2856
j 2854
ush 2854
Mat@@ 2853
hedge 2853
rer 2853
tracking 2853
eas@@ 2852
isolated 2852
mud 2852
NO@@ 2851
RMB 2851
.It 2850
Export 2849
pricing 2849
sem@@ 2849
Han 2848
flights 2848
part@@ 2848
enjoying 2847
tear 2847
hired 2846
ined 2846
Provisions 2845
norms 2843
suicide 2843
Fin@@ 2842
black@@ 2842
resumed 2842
val 2841
preparatory 2840
Mis@@ 2839
anxiety 2839
Scientists 2838
babies 2838
gener@@ 2838
writers 2838
diplomacy 2837
duc@@ 2837
damages 2836
daughters 2836
gotta 2836
sentences 2836
a.@@ 2835
ese 2835
liber@@ 2835
grid 2834
Tang 2833
ices 2833
neuro@@ 2833
shoulders 2833
Sha 2832
burned 2832
iled 2832
packaging 2832
shed 2831
www.@@ 2831
Al 2830
Cy@@ 2830
capacities 2830
incorporated 2829
enabled 2828
eth 2828
gently 2828
120 2826
explains 2826
Bas@@ 2825
essentially 2825
foster 2825
independently 2825
seminar 2824
sin@@ 2824
Drug 2823
fought 2823
integrate 2823
Marine 2822
dering 2821
ignore 2820
coordinating 2819
deputy 2819
IR@@ 2818
lawful 2818
Award 2817
manufacturer 2817
planted 2817
riding 2817
cro@@ 2816
finite 2815
initially 2815
votes 2815
97 2814
Crime 2814
constitution 2814
Operations 2813
sa@@ 2813
supplied 2812
targeted 2812
enabling 2811
ign@@ 2811
coating 2809
joke 2809
s. 2809
ank 2808
boom 2808
arguments 2807
checks 2807
him@@ 2807
unexpected 2807
ep 2806
delicate 2805
retain 2805
transmitted 2805
sul@@ 2804
rope 2803
traveling 2803
Ca@@ 2802
breaks 2802
stranger 2801
assessments 2799
gentleman 2799
reporters 2798
Rem@@ 2795
odd 2795
tragedy 2795
absorption 2794
aying 2794
dynamics 2794
physics 2794
Sr 2793
AD 2792
adopting 2792
influences 2792
Program 2791
Z 2791
Club 2790
Modern 2790
Oil 2790
associations 2790
Up 2789
Early 2788
pping 2788
skilled 2787
Electronic 2785
Sol@@ 2785
woods 2785
consistently 2784
prominent 2784
FAO 2783
Journal 2782
Major 2782
reserved 2782
wa@@ 2782
throat 2781
consult 2780
ug@@ 2780
23@@ 2779
alloy 2779
dimensions 2779
dishes 2779
euro 2779
dawn 2778
expressions 2778
night@@ 2778
sel@@ 2778
les@@ 2777
ron 2777
slight 2777
Ger@@ 2776
Is@@ 2776
accurately 2776
ises 2776
pregnancy 2776
Agriculture 2775
Guangzhou 2775
forgive 2775
hem@@ 2775
lar@@ 2775
masses 2774
Netherlands 2773
Wil@@ 2773
ayed 2773
crowded 2773
IF@@ 2771
conducive 2770
decides 2770
nit@@ 2770
entrusted 2767
china 2766
sto@@ 2766
assured 2765
rail 2765
variation 2765
publicity 2764
Securities 2763
dro@@ 2763
producer 2763
piano 2762
salaries 2761
atives 2760
ba 2760
but@@ 2760
mas@@ 2760
psychology 2760
calculate 2759
smiled 2759
encountered 2757
notify 2757
UL@@ 2756
bidding 2755
Best 2754
Light 2754
verify 2754
construct 2753
pity 2753
detected 2752
severely 2752
bedroom 2751
Nobody 2750
modest 2750
seller 2750
lighting 2749
prompt 2749
wed 2749
lease 2748
advances 2747
synthesis 2747
ety 2746
gravity 2746
shortly 2746
MI@@ 2745
restoration 2744
introducing 2743
sensitivity 2743
pray 2742
artists 2741
brands 2741
generous 2741
summarized 2741
expects 2740
rank 2740
2,000 2739
History 2739
None 2738
appoint 2738
Muslim 2737
controller 2737
solidarity 2737
connections 2736
conventions 2736
weren 2736
lin 2735
lung 2735
pin@@ 2735
Check 2734
rival 2734
carriage 2733
Ill 2732
No.@@ 2732
sth 2732
Unless 2730
Anti 2729
casting 2729
Malaysia 2727
laughter 2727
ship@@ 2726
succeeded 2726
fined 2725
promising 2725
Thomas 2724
ulated 2724
bowl 2723
retired 2723
Hi 2722
annually 2722
ural 2722
advertisement 2720
breathing 2720
combine 2720
ographic 2719
yeah 2717
Ba@@ 2716
requiring 2716
recruitment 2715
audio 2714
amed 2713
crossed 2713
Kuwait 2712
modeling 2711
pressed 2711
PDF 2710
efficiently 2710
ji@@ 2710
ugly 2710
molecular 2709
discussing 2708
Out 2706
orange 2706
painted 2705
torture 2705
defects 2704
scientist 2704
recalled 2703
ops 2702
ys@@ 2702
priest 2701
attacked 2700
prosecution 2700
stamps 2700
renewed 2699
bases 2698
floating 2698
ologist 2697
Hy@@ 2696
Rev@@ 2696
ologists 2696
AP 2695
Sports 2695
fusion 2694
10,000 2693
Je@@ 2693
contest 2692
grades 2692
phot@@ 2692
purchased 2692
e.g. 2689
meals 2689
ranging 2689
calendar 2688
horizontal 2688
ied 2687
ba@@ 2685
indispensable 2685
kindness 2684
opens 2684
Persons 2683
shook 2682
moderate 2681
competitiveness 2680
Senate 2679
attach 2679
DVD 2678
Shall 2678
handsome 2678
shan 2678
affection 2677
congresses 2677
dominant 2677
sisters 2676
ining 2675
El 2674
bankruptcy 2674
rat 2674
PS 2673
arch@@ 2673
List 2672
SE@@ 2672
nights 2671
Humanitarian 2670
minded 2670
segment 2670
youre 2669
Norway 2668
terror 2668
Po 2667
Strategy 2667
Under@@ 2667
economist 2667
fraud 2667
hai 2667
lob@@ 2667
MS 2666
spell 2666
apping 2665
develops 2665
tile 2665
vacuum 2665
Gre@@ 2664
choosing 2663
subjected 2663
verse 2663
cluster 2662
outlined 2662
resist 2662
Notice 2661
download 2661
ella 2661
Yuan 2658
grace 2658
Swiss 2656
virtually 2656
boring 2655
0,000 2654
analysed 2654
generating 2654
sorrow 2653
mess 2652
Mel@@ 2651
appeals 2651
distinction 2650
infected 2650
kes 2650
ound 2650
sof@@ 2650
Preparatory 2649
Similarly 2649
thro@@ 2649
Wen 2647
attitudes 2645
roc@@ 2645
Royal 2644
SP@@ 2644
complain 2644
computing 2643
Lands 2642
lit 2642
hard@@ 2641
jacket 2641
designer 2640
lecture 2640
nurse 2640
assisting 2639
illa 2639
offset 2639
pulse 2639
scholars 2639
bun@@ 2638
wealthy 2638
2nd 2636
publishing 2636
winds 2636
lover 2635
shame 2635
Sure 2634
law@@ 2634
Los 2633
pays 2633
Experts 2632
degradation 2632
disorder 2631
precisely 2631
Sk@@ 2630
freight 2630
inclusion 2630
lifting 2630
shaft 2629
Del@@ 2627
TION 2627
capita 2627
diabetes 2627
reader 2627
popul@@ 2626
phrase 2625
syndrome 2625
Operation 2624
Territory 2624
matching 2624
membrane 2624
Ask 2623
entr@@ 2623
surveys 2623
lig@@ 2622
Stanley 2621
ceiling 2621
enables 2621
abundant 2620
radar 2620
ethics 2618
pm 2617
reflecting 2617
Windows 2616
inquiry 2616
landing 2615
threshold 2615
vegetable 2615
consolidation 2614
ich 2613
impacts 2613
p.m. 2613
Again 2612
guards 2612
Enterprises 2611
Stop 2611
steal 2610
fatigue 2609
roughly 2609
cheaper 2608
shi@@ 2608
ster@@ 2608
bulk 2607
Culture 2606
NGOs 2605
Pr@@ 2605
24@@ 2604
there@@ 2604
Wal@@ 2602
bent 2602
bubble 2602
Currently 2601
barrel 2601
ounding 2601
tively 2601
unnecessary 2601
uan 2600
unhappy 2600
icity 2599
rings 2599
Austria 2598
Gulf 2598
patience 2598
appraisal 2597
hydrogen 2597
journal 2597
ju@@ 2597
ATION 2596
agrees 2596
slept 2596
Election 2595
clever 2595
dge 2595
hoc 2595
CE@@ 2593
Ham@@ 2592
Production 2592
installations 2592
Pur@@ 2590
sheets 2590
label 2589
Room 2588
SS 2588
Class 2587
acknowledge 2587
divide 2587
ga@@ 2587
trick 2587
Digital 2586
drag 2586
Goldman 2585
efficacy 2585
CT 2584
Looking 2584
Add 2583
Ros@@ 2583
congress 2583
scores 2583
stretch 2583
Back 2582
authorization 2582
expecting 2582
pursuing 2582
stolen 2582
pit 2581
workshops 2580
.com 2579
medal 2578
somehow 2577
sponsored 2577
.鈥 2576
cheese 2576
lord 2576
spirits 2576
wal@@ 2576
ministry 2574
Pri@@ 2573
accountability 2573
anticipated 2573
pressures 2573
ram@@ 2573
Ru@@ 2572
decisive 2572
Relations 2571
bicycle 2571
wars 2571
Almost 2570
considerably 2570
craft 2569
cam@@ 2568
knock 2568
sophisticated 2568
crossing 2567
eth@@ 2567
pillar 2567
Along 2566
Ir@@ 2566
identifying 2566
inadequate 2566
elec@@ 2565
iously 2565
letting 2565
Bob 2564
Du@@ 2563
accounted 2563
dressing 2563
dam@@ 2562
mile 2562
isi@@ 2560
ket 2560
asting 2559
lows 2558
Point 2557
boats 2557
seldom 2557
tal 2557
Developing 2556
aching 2556
grey 2556
issuing 2556
inspired 2555
lab 2555
drops 2554
pig 2554
portfolio 2554
proposes 2554
revision 2553
analytical 2551
loop 2551
attempted 2550
.1 2549
imaging 2549
investing 2549
Uni@@ 2548
cancel 2548
revenues 2548
Field 2546
camps 2546
ith 2546
stat@@ 2546
Afghan 2544
Principles 2544
argued 2544
negotiating 2544
phenomena 2544
til@@ 2544
musical 2543
strip 2543
infl@@ 2542
whereas 2542
temperatures 2541
CC 2540
with@@ 2540
ranks 2539
seismic 2539
governor 2538
illegally 2538
ement@@ 2537
sou@@ 2537
fold 2536
immigration 2536
scared 2536
Additional 2535
Er@@ 2534
km 2533
ner@@ 2533
hills 2532
mic@@ 2532
ethical 2531
princess 2530
spreading 2530
Susan 2529
Yu@@ 2529
beef 2529
legally 2529
pink 2529
HO@@ 2528
accepting 2528
dol@@ 2528
graph 2528
captured 2527
hunting 2527
ros@@ 2527
foot@@ 2525
subsequently 2525
anxious 2524
dull 2524
person@@ 2524
Johnson 2523
fic@@ 2523
1987 2522
leisure 2522
appreciated 2521
perceived 2521
---@@ 2520
BS 2520
OAU 2519
alike 2519
conviction 2519
cultivation 2519
fax 2519
pun@@ 2519
Xinjiang 2517
elegant 2517
1980 2516
IMF 2516
Id 2516
tent 2516
Effect 2515
intr@@ 2514
lip 2514
tation 2514
Nigeria 2513
plug 2513
analyst 2512
noon 2512
ple@@ 2512
Daily 2511
Subcommittee 2511
cattle 2511
differential 2511
quarantine 2511
grasp 2510
posted 2510
notion 2509
port@@ 2509
ruled 2509
admission 2508
delicious 2508
devil 2508
ingredients 2508
pped 2508
wolf 2508
Notes 2506
accommodation 2506
cru@@ 2506
nonlinear 2506
creativity 2505
noble 2505
spatial 2505
wives 2505
compl@@ 2504
fled 2504
migrant 2504
personally 2503
BO@@ 2502
comparative 2502
volunteers 2502
Holy 2501
ignored 2501
midnight 2501
Bosnian 2500
Practice 2500
flowing 2500
Blue 2499
PC@@ 2499
quantitative 2499
drama 2498
reception 2497
TO@@ 2496
AB@@ 2495
automobile 2495
tations 2495
hygiene 2494
Say 2493
displacement 2493
hes 2493
zer 2493
prediction 2492
sid@@ 2492
ared 2491
sle@@ 2491
colored 2490
ok 2490
rocket 2490
shower 2489
specially 2489
Someone 2488
infant 2488
knocked 2488
slope 2488
surge 2488
creatures 2487
Suddenly 2486
smiling 2486
Pat@@ 2485
Mag@@ 2484
buyer 2484
classified 2484
conscience 2484
deliberations 2484
new@@ 2484
oper@@ 2484
predicted 2484
Tin 2483
Turkish 2483
Rio 2482
deformation 2482
Fil@@ 2481
San@@ 2481
developers 2481
ladies 2481
time@@ 2480
ard@@ 2479
creature 2479
Frank 2478
petroleum 2478
plates 2478
deny 2477
educated 2477
enhancement 2477
desirable 2476
inhabitants 2475
kilometres 2475
styles 2475
Kar@@ 2474
boyfriend 2474
dioxide 2474
fierce 2474
va 2474
Angeles 2473
Reform 2473
blade 2473
dom 2473
economically 2473
insufficient 2473
owns 2472
poetry 2472
traditions 2472
Money 2471
circular 2471
flo@@ 2471
toys 2471
unions 2471
cord 2470
Against 2469
breeding 2469
differ 2469
ress 2469
Poland 2468
engineers 2468
outline 2467
royal 2466
Everybody 2465
Philippines 2465
safely 2465
premium 2464
challenging 2463
contingent 2463
nan@@ 2462
q 2462
stock@@ 2462
tribute 2462
afterwards 2461
threatening 2461
tier 2461
privacy 2459
struggling 2459
visa 2459
6,@@ 2458
Urban 2458
oxide 2458
statutory 2458
tackle 2456
Enterprise 2455
charity 2455
freedoms 2455
objection 2455
eve 2454
transfers 2454
publicly 2453
earliest 2452
rear 2452
focal 2451
real@@ 2451
Senior 2450
GM 2449
Autonomous 2448
gun@@ 2448
neighbouring 2447
rental 2446
attending 2445
queen 2445
receives 2445
enters 2443
modification 2443
sells 2443
surrounded 2443
Analy@@ 2442
Recently 2442
break@@ 2442
motivation 2442
Card 2441
magnitude 2440
temporarily 2440
tensions 2439
Soon 2438
ached 2438
muscles 2438
proves 2438
witnessed 2438
Out@@ 2437
Sales 2437
confirmation 2437
midst 2436
rain@@ 2436
tract 2436
custody 2435
sphere 2435
Fire 2434
Myanmar 2432
emission 2432
taxation 2432
Parliament 2431
fulness 2431
globe 2431
Che@@ 2430
bold 2430
incurred 2430
op 2430
reservations 2430
upgrade 2430
initi@@ 2429
passport 2429
trac@@ 2429
washed 2429
wherever 2429
Software 2428
indication 2428
lers 2428
delays 2427
restored 2427
antly 2426
recovered 2426
substantially 2426
insul@@ 2425
ze@@ 2425
fragile 2424
panic 2424
wondered 2424
stimulus 2423
timing 2423
Inc 2422
ere@@ 2422
mathematics 2422
obtaining 2422
approached 2421
sooner 2421
Movement 2420
assurance 2420
proven 2420
Head 2419
Regulation 2419
clay 2419
layers 2419
racism 2418
screw 2418
motor@@ 2417
FOR 2415
nor@@ 2415
protest 2415
counties 2414
ric 2414
Son 2413
barely 2413
mobilization 2413
quantities 2413
C.@@ 2412
incentives 2411
Tel 2410
avoided 2410
,000 2409
Fre@@ 2408
poll 2408
amendment 2407
insisted 2407
mystery 2407
revolutionary 2407
Circular 2406
allegations 2405
ette 2405
ishes 2405
endless 2404
Different 2403
Too 2403
meantime 2403
pin 2403
UNITA 2402
Wong 2402
acti@@ 2402
ink@@ 2402
long@@ 2402
rav@@ 2402
sunshine 2402
Star 2400
conf@@ 2400
abstract 2399
aesthetic 2399
certification 2399
employ 2399
settings 2399
Texas 2398
nec@@ 2398
performances 2398
py 2398
surprising 2398
Better 2397
emergencies 2397
sincerely 2397
sty@@ 2397
cont@@ 2396
extending 2396
surgical 2395
Clinical 2394
reaches 2393
Doctor 2392
Whenever 2392
conservative 2392
correction 2392
striking 2392
Hence 2391
100@@ 2390
Happy 2390
Unlike 2390
amendments 2390
toll 2390
uni@@ 2390
ata 2389
ock 2389
atively 2388
extract 2388
gy 2388
prisoner 2388
impressive 2387
liquidity 2387
teen 2387
trigger 2387
witnesses 2387
Corp. 2385
OR 2385
cruel 2385
esses 2385
mighty 2385
snake 2385
thief 2384
Date 2383
barrier 2383
officially 2382
Round 2381
owe 2381
tives 2381
happily 2380
repl@@ 2380
specifications 2380
Something 2379
Captain 2378
Grand 2378
Pearl 2378
circles 2378
versions 2378
voted 2378
Church 2377
substitute 2377
PRO@@ 2375
boundaries 2375
HA 2374
Yu 2374
associate 2374
ever@@ 2374
reinforced 2374
accessible 2373
destiny 2373
edly 2373
Sam 2372
alter 2372
uation 2370
ump 2370
Bro@@ 2369
author@@ 2369
bride 2369
conception 2369
constituted 2369
perception 2369
Wait 2368
eds 2368
13.@@ 2367
ax@@ 2367
tel@@ 2367
bit@@ 2366
imperative 2366
pitch 2366
Traffic 2365
encounter 2365
neighbours 2365
Table 2364
limitations 2364
wil@@ 2363
igh@@ 2362
My@@ 2361
mounted 2361
not@@ 2361
Systems 2360
Welfare 2359
basin 2359
basket 2359
sorts 2359
CPC 2358
pot@@ 2358
disappointed 2357
free@@ 2357
negotiate 2357
insist 2356
width 2356
ED@@ 2354
Ke@@ 2354
bers 2354
ility 2354
trap 2354
demanded 2353
mp@@ 2353
respects 2352
Premier 2351
laughed 2351
impressed 2350
notification 2350
stu@@ 2350
Activities 2349
aluminum 2349
isolation 2349
placement 2349
Often 2348
ashed 2348
seeks 2348
Observer 2347
monopoly 2345
neighbor 2345
rage 2345
Don@@ 2344
awards 2344
rod 2344
Pal@@ 2343
deadline 2343
distinguished 2342
fier 2342
mul@@ 2342
Kim 2341
coefficient 2341
idi@@ 2341
Neither 2339
cri@@ 2339
prevented 2339
oting 2338
extr@@ 2337
pharmaceutical 2337
guiding 2336
thirds 2336
defendant 2335
owed 2335
CEO 2334
Mobile 2334
mercy 2333
pole 2333
intends 2332
palace 2332
za 2332
reg@@ 2331
counted 2330
trials 2330
Harvard 2329
consolidated 2328
variables 2328
deserves 2327
regulate 2327
7,@@ 2326
gotten 2326
behold 2325
laughing 2325
occurrence 2325
HKSAR 2324
Wor@@ 2324
competitors 2324
drilling 2324
particle 2324
Calls 2323
Spirit 2323
Task 2323
identical 2323
troubled 2323
paintings 2322
bare 2321
flies 2321
poet 2321
fri@@ 2320
nic@@ 2320
Questions 2318
Tourism 2318
organisation 2318
ained 2317
furnace 2317
inch 2316
Nor 2315
cop@@ 2315
son@@ 2315
Read 2314
ab 2314
despair 2314
voices 2314
closure 2313
council 2313
grav@@ 2313
Music 2312
sing@@ 2312
Anyone 2311
Sec@@ 2310
relay 2310
Number 2309
Over@@ 2309
Steve 2309
liberty 2309
neighbors 2309
combining 2308
dam 2308
eradication 2308
ided 2308
Student 2307
ust@@ 2307
Ag@@ 2306
Ben 2306
essay 2306
14.@@ 2305
contractual 2305
grandfather 2304
mal 2304
CSCE 2303
references 2303
Ford 2302
contractor 2302
int 2302
demanding 2301
edition 2301
hotels 2301
pound 2301
therapeutic 2301
belonging 2300
butter 2299
defect 2299
scal@@ 2299
Import 2298
Valentine 2298
ao@@ 2298
engaging 2298
mild 2298
soccer 2298
compounds 2297
questioned 2297
alistic 2296
11@@ 2295
Stamp 2295
gods 2295
humor 2295
persistent 2295
facilitating 2294
Gi@@ 2293
embargo 2293
incidence 2293
moisture 2293
pro 2293
alert 2292
credibility 2292
crises 2292
fulfilled 2292
matic 2292
suits 2292
Dutch 2291
announce 2291
lis@@ 2290
radical 2290
stairs 2290
financed 2289
hence 2288
keeper 2287
probability 2287
slide 2287
v. 2287
absorbed 2286
asted 2286
met@@ 2286
Denmark 2285
Medicine 2285
amended 2284
examining 2284
obliged 2284
Ph@@ 2283
a.m. 2283
dar@@ 2283
drafting 2283
loads 2283
reduces 2282
Sun@@ 2281
elastic 2281
Country 2280
calcium 2280
delight 2280
vol@@ 2280
Macau 2278
repatriation 2278
Emergency 2277
Inspection 2277
blast 2277
hazardous 2277
ili@@ 2277
optimistic 2277
poultry 2277
way@@ 2277
250 2276
masters 2276
publish 2276
aining 2275
exercising 2275
act@@ 2274
ax 2274
indicating 2274
jury 2274
plot 2274
mic 2273
orderly 2273
Platform 2272
swear 2272
tal@@ 2272
Administrator 2271
beating 2271
instances 2271
magazines 2271
ti 2271
accumulation 2270
laying 2269
fitting 2268
uring 2268
1985 2267
Officials 2267
currencies 2267
pan 2267
environments 2266
payable 2266
shelf 2266
proceeds 2265
Ni@@ 2264
St. 2264
Super@@ 2264
Cyprus 2263
UNESCO 2263
aled 2262
oo 2262
convey 2261
Theory 2260
corrosion 2260
farming 2260
graduation 2260
orbit 2260
Barack 2259
counsel 2259
reconsideration 2259
popularity 2258
BR@@ 2257
Ten@@ 2257
enter@@ 2257
escaped 2257
ED 2256
inherent 2256
metals 2256
fake 2255
rotation 2255
stricken 2255
viable 2255
concerted 2254
conform 2254
evaluated 2254
hypo@@ 2254
peasants 2254
Nowadays 2253
conjunction 2253
cou@@ 2253
deb@@ 2253
geological 2253
listing 2253
oph@@ 2253
Chung 2252
dining 2252
stopping 2252
glance 2251
golf 2251
sy@@ 2251
fancy 2250
marking 2250
themes 2250
utmost 2250
weekly 2250
det@@ 2249
psych@@ 2249
termination 2249
Generally 2248
Hor@@ 2248
Investigation 2246
ed.@@ 2246
mount 2246
reminded 2246
Tre@@ 2245
matches 2245
modes 2245
quar@@ 2245
Dalai 2244
bother 2243
researches 2243
tab@@ 2243
confusion 2242
Arts 2241
accord 2241
ection 2241
incomes 2241
rushed 2241
them@@ 2241
Branch 2240
toy 2240
Chang@@ 2239
blessed 2239
safeguarding 2239
mag@@ 2238
medicines 2238
Can@@ 2237
beliefs 2237
infectious 2237
sters 2237
apples 2236
attaches 2236
blo@@ 2236
Bel@@ 2235
Paper 2235
decent 2235
plasma 2235
stops 2235
Inv@@ 2234
Keywords 2234
Stock 2234
ases 2234
bye 2234
deadly 2234
supervise 2234
1980s 2233
algorithms 2233
junior 2233
tru@@ 2233
Hollywood 2232
criminals 2232
net@@ 2232
Saudi 2231
engines 2231
hiding 2231
BC 2229
calculating 2229
Book 2228
cho@@ 2228
stretched 2228
wrapped 2228
Coun@@ 2227
ote 2227
Rather 2226
convened 2226
reactions 2226
traders 2225
wondering 2225
Performance 2224
oldest 2224
rating 2224
zes 2224
Mount 2223
postal 2223
shit 2223
stimulate 2223
elect 2222
gh 2222
inging 2222
launching 2222
safeguards 2222
tragic 2222
altogether 2221
greenhouse 2221
itate 2221
sunlight 2221
attribute 2220
gang 2220
shine 2220
raises 2219
rad@@ 2218
script 2218
vaccine 2217
Anti@@ 2216
Comp@@ 2216
doc@@ 2216
responding 2216
threaten 2216
Judah 2215
entrepreneurs 2215
facial 2215
removing 2215
AG@@ 2214
Sup@@ 2214
boo@@ 2214
nut 2214
placing 2214
routes 2214
oms 2213
sectoral 2212
La@@ 2211
breeze 2211
enting 2211
obstacle 2211
ature 2210
hin@@ 2210
capit@@ 2209
creditors 2209
ories 2209
respondents 2209
worship 2209
1986 2208
definite 2207
tale 2207
warehouse 2207
blank 2206
detained 2206
grandmother 2206
ro 2206
Op@@ 2205
addresses 2205
CR@@ 2204
Helen 2204
poem 2204
thickness 2204
toilet 2204
Palestinians 2203
alities 2203
oping 2203
err@@ 2202
Type 2201
show@@ 2201
Certainly 2200
dating 2200
Private 2199
aded 2199
lifestyle 2199
pop@@ 2199
relaxed 2199
t.@@ 2199
excitement 2198
pledged 2198
Assessment 2197
Port 2197
consolidate 2197
codes 2196
cow 2196
hostile 2196
lah 2195
champion 2194
differently 2194
dramatically 2194
shade 2194
solely 2194
Portugal 2193
radioactive 2193
incentive 2192
probe 2192
tum@@ 2192
fications 2191
instability 2191
tap 2191
Cairo 2190
biology 2190
forestry 2190
grief 2190
tivity 2190
tl@@ 2190
100,000 2188
UNOSOM 2188
ano 2188
ashing 2188
undertakings 2188
Effects 2187
administering 2187
tioned 2187
atomic 2186
theatre 2186
red@@ 2185
row@@ 2185
some@@ 2185
Phot@@ 2184
dried 2184
Florida 2183
adjustments 2183
let@@ 2183
Compared 2182
swing 2182
temper 2182
travelling 2182
environmentally 2181
node 2181
thrust 2181
uncertain 2181
consist 2180
mapping 2179
Consequently 2178
arbitrary 2178
pit@@ 2178
prevailing 2178
directory 2177
influenza 2177
smuggling 2177
ands 2176
ope 2176
sb 2176
esti@@ 2175
Cat@@ 2174
Democrats 2174
synthetic 2174
van 2174
Find 2173
bathroom 2173
celebration 2173
lic@@ 2173
locally 2173
Discrimination 2172
filing 2172
yer 2172
add@@ 2170
breathe 2170
mes@@ 2170
prosperous 2170
stresses 2170
Age 2169
shorter 2169
maid 2168
supervisory 2168
pipeline 2167
robust 2167
verified 2167
deeds 2166
eliminated 2166
mask 2166
McCain 2165
Mongolia 2165
inheritance 2165
luggage 2165
oot 2165
therein 2165
billions 2164
han 2164
udes 2164
Guinea 2163
asts 2163
Acting 2162
Large 2162
Steel 2162
secured 2162
Key 2160
critics 2160
lining 2160
Total 2159
breach 2159
contractors 2159
exceeding 2159
Download 2158
Experience 2158
Sil@@ 2158
bits 2158
cabinet 2158
coun@@ 2158
garbage 2158
key@@ 2158
electron 2157
icate 2157
nowadays 2157
absorb 2156
attributes 2156
climbed 2156
criterion 2156
itated 2156
wool 2155
B.@@ 2154
log@@ 2154
nat@@ 2154
planes 2153
sav@@ 2153
Cheung 2152
purchases 2152
blog 2151
house@@ 2151
resolving 2151
seas 2150
sympathy 2150
cave 2149
disabilities 2149
draws 2149
fat@@ 2149
Tong 2148
gated 2148
minimize 2148
enjoys 2147
torch 2147
Jud@@ 2146
Phase 2146
gates 2146
sealed 2146
Lin 2145
VII 2145
diversification 2145
equations 2145
medi@@ 2145
oun@@ 2145
CF@@ 2144
ache 2144
flat@@ 2144
emergence 2143
erosion 2143
reporter 2143
16.@@ 2142
Hill 2142
ode 2142
eting 2141
ideological 2141
promotes 2140
reasonably 2140
eller 2138
itor 2138
renewal 2138
Always 2137
transnational 2137
Concerning 2136
merger 2136
socialism 2136
envisaged 2135
slowdown 2135
wind@@ 2135
Hope 2134
macro 2134
sne@@ 2134
bi 2133
crown 2133
iling 2133
overwhelming 2133
Cap 2132
Gold 2132
SD 2132
brains 2132
hast 2131
maintains 2131
tible 2131
OM 2130
futures 2130
CL@@ 2129
Guide 2129
confused 2129
ort 2129
sit@@ 2129
exclusively 2128
fits 2128
flash 2128
rigid 2128
CON@@ 2127
Direc@@ 2127
emerge 2127
immigrants 2127
resin 2127
accelerated 2126
connecting 2126
kilometers 2126
metric 2126
relevance 2126
bury 2125
bonus 2124
shy 2124
P.@@ 2123
abundance 2123
alised 2123
aspirations 2123
balls 2123
cited 2123
dangers 2123
sodium 2123
sustain 2123
Chi@@ 2122
Gal@@ 2122
apparatus 2122
behaviors 2122
powered 2122
pulling 2122
Sy@@ 2121
ea 2121
110 2120
Except 2120
formally 2120
upward 2120
yang 2120
adhere 2119
expressing 2119
opponent 2119
vel@@ 2119
grants 2118
clearing 2117
enjoyment 2117
progressive 2117
Emperor 2116
Ive 2116
MA 2116
Ram@@ 2116
campaigns 2116
liabilities 2116
worries 2116
bore 2115
sweat 2115
wicked 2115
founding 2114
congratulate 2113
execute 2113
feared 2113
Serbia 2112
Show 2112
Death 2111
freeze 2111
od 2111
specification 2111
Monitoring 2110
cleared 2110
institute 2110
mobilize 2110
permits 2109
shield 2109
Low 2107
War@@ 2107
adventure 2107
assumption 2107
scenes 2107
ball@@ 2106
lacking 2106
password 2106
cooked 2105
distinguish 2105
modify 2105
Otherwise 2104
dat@@ 2104
judgement 2104
sion@@ 2104
ski 2104
UNDCP 2103
fare 2103
offensive 2103
swe@@ 2103
5th 2102
Bon@@ 2102
climbing 2102
cognitive 2102
complement 2102
equilibrium 2102
irrigation 2102
50,000 2101
IA 2101
Independent 2101
adequately 2101
Mozambique 2100
diameter 2100
A.@@ 2099
mayor 2099
pic@@ 2099
spo@@ 2099
dirt 2098
exceptional 2098
hook 2098
varied 2098
worlds 2098
exhausted 2096
tory 2096
3rd 2095
asc@@ 2095
continuation 2095
transformed 2095
absent 2094
asses 2094
diagnostic 2094
friction 2093
ket@@ 2093
approaching 2092
invasion 2092
reveals 2092
Uganda 2091
nationals 2091
parks 2091
div@@ 2090
employing 2090
Princess 2089
DO@@ 2088
agged 2088
chat 2088
Annual 2087
Media 2087
economical 2087
favourite 2087
uck@@ 2087
Es@@ 2086
ambitious 2085
pie 2085
21st 2083
AM 2083
fuels 2083
nationwide 2083
projected 2083
3,000 2082
Process 2082
nal 2082
trains 2082
urges 2082
8,@@ 2081
Credit 2081
charm 2081
justified 2081
nest 2081
preserved 2081
PRC 2080
neutral 2080
Knowledge 2079
Recognizing 2079
Valley 2079
ailed 2079
analyse 2079
prayer 2079
presidency 2079
scenery 2079
geographic 2078
main@@ 2078
wastes 2078
Fu@@ 2077
Qing 2077
occasionally 2077
photograph 2076
Benjamin 2075
dig 2075
hun@@ 2075
render 2075
roller 2075
foolish 2074
hot@@ 2074
commander 2073
halt 2073
Making 2072
berry 2072
axis 2071
continually 2071
interfere 2071
oured 2071
pledge 2071
Product 2070
far@@ 2069
neighborhood 2069
partially 2068
positively 2068
Chemical 2067
Rent 2067
drives 2067
Offices 2066
heart@@ 2066
improves 2066
poured 2066
Common 2065
cats 2065
displays 2065
ition 2065
vain 2065
conv@@ 2064
embrace 2064
flavor 2064
unlike 2063
heated 2062
hing 2062
Weapons 2061
consistency 2061
hybrid 2061
inj@@ 2061
jail 2061
silly 2061
combating 2060
disability 2060
durable 2060
odi@@ 2060
retained 2060
run@@ 2060
tiger 2060
wildlife 2060
clubs 2059
enacted 2059
quoted 2059
rendered 2059
scattered 2059
sink 2059
50@@ 2058
colonial 2058
reaffirmed 2058
abnormal 2057
catalyst 2057
Yi 2056
highlight 2056
inal 2056
naked 2056
Estate 2055
Firstly 2055
amm@@ 2055
eh 2055
landed 2055
roses 2055
smoothly 2055
tracks 2055
actress 2054
breakdown 2054
drying 2054
emperor 2054
mysterious 2054
Competition 2053
accommodate 2053
eu@@ 2053
troubles 2053
brick 2052
class@@ 2052
generator 2052
preference 2052
Mic@@ 2051
comprises 2051
planting 2051
indicator 2050
surfaces 2050
EC 2048
dness 2048
renewable 2048
condemned 2047
supplementary 2047
vitamin 2047
Chamber 2046
Were 2046
highlighted 2045
Researchers 2044
appetite 2044
Senator 2043
admire 2043
isation 2043
remuneration 2043
wholly 2043
Ping 2042
amine 2042
cents 2042
consulting 2042
query 2042
Higher 2041
faults 2041
races 2041
TA 2040
offences 2040
reads 2040
beans 2039
sauce 2039
ulating 2039
Mac 2038
Mediterranean 2038
apartheid 2038
arose 2038
spray 2038
AR 2037
SU@@ 2037
desperate 2037
harsh 2037
reviewing 2037
illing 2036
Uh 2035
math 2035
utilized 2035
abandon 2034
accumulated 2034
beaten 2034
cin@@ 2034
depressed 2034
hosted 2034
ank@@ 2033
bridges 2033
burnt 2033
ough 2033
reinforce 2033
Fer@@ 2032
Current 2031
coll@@ 2031
duck 2031
ometer 2031
spe@@ 2031
sanitation 2030
violated 2030
sman 2029
Rice 2028
ape 2028
converted 2028
gay 2028
oped 2028
Sen@@ 2027
pets 2027
tra@@ 2027
traditionally 2027
recipient 2026
deck 2025
persuade 2025
supplement 2025
Apart 2024
Tower 2024
fertility 2024
pupils 2024
Traditional 2023
containers 2023
optimum 2023
examinations 2022
Bible 2021
Tony 2021
inevitably 2021
preferential 2021
readily 2021
varieties 2021
drank 2020
Jackson 2019
sewage 2019
anim@@ 2018
human@@ 2018
scr@@ 2018
subprogramme 2018
Pan@@ 2017
broadcasting 2017
Line 2016
backward 2016
passive 2016
expectation 2015
4th 2014
administered 2014
pigs 2014
sible 2014
adaptive 2013
intent 2013
mediation 2013
stro@@ 2013
tariff 2013
unfair 2013
bat@@ 2012
blew 2012
dominated 2011
ester 2011
grammar 2011
retro@@ 2010
shaking 2010
it.@@ 2009
compensate 2008
da@@ 2008
disappear 2008
finishing 2008
indirect 2008
licensing 2008
Level 2007
elaborate 2007
self@@ 2007
Poor 2006
fitness 2006
illed 2006
maturity 2006
suff@@ 2006
1978 2005
attain 2005
gged 2005
nail 2005
networking 2005
spaces 2005
Watch 2004
Words 2004
enforce 2004
ager 2003
AI@@ 2002
RC 2002
tune 2002
DS 2000
Internal 2000
Jacob 2000
damn 2000
demonstrates 2000
intensify 2000
knees 2000
ologic 2000
sail 2000
Recent 1999
explored 1999
tening 1999
1. 1998
Uruguay 1998
acking 1998
villagers 1998
deterioration 1997
disclosure 1997
Serb 1996
dependence 1996
doubts 1996
estimation 1996
punish 1996
reliance 1996
sen 1996
terrorists 1996
Kenya 1995
cylinder 1995
tended 1995
Met@@ 1994
determin@@ 1994
eternal 1994
supporters 1993
traits 1993
NATO 1992
UNAMIR 1992
baseball 1992
lean 1992
Call 1991
compression 1991
hat@@ 1991
urgently 1991
Sarah 1990
Mus@@ 1989
chaos 1989
sum@@ 1989
electronics 1988
servicing 1988
succession 1988
curious 1987
Heads 1986
aves 1986
clinic 1986
deputies 1986
lev@@ 1986
shots 1986
Rom@@ 1985
evolved 1985
ity@@ 1985
Ho@@ 1984
Ren@@ 1984
bush 1984
funeral 1984
aches 1983
exchanged 1983
founder 1983
ghost 1983
wanting 1983
assign 1982
inspiration 1982
interviews 1982
useless 1982
Movie 1981
care@@ 1981
ful@@ 1981
lec@@ 1981
supper 1981
bunch 1980
obey 1980
wrong@@ 1980
baggage 1979
batch 1979
caring 1979
Fo@@ 1978
deficiency 1978
costly 1977
ffs 1977
gentlemen 1977
vent 1977
105 1976
Lady 1976
shining 1976
borrowing 1975
diagram 1975
needle 1975
nuts 1975
ulate 1975
OBJECTIVE 1974
lens 1974
sensing 1974
worm 1974
SE 1973
Square 1973
True 1973
neural 1973
counting 1972
bankers 1971
genius 1971
minerals 1970
nitrogen 1970
realities 1970
tual 1970
ues 1970
anda 1969
spin 1969
vic@@ 1969
Exhibition 1968
LE 1967
SI@@ 1967
Ten 1966
flour 1966
utilize 1966
Commander 1965
dismissed 1965
phases 1965
vely 1965
Xinhua 1964
league 1964
titles 1964
Lam@@ 1963
forecasts 1963
invented 1963
io 1963
photographs 1963
faithful 1962
purple 1962
Pot@@ 1961
alleviate 1961
altered 1961
buses 1961
farms 1961
thanked 1961
vector 1961
Ha@@ 1960
encouragement 1960
forthcoming 1960
hatred 1960
infrared 1960
pointing 1960
slipped 1960
testimony 1960
Exc@@ 1959
Index 1959
Song 1959
expresses 1959
internally 1959
lovers 1959
nevertheless 1959
bra@@ 1958
drill 1958
liquidation 1957
ament 1956
distress 1956
varying 1956
mus@@ 1955
outbreak 1955
read@@ 1955
1984 1954
embedded 1954
Dem@@ 1953
ght 1953
translated 1953
&apos;It 1952
Final 1951
Regarding 1951
hazard 1951
hosts 1951
lif@@ 1951
arity 1950
castle 1950
&apos;The 1949
Garden 1949
Summer 1948
Heaven 1947
ce@@ 1947
clause 1947
manufactured 1947
transitional 1947
opera 1946
shocked 1946
hen 1944
investigating 1944
nearest 1944
parliament 1944
physically 1944
rated 1944
charming 1943
enquiries 1943
failures 1943
microwave 1943
sentiment 1943
Dar@@ 1942
1.5 1941
Case 1941
alling 1941
blocked 1941
delighted 1941
governed 1941
sacred 1941
saith 1941
Full 1940
carpet 1940
cle@@ 1940
compatible 1940
gases 1940
Annex 1939
Finland 1939
defining 1939
tery 1939
Behold 1938
Hom@@ 1938
explosive 1938
Observatory 1936
une 1936
vigorous 1936
Lu 1934
XX@@ 1934
fro@@ 1934
ples 1934
tactics 1934
Electric 1933
fucking 1933
CE 1932
Zone 1932
avoiding 1931
commits 1931
monkey 1931
provider 1931
remedy 1931
tire 1931
TC 1930
compact 1930
confrontation 1930
missiles 1930
seize 1930
2. 1929
realizing 1929
selecting 1929
beds 1928
hair@@ 1928
rape 1928
recurrent 1928
fastest 1927
oversight 1927
turmoil 1927
consisting 1926
doesnt 1926
packages 1926
bab@@ 1925
bamboo 1925
consume 1925
countermeasures 1925
idity 1925
satellites 1925
Bor@@ 1924
lied 1924
Coordinator 1923
Question 1923
clerk 1923
aunt 1921
motivated 1921
polar 1921
speculation 1921
combustion 1920
conditioning 1920
forbidden 1920
profitable 1920
trips 1920
inspections 1919
lac@@ 1919
transmitting 1919
Tor@@ 1918
Rose 1917
adi@@ 1917
ji 1917
novels 1917
processor 1917
reiterated 1917
relieve 1917
touching 1917
gradual 1916
mainstream 1916
nom@@ 1916
throwing 1916
frontier 1915
strikes 1915
translate 1915
Comprehensive 1913
Strengthening 1913
cultivated 1913
nationalities 1913
coupled 1912
whis@@ 1912
bec@@ 1911
consultants 1911
foundations 1911
managerial 1911
tant 1911
Help 1910
Ku@@ 1908
Liverpool 1908
Tajikistan 1907
certified 1907
incredible 1907
picking 1907
ag 1906
colleague 1906
Promotion 1905
Travel 1905
initiate 1905
orally 1904
rs 1904
soap 1904
warn 1904
envelope 1903
readiness 1903
destructive 1902
mandatory 1902
smo@@ 1902
tun@@ 1902
arly 1901
inations 1901
multinational 1901
Francisco 1900
Shan 1900
Sino 1900
Stephen 1900
organised 1900
wheels 1900
rey 1899
Access 1898
Chinas 1898
drainage 1898
genocide 1898
Ju@@ 1897
honesty 1897
Defense 1896
casual 1896
straw 1896
Top 1895
cut@@ 1895
grand@@ 1895
meteorological 1895
shapes 1895
tiv@@ 1895
trunk 1895
inity 1894
symbol@@ 1894
Bridge 1893
Jews 1893
woke 1893
Chelsea 1892
Jiang 1892
aer@@ 1892
age@@ 1892
eful 1892
prejudice 1892
quake 1892
rivals 1892
year@@ 1892
Price 1891
WH@@ 1891
ani 1891
ater@@ 1891
banned 1891
desertification 1891
ows 1891
ref@@ 1891
rence 1891
umbrella 1891
writes 1891
lazy 1890
now@@ 1890
controversial 1889
exploring 1889
rude 1889
unemployed 1889
diesel 1888
zation 1888
Had 1887
Serbs 1887
dream@@ 1887
eliminating 1887
gaining 1887
talented 1887
Hi@@ 1886
politically 1886
ual 1886
band@@ 1885
ez 1885
awake 1884
bility 1884
miserable 1884
outdoor 1884
Teaching 1883
agging 1883
specialist 1883
ME 1882
VE 1882
attempting 1882
ison 1882
Click 1881
cour@@ 1881
volunteer 1881
Colombia 1880
DP 1880
fulfilling 1880
ome@@ 1880
scenario 1880
Lin@@ 1879
Radio 1879
designers 1879
inches 1879
Loc@@ 1878
Somali 1878
offshore 1878
lightning 1877
--- 1876
ance@@ 1876
dep@@ 1876
ich@@ 1876
hil@@ 1875
jiang 1875
n. 1875
prob@@ 1875
staffing 1875
Follow 1874
manners 1874
reject 1874
consultant 1873
demographic 1873
servers 1873
.He 1872
Fine 1872
Hon 1872
Records 1872
Win@@ 1872
Yesterday 1872
kidney 1872
kindly 1872
tightly 1872
Immigration 1871
adjusting 1871
fifteen 1871
fires 1871
gir@@ 1871
inger 1871
lessly 1871
milli@@ 1871
providers 1871
Reading 1870
industrialized 1870
traded 1870
Qi@@ 1869
alled 1869
hometown 1869
Bangladesh 1868
Snow 1868
intermediate 1868
peasant 1868
restrict 1868
statute 1868
thetic 1868
Ko@@ 1867
icated 1867
neg@@ 1867
quest 1867
reportedly 1867
violate 1867
ala 1866
scandal 1866
sits 1866
stre@@ 1866
workplace 1866
ratification 1865
aster 1864
bureau 1864
rub 1864
apped 1863
consumed 1863
itis 1863
olds 1863
sizes 1863
yen 1863
pants 1862
tense 1862
trades 1862
circumstance 1861
texture 1861
undermine 1861
restriction 1860
swept 1860
theater 1860
unc@@ 1860
ells 1859
ind 1859
ui 1859
1949 1858
Earlier 1858
bottles 1858
other@@ 1858
storms 1858
cleansing 1857
sign@@ 1857
ambition 1856
collar 1856
ony 1856
tened 1856
textile 1856
Commonwealth 1855
Palace 1855
Saint 1855
ST 1854
hunt 1854
rob@@ 1854
slowing 1854
suspend 1854
elementary 1853
inferior 1853
monitored 1853
Long@@ 1852
avi@@ 1852
coc@@ 1852
insects 1852
ratified 1852
react 1852
supportive 1852
Wei 1851
check@@ 1851
libraries 1851
maps 1851
sends 1851
Refugees 1850
fox 1850
gam@@ 1850
justify 1850
ken 1850
burg 1849
ghts 1849
ion@@ 1849
Madrid 1848
ca 1848
confined 1848
hip 1848
iring 1848
ranking 1848
residual 1848
allies 1847
municipality 1847
lane 1846
Sm@@ 1845
consecutive 1845
heal 1845
FA@@ 1844
Plant 1844
casualties 1844
fence 1844
shouted 1844
sponsor 1844
stole 1844
Ra@@ 1843
apologize 1843
consuming 1843
dairy 1843
elder 1842
excluding 1842
huh 1842
arr@@ 1841
ested 1841
iii 1841
pine 1841
cadres 1840
dissertation 1840
fid@@ 1840
overnight 1840
inks 1839
sticks 1839
Ban@@ 1838
CP@@ 1838
Zhou 1838
circum@@ 1838
frightened 1838
itch 1838
activated 1837
consultative 1837
experiencing 1837
sni@@ 1837
Wi@@ 1836
attraction 1836
Mao 1835
Reg@@ 1835
Republicans 1835
Speci@@ 1835
accession 1835
bullet 1835
motherland 1835
counterparts 1834
liaison 1834
skirt 1834
Habitat 1833
MP@@ 1833
beloved 1833
ker@@ 1833
mates 1833
Educational 1832
policeman 1832
reluctant 1832
aks 1831
candle 1831
cigarettes 1831
amounted 1830
evaluating 1830
ication 1830
Cam@@ 1829
Climate 1829
doubled 1829
encing 1829
penalties 1829
protests 1829
selfish 1829
101 1828
drum 1828
bleeding 1827
Articles 1826
Scotland 1826
convicted 1826
Alice 1825
Cases 1825
catching 1825
etc. 1825
nowhere 1825
Place 1824
magnificent 1824
measurements 1824
researched 1824
Mars 1823
blessing 1823
columns 1823
ols 1823
trusted 1823
Lau@@ 1822
Off@@ 1822
interactive 1822
ki 1822
Applications 1821
inclined 1821
stan@@ 1821
systematically 1821
Agricultural 1820
Patent 1820
determines 1820
ins@@ 1820
pollutants 1820
protects 1820
path@@ 1819
adjacent 1818
meanwhile 1818
mu@@ 1818
assi@@ 1817
dent 1817
mon 1817
bay 1816
sufficiently 1816
websites 1816
convert 1815
specialists 1815
subway 1815
yi 1815
9,@@ 1814
Hand@@ 1814
attendance 1814
materi@@ 1814
Usually 1813
collapsed 1813
confidential 1813
ena 1813
olog@@ 1813
ped@@ 1813
asylum 1812
cautious 1812
dense 1812
inspect 1812
subtle 1812
Care 1811
Representatives 1811
colorful 1811
endure 1811
mechanics 1811
texts 1811
EX@@ 1810
fame 1810
issuance 1810
Alan 1809
Hold 1809
Status 1809
asis 1809
continental 1809
inform@@ 1809
suited 1809
Catherine 1808
Dan@@ 1808
Write 1808
arriving 1808
chains 1808
disc 1808
mad@@ 1808
Mur@@ 1807
longest 1807
ques 1807
wat@@ 1807
idal 1806
loyal 1806
trad@@ 1806
BP 1805
ILO 1805
fond 1804
unclear 1804
urgency 1804
eld 1803
kings 1803
speeds 1803
cage 1802
celebrated 1802
divisions 1802
18.@@ 1801
Monetary 1801
Turn 1801
competing 1801
horizon 1801
negotiated 1801
backs 1800
wears 1800
Official 1799
eg 1799
electromagnetic 1799
fel@@ 1799
ts@@ 1799
Mountain 1798
You@@ 1798
cousin 1798
cross@@ 1798
tain@@ 1798
formulating 1797
morality 1797
neglect 1797
slave 1797
Sydney 1796
Used 1796
assessing 1796
onary 1796
refuses 1796
sampling 1796
wins 1796
Shel@@ 1795
aj@@ 1795
maternal 1795
structured 1795
unt 1795
.... 1794
Dan 1794
ions 1794
Gates 1793
Series 1793
bin@@ 1793
deepen 1793
headache 1793
nurses 1793
Conclusions 1792
aci@@ 1792
criticized 1792
NE@@ 1791
relics 1791
IG@@ 1790
ight 1790
interpret 1790
kil@@ 1790
Ho 1789
Ur@@ 1789
aver@@ 1789
cultivate 1789
possessed 1789
tangible 1789
valuation 1788
withdrawn 1788
----@@ 1787
Fore@@ 1787
deciding 1787
macroeconomic 1787
ough@@ 1787
shallow 1787
Chile 1786
grab 1786
happier 1786
Syrian 1785
actu@@ 1785
curb 1785
idle 1785
pleas@@ 1785
regulated 1785
stal@@ 1785
Urges 1784
bull 1784
ada 1783
aper 1783
monitors 1783
Vir@@ 1782
hid 1782
poison 1782
Cs 1781
dragon 1781
meth@@ 1781
Chan 1780
advertisements 1780
axial 1780
gging 1780
lately 1780
Seven 1779
auditing 1779
helicopter 1779
life@@ 1779
mounting 1779
posing 1779
tless 1779
Speaking 1778
comparable 1778
distribute 1778
institutes 1778
Citigroup 1777
Goods 1777
Xiao 1777
advocate 1777
companion 1777
pour 1777
Ev@@ 1776
constructing 1776
participant 1776
tanks 1776
treatments 1776
Water@@ 1775
blowing 1775
reb@@ 1775
W. 1774
gy@@ 1773
vocabulary 1773
endeavour 1772
liberation 1772
wont 1772
mentally 1771
cinema 1770
chips 1769
commands 1769
Berlin 1768
PLA 1768
Simon 1768
cab@@ 1768
dia 1768
immense 1768
oming 1768
praised 1768
uded 1768
nie 1767
rays 1767
trillion 1767
migrants 1766
runner 1766
Committees 1765
Inf@@ 1765
Athens 1764
aboard 1764
incorporate 1764
sco@@ 1764
Micro@@ 1763
Santa 1763
Tai@@ 1762
bin 1762
coherent 1762
declining 1762
horror 1762
miracle 1762
screening 1762
stance 1762
convince 1761
fam@@ 1761
livestock 1761
bes 1760
di 1760
efully 1760
graduated 1760
seated 1760
Things 1759
hostilities 1759
licensed 1759
rejection 1759
restraint 1759
undoubtedly 1759
Yahoo 1758
anch@@ 1758
contracted 1758
fle@@ 1757
forums 1757
oe 1757
Asst 1756
infringement 1756
lav@@ 1756
march 1756
tac@@ 1756
Speech 1755
Sum@@ 1755
transmit 1755
ander 1754
arch 1754
behave 1754
cancelled 1754
ram 1754
Really 1753
Salvador 1753
aria 1753
n.@@ 1753
ounded 1753
quick@@ 1753
refined 1753
Jewish 1752
Nobel 1752
UNRWA 1752
wilderness 1752
altitude 1751
proceeded 1751
Albert 1750
enclosed 1750
adapted 1749
odds 1749
sang 1749
Conservation 1748
reactor 1748
CN@@ 1747
automation 1747
1982 1746
Obviously 1746
Thirdly 1746
breed 1746
dropping 1746
inputs 1746
reductions 1746
Session 1745
aly@@ 1745
encies 1745
level@@ 1745
rum@@ 1745
Experimental 1744
domin@@ 1744
eman 1744
home@@ 1744
mist 1744
&apos;We 1743
ona 1743
warmth 1743
Waste 1742
Xi@@ 1742
survived 1742
hearted 1741
loses 1741
proteins 1741
Communications 1740
drain 1740
lov@@ 1740
matched 1740
proc@@ 1740
well@@ 1740
airline 1739
eding 1739
invisible 1739
steep 1739
zi 1739
Jin@@ 1738
ASEAN 1737
coalition 1737
lem@@ 1737
LL@@ 1736
candy 1736
liberal 1736
molecules 1736
prop@@ 1736
trapped 1736
twin 1736
van@@ 1736
Sim@@ 1735
alien 1735
contracting 1735
Catholic 1734
Kin@@ 1734
bacterial 1734
classmates 1734
disclosed 1734
intensified 1734
kg 1734
15.@@ 1733
Television 1733
Timor 1733
ark 1733
complained 1733
timetable 1733
atten@@ 1732
complementary 1732
tastes 1732
upstairs 1732
zo@@ 1732
Au@@ 1731
Revolution 1731
disturbed 1731
shear 1731
wards 1731
atics 1730
bench 1730
cameras 1730
nam@@ 1730
Arabia 1729
May@@ 1729
polymer 1729
Employment 1728
Governor 1728
alliance 1728
chairs 1728
influential 1728
sch@@ 1728
New@@ 1727
coupling 1727
silicon 1727
Czech 1726
Sin@@ 1726
cleaner 1726
comparing 1726
sus@@ 1726
VIII 1725
cra@@ 1725
borrowed 1724
congratulations 1724
edi@@ 1724
itors 1724
mac@@ 1724
UNEP 1723
Yellow 1723
crum@@ 1723
garage 1723
healing 1723
mold 1723
torn 1723
Copenhagen 1722
bot@@ 1722
cavity 1722
artery 1721
confiscated 1721
recruited 1721
strangers 1721
Eve 1720
Financing 1720
adaptation 1720
hammer 1720
may@@ 1720
Progress 1719
pass@@ 1719
shalt 1719
som@@ 1719
yan 1719
hos@@ 1718
vigorously 1718
worrying 1718
Rol@@ 1717
cerebral 1717
low@@ 1717
obesity 1717
oceans 1717
Golden 1716
WFP 1716
coin 1716
fairness 1716
ideology 1716
intake 1716
album 1715
hollow 1715
set@@ 1715
stainless 1715
tag 1715
vitality 1715
ensures 1714
thats 1714
Andrew 1713
interrupted 1713
visitor 1713
fiction 1712
indoor 1712
solvent 1712
Issue 1711
Reuters 1711
acqu@@ 1711
freezing 1711
operates 1711
Job 1710
MA@@ 1710
adopts 1710
bic@@ 1710
plat@@ 1710
Green@@ 1709
Guidelines 1709
bla@@ 1709
fighters 1709
nominated 1709
ocr@@ 1709
Libyan 1708
debris 1708
defensive 1708
road@@ 1708
Abraham 1707
litigation 1707
Baghdad 1706
class1 1706
oxidation 1706
recognizes 1706
Village 1705
clarify 1705
downturn 1705
dozens 1705
graphy 1705
Lincoln 1704
anted 1704
judged 1704
oud 1704
Considering 1703
Equ@@ 1703
Sciences 1703
attorney 1703
blamed 1703
dist@@ 1703
grinding 1703
subsistence 1703
Registry 1702
carcinoma 1702
mixing 1702
proceeding 1702
ame@@ 1701
complications 1701
emia 1701
kle 1701
li 1701
regulators 1701
romance 1701
assembled 1700
conver@@ 1700
decoration 1700
factions 1700
tial 1700
Determination 1699
cycles 1699
gas@@ 1699
harmon@@ 1699
rabbit 1699
sixty 1699
induc@@ 1697
prompted 1697
thine 1697
yourselves 1697
） 1697
alongside 1696
oon 1696
outcomes 1696
sadness 1696
Elimination 1695
Sa@@ 1695
renal 1695
Egyptian 1694
ashamed 1694
quote 1694
adj@@ 1693
appropriately 1693
tenth 1693
utes 1693
clean@@ 1692
rein@@ 1692
stared 1692
unfortunate 1692
Bear 1691
Strategic 1691
pling 1691
refrain 1691
staring 1691
supermarket 1691
Pic@@ 1690
inning 1690
sailing 1690
umb@@ 1690
Teacher 1689
hyp@@ 1689
licenses 1689
refusal 1689
ry@@ 1689
thing@@ 1689
ventures 1689
2.5 1688
cleaned 1688
shortcomings 1688
nd 1687
solic@@ 1687
learnt 1686
otic 1686
spouse 1686
throne 1686
20th 1685
Def@@ 1685
carriers 1685
fantastic 1685
ington 1685
rid@@ 1685
winners 1685
130 1684
1979 1684
elite 1684
20,000 1683
Film 1683
exporters 1683
shipped 1683
eco 1682
glorious 1682
humble 1682
sunny 1682
Ethiopia 1681
alternatives 1681
scarce 1681
weigh 1681
xi@@ 1681
zy 1681
Ass@@ 1680
Half 1680
educ@@ 1680
mak@@ 1680
ministries 1680
exploit 1679
lawsuit 1679
paths 1679
Louis 1678
arc 1678
chang@@ 1678
cit@@ 1678
optimize 1678
ules 1678
disciplinary 1677
ecosystem 1677
kins 1677
literally 1677
Lama 1676
ignorance 1676
lic 1676
Venezuela 1675
beast 1675
hop@@ 1675
maxim@@ 1675
repairs 1675
zinc 1675
Amendment 1674
awful 1674
call@@ 1674
ounds 1674
ule 1674
wounds 1674
Autom@@ 1673
conce@@ 1673
expiration 1673
gal@@ 1673
ideals 1673
reimbursement 1673
distinctive 1672
gasoline 1672
Forms 1671
Provide 1671
commanded 1671
dor@@ 1671
Huang 1670
potatoes 1670
remark 1670
unacceptable 1670
yields 1670
Black@@ 1669
claiming 1669
describing 1669
ried 1669
Ret@@ 1668
fleet 1668
slower 1668
trail 1668
Cold 1667
Ki@@ 1667
curtain 1667
gic 1667
inated 1667
industrialization 1667
instantly 1667
strongest 1667
zoo 1667
Zhejiang 1666
dial 1666
minimal 1666
on.@@ 1666
switching 1666
argues 1665
emi@@ 1665
Bulgaria 1664
Cheng 1664
Fair 1664
Living 1664
reck@@ 1664
seasons 1664
Certain 1663
Friends 1663
Twenty 1663
esis 1663
sli@@ 1663
souls 1663
Especially 1662
cough 1662
fal@@ 1662
Labor 1661
ceased 1661
imposing 1661
modern@@ 1661
tra 1661
Prov@@ 1660
documented 1660
sect 1660
volumes 1660
Gas 1659
deliberately 1659
extradition 1659
mented 1659
occurring 1659
reasoning 1659
sensors 1659
Ful@@ 1658
Parents 1658
accompany 1658
atmospheric 1658
collision 1658
erv@@ 1658
exercised 1658
lively 1658
palm 1658
ames 1657
ano@@ 1657
easing 1657
explanations 1657
pharmac@@ 1657
infinite 1656
wholesale 1656
Communication 1655
Rep@@ 1655
folded 1655
illustrate 1655
recycling 1655
sent@@ 1655
Brothers 1654
cute 1654
figured 1654
frog 1654
scan 1654
desires 1653
gambling 1653
prerequisite 1653
Subject 1652
acks 1652
misery 1652
oes 1652
charging 1651
donation 1651
forcing 1651
insect 1651
resting 1651
shr@@ 1651
Tal@@ 1650
breakthrough 1650
hey 1650
poems 1650
potato 1650
Aud@@ 1649
Fortunately 1649
appointments 1649
fatal 1649
lun@@ 1649
prevail 1649
&apos;You 1648
LL 1648
kissed 1648
Cas@@ 1647
Integrated 1647
colours 1647
door@@ 1647
rested 1647
rhythm 1647
stor@@ 1647
tops 1647
wasted 1647
Sou@@ 1646
Register 1645
Standards 1645
clim@@ 1645
rot@@ 1644
successor 1644
Dialogue 1643
Paragraph 1643
drift 1643
pipes 1643
Paulson 1642
Start 1642
iding 1642
itable 1642
shareholder 1642
undergoing 1642
valu@@ 1642
Former 1641
Net 1641
Shui 1641
delegates 1641
loyalty 1641
pork 1641
universally 1641
venue 1641
Tu@@ 1640
expl@@ 1640
fried 1640
invalid 1640
notably 1640
Thou 1639
anno@@ 1639
strengths 1639
Growth 1638
alisation 1638
contributes 1638
depend@@ 1638
forecasting 1638
liberalization 1638
ree 1638
splendid 1638
Address 1637
Commun@@ 1637
GA 1637
Mu@@ 1637
akes 1637
firing 1637
gauge 1637
owl 1637
priests 1637
tray 1637
understands 1637
Comm@@ 1636
advancing 1636
alk@@ 1636
disposition 1636
handful 1636
hiring 1636
overhead 1636
renew 1636
sequ@@ 1636
wn 1636
Efforts 1634
XML 1634
pockets 1634
selective 1634
Mos@@ 1633
Nicaragua 1633
infections 1633
Appeal 1632
Blood 1632
clam@@ 1632
Allow 1631
dig@@ 1631
optimism 1631
quanti@@ 1631
Edward 1630
bean 1630
comprising 1630
curiosity 1630
ki@@ 1630
ceramic 1629
formerly 1629
gram 1629
keyboard 1629
suspicion 1629
trucks 1629
F. 1628
Nanjing 1628
cing 1628
ender 1628
hs 1628
richest 1628
tran@@ 1628
vari@@ 1628
GE 1627
Pres@@ 1627
ecting 1627
sa 1627
stir 1627
uk@@ 1627
uncomfortable 1627
ym@@ 1627
Morocco 1626
aring 1626
databases 1626
ho 1626
inherited 1626
partnerships 1626
killer 1625
females 1624
itch@@ 1624
practically 1624
shirts 1624
vine 1624
Ad 1623
Years 1623
incomplete 1623
inviting 1623
kar@@ 1623
leap 1623
（ 1623
Belgium 1622
Investors 1622
faint 1622
lateral 1622
linguistic 1622
ren 1622
Yao 1621
imagined 1621
integrating 1621
ko 1621
Aff@@ 1620
fitted 1620
oted 1620
sustainability 1620
Evaluation 1619
bending 1619
hitting 1619
symbols 1619
Tianjin 1618
eded 1618
esteem 1618
waist 1618
Hun@@ 1617
Name 1617
sounded 1617
suggesting 1617
thor@@ 1617
atin 1616
chers 1616
Pos@@ 1615
Contact 1614
Tar@@ 1614
eff@@ 1614
intentions 1614
wood@@ 1614
Fax 1613
Tim@@ 1613
defeated 1613
deploy 1613
disappointment 1613
serum 1613
Syria 1612
phrases 1612
Ric@@ 1611
downtown 1611
flooding 1611
terminate 1611
E. 1610
mod@@ 1610
ola 1610
Rad@@ 1609
francs 1609
ust 1609
simulated 1608
ticism 1608
usion 1608
yr@@ 1608
devote 1607
gym 1607
studio 1607
Poly@@ 1606
depos@@ 1606
disorders 1606
mur@@ 1606
pragmatic 1606
requesting 1606
tured 1606
backup 1605
legacy 1605
prolonged 1605
AA 1604
chess 1604
dest 1604
pond 1604
explicit 1603
ook 1603
viruses 1603
17.@@ 1602
4,000 1602
ackers 1602
prone 1602
6th 1601
Shakespeare 1601
accustomed 1601
farther 1601
mandated 1601
TER 1600
disadvantages 1600
cheque 1599
oppose 1599
rolls 1599
ville 1599
aqu@@ 1598
fisheries 1598
guilt 1598
onom@@ 1598
Charlie 1597
hurts 1597
tit@@ 1597
Hydro@@ 1596
Value 1596
respon@@ 1596
Zaire 1595
purely 1595
suc@@ 1595
Nearly 1594
Up@@ 1594
dreamed 1594
flown 1594
liquor 1594
panels 1594
Supplementary 1593
jumping 1593
was@@ 1593
Chi 1592
Lou@@ 1592
Prize 1592
Resource 1592
unlawful 1592
La 1591
blown 1591
ems 1591
gesture 1591
horrible 1591
medals 1591
neys 1591
regulating 1591
Lam 1590
wit@@ 1590
II@@ 1589
LA@@ 1589
farmland 1589
legend 1589
sim@@ 1589
eption 1588
establishes 1588
flav@@ 1588
harbour 1588
nour@@ 1588
sickness 1588
spiral 1588
stered 1588
Mun 1587
lap 1587
manip@@ 1587
repe@@ 1587
atism 1586
disp@@ 1586
pairs 1586
rewards 1586
unilateral 1586
Monte 1585
damaging 1585
dwell 1585
linking 1585
reunification 1585
short@@ 1585
exceeded 1584
obli@@ 1584
Den@@ 1583
Statement 1583
Bol@@ 1582
eries 1582
guides 1582
melt 1582
prints 1582
SC 1581
Sub 1581
bands 1581
township 1581
Algeria 1580
abuses 1580
je@@ 1580
reiterate 1580
surveyed 1580
bronze 1579
emphasizes 1579
Workers 1578
blanket 1578
deli@@ 1578
Select 1577
chlor@@ 1577
primitive 1577
Hum@@ 1576
stealing 1576
boots 1575
ladder 1575
procedural 1575
Shar@@ 1574
Universal 1574
duly 1574
limiting 1574
plac@@ 1574
traction 1574
uphold 1574
grow@@ 1573
lined 1573
quantum 1573
Soci@@ 1572
males 1572
Bil@@ 1571
Mir@@ 1571
confronted 1571
convergence 1571
counts 1571
lacks 1571
patch 1571
aint 1570
centr@@ 1570
impulse 1570
Sig@@ 1569
TER@@ 1569
merits 1569
referring 1569
ruin 1569
sand@@ 1569
surrender 1569
verbal 1569
volatile 1569
Ann 1568
Opening 1568
Zh@@ 1568
deprived 1568
mes 1568
s--@@ 1568
cables 1567
energetic 1567
fore 1567
garment 1567
upgrading 1567
yed 1567
Dont 1566
immunity 1566
Vari@@ 1565
discretion 1565
fool@@ 1565
ologically 1565
EM 1564
folks 1564
photo@@ 1564
yst@@ 1564
Search 1563
Together 1563
assault 1563
chron@@ 1563
compiled 1563
reas@@ 1563
stipulations 1563
theft 1563
varies 1563
24.@@ 1562
ares 1562
overview 1562
rebuild 1562
wr@@ 1562
Croatian 1561
Irish 1561
QU@@ 1561
elders 1561
opponents 1561
referendum 1561
Chai 1560
Document 1560
jum@@ 1560
presenting 1560
shifting 1560
Guatemala 1559
fur 1559
retreat 1559
trousers 1559
Bring 1558
Mas@@ 1558
answering 1558
cent@@ 1557
dings 1557
lad@@ 1557
urbanization 1557
Ly@@ 1556
Not@@ 1556
aggregate 1556
ei 1556
rang 1556
where@@ 1556
wishing 1556
wo@@ 1556
Chris 1555
Double 1555
License 1555
Prof@@ 1555
cos@@ 1555
gen 1555
lasted 1555
Hungary 1554
Powers 1554
Yunnan 1554
collectively 1554
executing 1554
jec@@ 1554
sensible 1554
winding 1554
Additionally 1553
Channel 1553
Serbian 1553
backing 1553
fertilizer 1553
minim@@ 1553
techn@@ 1553
EA 1552
agon@@ 1552
ligh@@ 1552
Jimmy 1551
dium 1551
ects 1551
pick@@ 1551
safer 1551
.We 1550
Dong@@ 1550
continuity 1550
fer 1550
fog 1550
gli@@ 1550
impetus 1550
prescription 1550
privilege 1550
wid@@ 1550
Det@@ 1549
I.@@ 1549
Prof. 1549
1967 1548
Awards 1548
Blair 1548
delivering 1548
Shi 1547
cart 1547
cling 1547
enzyme 1547
portable 1547
warrant 1547
Add.1 1546
locking 1546
Contin@@ 1545
Leave 1545
Putin 1545
exceeds 1545
influencing 1545
Forces 1544
Moon 1544
abortion 1544
briefing 1544
seas@@ 1544
stack 1544
videos 1544
aken 1543
iced 1543
kicked 1543
variations 1543
UR 1542
Virginia 1542
dedication 1542
gers 1542
quota 1542
ri 1542
scored 1542
Intro@@ 1541
itting 1541
stepping 1541
108 1540
Consul@@ 1540
Consultative 1540
Tunisia 1540
bis@@ 1540
cheek 1540
derivatives 1540
doctrine 1540
elaboration 1540
granting 1540
importantly 1540
locate 1540
nodes 1540
reproduction 1540
stadium 1540
whereby 1540
Christ@@ 1539
effec@@ 1539
icked 1539
jam@@ 1539
rainfall 1539
traveled 1539
Marius 1538
Nepal 1538
benefited 1538
caution 1538
que@@ 1538
umber 1538
vegetation 1538
Areas 1537
Establishment 1537
interval 1537
plas@@ 1537
aters 1536
bankrupt 1536
ille 1536
itating 1536
mom@@ 1536
Stay 1535
Thai 1535
paren@@ 1535
ush@@ 1535
bored 1534
fines 1534
fu 1534
insured 1534
serial 1534
smiles 1534
spheres 1534
Site 1533
cabin 1533
Direct 1532
Montenegro 1532
Wu@@ 1532
hers 1532
itary 1532
legi@@ 1532
ouring 1532
stein 1532
Sachs 1531
Units 1531
brake 1531
disciples 1531
optional 1531
respiratory 1531
ruler 1531
Oc@@ 1530
Rural 1530
Yan 1530
eline 1530
grip 1530
know@@ 1530
weird 1530
Dragon 1529
Sn@@ 1529
Zimbabwe 1529
compatibility 1529
convening 1529
you.@@ 1529
DA@@ 1528
Interim 1528
developmental 1528
vir@@ 1528
wastewater 1528
Yuen 1527
ix 1527
paste 1527
BA 1526
Resolution 1526
bend 1526
Marketing 1525
Nov@@ 1525
Strip 1525
hazards 1525
Trav@@ 1524
attributed 1524
calories 1524
Few 1523
Liberation 1523
commun@@ 1523
devastating 1523
exported 1523
fraction 1523
ini 1523
lubric@@ 1523
spy 1523
Hurstwood 1522
On@@ 1522
arily 1522
developer 1522
manpower 1522
prevents 1522
Multi@@ 1521
Strong 1521
supervisor 1521
Domestic 1520
Nice 1520
Ref@@ 1520
acids 1520
acked 1520
attained 1520
implies 1520
massage 1520
brethren 1519
elephant 1519
inserted 1519
nation@@ 1519
serv@@ 1519
Air@@ 1518
Gri@@ 1518
insight 1518
stop@@ 1518
Step 1517
Ty@@ 1517
earing 1517
ensured 1517
p.m 1517
phen@@ 1517
priced 1517
steering 1517
vivid 1517
dum@@ 1516
stays 1516
Responsible 1515
Structure 1515
attracting 1515
discriminatory 1515
hes@@ 1515
highlights 1515
speci@@ 1515
Word 1514
gan@@ 1514
get@@ 1514
liqu@@ 1514
pressive 1514
thering 1514
J. 1513
grati@@ 1513
inous 1513
occupy 1513
salad 1513
Analysts 1512
FC 1512
Teachers 1512
cancellation 1512
livelihood 1512
timber 1512
Economy 1511
Rachel 1511
Reports 1511
disagree 1511
fairy 1511
unfortunately 1511
Far 1510
Rab@@ 1510
alo@@ 1510
shadows 1510
fossil 1509
replies 1509
Ide@@ 1508
acoustic 1508
aving 1508
dreaming 1508
laundry 1508
buffer 1507
ported 1507
wan@@ 1507
Cuban 1506
arrives 1506
ation.@@ 1506
auc@@ 1506
canal 1506
controversy 1506
gardens 1506
Os@@ 1505
athlete 1505
bargain 1505
educate 1505
journalist 1505
kn@@ 1505
Haitian 1504
fol@@ 1504
pencil 1504
petrol 1504
CD@@ 1503
glow 1503
ision 1503
Ancient 1502
Fol@@ 1502
Multi 1502
bra 1502
escal@@ 1502
1000 1501
Mul@@ 1501
chapters 1501
detecting 1501
disturbing 1501
inappropriate 1501
lest 1501
plo@@ 1501
tang@@ 1501
tian 1501
concluding 1500
eats 1500
equipments 1500
scarcely 1500
Must 1499
aph@@ 1499
arrow 1499
diary 1499
projec@@ 1499
ripe 1499
scales 1499
statue 1499
PE 1498
Temple 1498
Throughout 1498
ech 1498
individually 1498
ori 1498
Compl@@ 1497
Economics 1497
Fu 1497
MC 1497
architectural 1497
correspondence 1497
eleven 1497
suspicious 1497
triggered 1497
corrupt 1496
hated 1496
Wat@@ 1495
merit 1495
airplane 1494
bless 1494
deduc@@ 1494
lowered 1494
machining 1494
muc@@ 1494
tious 1494
vulnerability 1494
Judge 1493
Procedure 1493
nas@@ 1493
Cri@@ 1492
high@@ 1492
template 1492
ud 1492
Tom@@ 1491
benchmark 1491
chem@@ 1491
completing 1491
weaknesses 1491
Account 1490
Lab@@ 1490
Stone 1490
gent 1490
min 1490
striving 1490
aiming 1489
ference 1489
organisms 1489
polite 1489
recognizing 1489
searched 1489
Star@@ 1488
Various 1488
Way 1488
lawn 1488
ventilation 1488
Accounting 1487
Oper@@ 1487
Ross 1487
angi@@ 1487
ev 1487
ling@@ 1487
longing 1487
rounds 1487
targeting 1487
Dol@@ 1486
Net@@ 1486
clin@@ 1486
outset 1486
settling 1486
wallet 1486
Taliban 1485
bath@@ 1485
corners 1485
extensively 1485
grams 1485
interpreted 1485
struggled 1485
Happiness 1484
Merrill 1484
Silver 1484
UNAVEM 1484
ests 1484
ET 1483
YOU 1483
mir@@ 1483
offs 1483
satisfying 1483
sciences 1483
tified 1483
Avoid 1482
dynasty 1482
exceptions 1482
ranked 1482
sales@@ 1482
Hen@@ 1481
atal 1481
highways 1481
ox 1481
pap@@ 1481
peculiar 1481
prec@@ 1481
slowed 1481
spac@@ 1481
Iron 1480
Madame 1480
UNIDO 1480
absor@@ 1480
foam 1480
noting 1480
senses 1480
Either 1479
PE@@ 1479
cia 1479
etic 1479
scanning 1479
situated 1479
AIG 1478
Cause 1478
Shandong 1478
deaf 1478
duplication 1478
planets 1478
practiced 1478
racing 1478
regimes 1478
risky 1478
Adam 1477
Future 1477
pig@@ 1477
prey 1477
sore 1477
ICAC 1476
Len@@ 1476
sac@@ 1476
calculations 1475
conve@@ 1475
formalities 1475
labels 1475
observing 1475
perfection 1475
poorest 1475
Chin@@ 1474
categor@@ 1474
seemingly 1474
cellular 1473
scholar 1473
toe 1473
FR@@ 1472
Ken@@ 1472
Unity 1472
adhesive 1472
cum@@ 1472
soluble 1472
downward 1471
rains 1471
Licence 1470
Understanding 1470
cav@@ 1470
closest 1470
dre@@ 1470
icle 1470
oven 1470
researcher 1470
tub@@ 1470
vascular 1470
Invites 1469
vit@@ 1469
Overall 1468
scratch 1468
Getting 1467
cel@@ 1467
intimate 1467
Potter 1466
accountant 1466
appliances 1466
ben@@ 1466
chloride 1466
departed 1466
gaze 1466
strings 1466
tribunal 1466
warfare 1466
Framework 1465
Maintenance 1465
fruitful 1465
intervals 1465
lip@@ 1465
stiff 1465
itan 1464
relaxation 1464
3. 1463
Draft 1463
deleted 1463
weaker 1463
Kok 1462
Mexican 1462
Welcomes 1462
essi@@ 1462
loudly 1462
mini 1462
ula 1462
Consider 1461
assuming 1461
consultancy 1461
izer 1461
kets 1461
poisoning 1461
si 1461
streams 1461
Supply 1460
oner 1460
Lev@@ 1459
audiences 1459
ecology 1459
receiver 1459
shortages 1459
diver@@ 1458
graphics 1458
mit 1458
releases 1458
Costa 1457
administer 1457
arians 1457
boarding 1457
hua 1457
spinning 1457
Autumn 1456
Income 1456
compassion 1456
privately 1456
Isn 1455
Pay 1455
Victoria 1455
advisers 1455
after@@ 1455
exhibit 1455
ting@@ 1455
tribe 1455
FO@@ 1454
Fish 1454
ert 1454
goodbye 1454
hits 1454
originated 1454
spir@@ 1454
workload 1454
IR 1453
Live 1453
nar@@ 1453
cheerful 1452
unchanged 1452
Prof 1451
Reaffirming 1451
edges 1451
platforms 1451
rooted 1451
vocal 1451
Above 1450
Buddha 1450
prote@@ 1450
terminated 1450
Buddhist 1449
Expo 1449
Online 1449
avian 1449
bolt 1449
summarize 1449
ET@@ 1448
Procuratorate 1448
Yi@@ 1448
appearing 1448
explaining 1448
impe@@ 1448
pow@@ 1448
procession 1448
sh 1448
tan 1448
beg 1447
brid@@ 1447
deepening 1447
dialog 1447
hereinafter 1447
illusion 1447
thermo@@ 1447
transc@@ 1447
Municipal 1446
Muslims 1446
arises 1446
class2 1446
coding 1446
vac@@ 1446
census 1445
cheat 1445
consequently 1445
delete 1445
positioning 1445
IX 1444
Liaison 1444
gaps 1444
neglected 1444
premise 1444
toast 1444
Equipment 1443
Libya 1443
allocate 1443
bloody 1443
exert 1443
lakes 1443
predecessor 1443
tick 1443
disclose 1442
simplified 1442
viewing 1442
Post@@ 1441
Sarajevo 1441
Shan@@ 1441
Solomon 1441
chin 1441
cups 1441
suspects 1441
Arabic 1440
Corporate 1440
Electrical 1440
Good@@ 1440
Olymp@@ 1440
ari 1440
bes@@ 1440
ots 1440
refl@@ 1440
ageing 1439
cheer 1439
peti@@ 1439
underwater 1439
Discussion 1438
adviser 1438
allo@@ 1438
gation 1438
organ@@ 1438
rail@@ 1438
spends 1438
var@@ 1438
.In 1437
Kennedy 1437
animation 1437
earnestly 1437
fighter 1437
irrit@@ 1437
upcoming 1437
Chongqing 1436
Med@@ 1436
Separ@@ 1436
TC@@ 1436
angels 1436
earnest 1436
lightly 1436
oly@@ 1436
ool 1436
pertaining 1436
sai 1436
smallest 1436
Machine 1435
jewelry 1435
jur@@ 1435
leakage 1435
multimedia 1435
ov 1435
wrap 1435
Lim@@ 1434
hormone 1434
sliding 1434
starch 1434
thers 1434
60@@ 1433
shu@@ 1433
uranium 1433
aker 1432
orous 1432
separ@@ 1432
t. 1432
Ear@@ 1431
optimized 1431
chy 1430
draw@@ 1430
goodness 1430
offerings 1430
ultra 1430
Risk 1429
accountable 1429
aud@@ 1429
batteries 1429
jeans 1429
metallic 1429
qualify 1429
urine 1429
40@@ 1428
Railway 1428
acker 1428
ali 1428
bud@@ 1428
indexes 1428
pel@@ 1428
poorly 1428
rig@@ 1428
berries 1427
hesitate 1427
notified 1427
reminds 1427
youngest 1427
Bac@@ 1426
Bec@@ 1426
Tro@@ 1426
booking 1426
defines 1425
merchant 1425
overtime 1425
pretend 1425
.But 1424
Changes 1424
Dim@@ 1424
Heart 1424
Mine 1424
amend 1424
deposited 1424
direc@@ 1424
diversified 1424
fe 1424
icon 1424
sank 1424
sey 1424
ACC 1423
Yan@@ 1423
enders 1423
envy 1423
metabolism 1423
pil@@ 1423
san@@ 1423
sometime 1423
squeeze 1423
6,000 1422
contamination 1422
dark@@ 1422
mist@@ 1422
reintegration 1422
wan 1422
Wing 1421
forc@@ 1421
grains 1421
hoo@@ 1421
refuge 1421
tness 1421
Kosovo 1420
Talk 1420
bombs 1420
cakes 1420
job@@ 1420
openness 1420
sporting 1420
transplantation 1420
CA@@ 1419
Cancer 1419
Create 1419
definitions 1419
Mad@@ 1418
Peoples 1418
bug 1418
finances 1418
gang@@ 1418
CA 1417
activation 1417
amongst 1417
lid 1417
macro@@ 1417
rally 1417
sins 1417
Sus@@ 1416
distortion 1416
mobility 1416
teaches 1416
tuous 1416
vis 1416
1.3 1415
administrator 1415
flats 1415
leaf@@ 1415
visi@@ 1415
wavelet 1415
forehead 1414
preserving 1414
appe@@ 1413
enforced 1413
fast@@ 1413
ron@@ 1413
rowing 1413
stam@@ 1413
High@@ 1412
Peru 1412
Sl@@ 1412
boot 1412
qualitative 1412
queue 1412
Dev@@ 1411
Insp 1411
Romania 1411
circuits 1411
conceptual 1411
gum 1411
Imagine 1410
accessories 1410
diffusion 1410
exemption 1410
motive 1410
undergo 1410
Hai@@ 1409
KB 1409
businessman 1409
contradiction 1409
illustrated 1409
ni 1409
stry 1409
tricks 1409
turnover 1409
glit@@ 1408
monster 1408
mortgages 1408
1970s 1407
Atomic 1407
expan@@ 1407
hurried 1407
uding 1407
wax 1407
Woods 1406
allowances 1406
authentication 1406
parti@@ 1406
rud@@ 1406
teenagers 1406
20.@@ 1405
Land@@ 1405
horn 1405
vering 1405
BE 1404
Fro@@ 1404
Spe@@ 1404
aur@@ 1404
centred 1404
circulated 1404
logging 1404
openly 1404
heels 1403
pillars 1403
116 1402
Hui 1402
Sixth 1402
Steven 1402
er.@@ 1402
frustration 1402
parliamentary 1402
realm 1402
Aaron 1401
Single 1401
airports 1401
entary 1401
jokes 1401
nomination 1401
num@@ 1401
prostitution 1401
subsidy 1401
superiority 1401
wed@@ 1401
160 1400
Choose 1400
cares 1400
earning 1400
ient 1400
Ta@@ 1399
coins 1399
cred@@ 1399
ew 1399
week@@ 1399
180 1398
Lau 1398
broadly 1398
cy 1398
drawings 1398
keepers 1398
pad 1398
prospective 1398
travels 1398
LDCs 1397
Lebanese 1397
Pakistani 1397
remedies 1397
slice 1397
subjective 1397
uttered 1397
Arthur 1396
altar 1396
angles 1396
drawer 1396
opposing 1396
triumph 1396
Effective 1395
admiration 1395
ridge 1395
spectacular 1395
tablets 1395
than@@ 1395
Arsenal 1394
Physical 1394
ald 1394
aping 1394
likewise 1394
sed@@ 1394
tec@@ 1394
tuition 1394
vert 1394
wipe 1394
Primary 1393
Winter 1393
donations 1393
dot 1393
ean 1393
finger@@ 1393
transl@@ 1393
Gordon 1392
Tung 1392
aluminium 1392
approving 1392
ased 1392
deer 1392
fts 1392
ouse 1392
uting 1392
void 1392
Motor 1391
bian 1391
quotas 1391
youll 1391
Heat 1390
Rock 1390
best@@ 1390
disturbance 1390
folder 1390
lish 1390
DA 1389
Lastly 1389
Sc@@ 1389
conceived 1389
liv@@ 1389
marriages 1389
pains 1389
patrol 1389
quotation 1389
tow@@ 1389
Xiang 1388
aire 1388
cad@@ 1388
chasing 1388
exams 1388
excluded 1388
floods 1388
Chang 1387
Haw@@ 1387
SAR 1387
cock@@ 1387
credible 1387
duce 1387
invoice 1387
loo@@ 1387
merchandise 1387
IV@@ 1386
Poverty 1386
UV 1386
chi 1386
outlet 1386
outputs 1386
Leg@@ 1385
Personnel 1385
amped 1385
class3 1385
nets 1385
stand@@ 1385
symptom 1385
unpleasant 1385
vague 1385
Anyway 1384
Uncle 1384
ound@@ 1384
Gil@@ 1383
Maria 1383
antenna 1383
challenged 1383
believing 1382
dock 1382
gel 1382
insulation 1382
7th 1381
Ali@@ 1381
Expl@@ 1381
GR@@ 1381
ita 1381
jam 1381
sig@@ 1381
Develop 1380
Mol@@ 1380
apt 1380
balancing 1380
hospitality 1380
securing 1380
Advanced 1379
Details 1379
exam@@ 1379
kit 1379
pho@@ 1379
physician 1379
ven 1379
Related 1378
builds 1378
neighbour 1378
IA@@ 1377
ags 1377
akers 1377
commended 1377
gle@@ 1377
lasts 1377
spacecraft 1377
viral 1377
Ministerial 1376
OP@@ 1376
anna 1376
dental 1376
handic@@ 1376
hydr@@ 1376
ite@@ 1376
lowering 1376
tar 1376
Gor@@ 1375
fru@@ 1375
mam@@ 1375
Patients 1374
hosting 1374
smokers 1374
survivors 1374
FOR@@ 1373
MAR@@ 1373
belly 1373
combines 1373
did@@ 1373
fixing 1373
hardship 1373
incoming 1373
rant 1373
ridiculous 1373
scor@@ 1373
fills 1372
incl@@ 1372
migr@@ 1372
possesses 1372
righteousness 1372
sack 1372
solemn 1372
tariffs 1372
warmly 1372
1981 1371
Body 1371
Coordin@@ 1371
purse 1371
squad 1371
Collection 1370
Consumer 1370
atoms 1370
concurrently 1370
voc@@ 1370
19.@@ 1369
accelerating 1369
careers 1369
cran@@ 1369
extends 1369
plight 1369
sam@@ 1369
secretly 1369
sunset 1369
Image 1368
feudal 1368
hed@@ 1368
heroes 1368
interact 1368
jing 1368
ll@@ 1368
ministerial 1368
propaganda 1368
thumb 1368
Dun@@ 1367
Ever 1367
a. 1367
bet@@ 1367
crush 1367
ored 1367
reorganization 1367
rests 1367
smoo@@ 1367
102 1366
IBM 1366
deserved 1366
elevator 1366
exporting 1366
fon@@ 1366
interactions 1366
judic@@ 1366
practicing 1366
see@@ 1366
stimul@@ 1366
tel 1366
wonders 1366
aliens 1365
submarine 1365
Dep@@ 1364
Jin 1364
Nan@@ 1364
unite 1364
Course 1363
Simulation 1363
damp 1363
hub 1363
watches 1363
Wow 1362
neighboring 1362
urs 1362
Dist@@ 1361
centi@@ 1361
computation 1361
conductor 1361
dresses 1361
upright 1361
Milan 1360
govern 1360
inge 1360
lay@@ 1360
peers 1360
spokeswoman 1360
step@@ 1360
vibr@@ 1360
Telephone 1359
modules 1359
tually 1359
AV@@ 1358
Eng@@ 1358
Sarkozy 1358
heed 1358
ove 1358
past@@ 1358
pronounced 1358
thunder 1358
violates 1358
waiter 1358
Bab@@ 1357
UNOMIL 1357
ancing 1357
shrink 1357
span@@ 1357
DI@@ 1356
ISO 1356
SP 1356
eps 1356
Merc@@ 1355
expiry 1355
indirectly 1355
modalities 1355
pouring 1355
wa 1355
Anything 1354
EV@@ 1354
Harbour 1354
astic 1354
belonged 1354
chinese 1354
decorated 1354
disposed 1354
fortunate 1354
inspire 1354
threatens 1354
FDI 1353
Flu@@ 1353
LI@@ 1353
cere@@ 1353
warnings 1353
Delta 1352
Xi 1352
butterfly 1352
legitimacy 1352
ston 1352
Jiangsu 1351
Mgr 1351
Sul@@ 1351
Tun@@ 1351
Tw@@ 1351
empirical 1351
heter@@ 1351
say@@ 1351
stant 1351
Yugoslav 1350
boiling 1350
malaria 1350
occasional 1350
politician 1350
thes@@ 1350
clip 1349
contaminated 1349
stic 1349
vein 1349
Desig@@ 1348
Projects 1348
Stu@@ 1348
Tomorrow 1348
ather 1348
centered 1348
microscope 1348
repaired 1348
rers 1348
supervisors 1348
Cou@@ 1347
Produc@@ 1347
Tax@@ 1347
globally 1347
linkages 1347
nails 1347
ocation 1347
workforce 1347
1.2 1346
Smart 1346
acity 1346
auspices 1346
good@@ 1346
oke 1346
actic 1345
airlines 1345
GO@@ 1344
physiological 1344
retire 1344
yards 1344
Gener@@ 1343
Kazakhstan 1343
Night 1343
Reference 1343
Thousands 1343
decreasing 1343
inland 1343
seriousness 1343
yle 1343
Cle@@ 1342
NOT 1342
Sai 1342
Ther@@ 1342
blows 1342
desktop 1342
famine 1342
s.The 1342
airspace 1341
ancestors 1341
crowds 1341
prototype 1341
125 1340
Innovation 1340
constraint 1340
convene 1340
reaffirm 1340
saturated 1340
tool@@ 1340
viol@@ 1340
1983 1339
alleviation 1339
beneficiary 1339
documentary 1339
explicitly 1339
icy 1339
physi@@ 1339
shells 1339
Examination 1338
class4 1338
construc@@ 1338
idly 1338
iss 1338
ora 1338
rip@@ 1338
Boston 1337
Coast 1337
Exercise 1337
divine 1337
uted 1337
conversations 1336
hem 1336
interviewed 1336
rightly 1336
sheer 1336
spark 1336
Individual 1335
Know 1335
ef 1335
fibers 1335
Seminar 1334
beard 1334
countless 1334
melting 1334
postponed 1334
Han@@ 1333
Privacy 1333
Sri 1333
bloom 1333
excellence 1333
inst@@ 1333
joints 1333
oils 1333
ost 1333
refund 1333
successes 1333
xi 1333
allegedly 1332
appearances 1332
ballot 1332
honored 1332
mos@@ 1332
slaves 1332
ugg@@ 1332
veness 1332
weigh@@ 1332
Armed 1331
Jonathan 1331
Schools 1331
Son@@ 1331
TE 1331
decom@@ 1331
feng 1331
hunter 1331
mess@@ 1331
revenge 1331
sively 1331
、 1331
Belarus 1330
Il@@ 1330
foul 1330
urging 1330
calibration 1329
cm 1329
crashed 1329
credits 1329
eled 1329
mers 1329
tissues 1329
uel 1329
Bul@@ 1328
marital 1328
shout 1328
Empire 1327
Materials 1327
Tsuen 1327
appreci@@ 1327
beneficiaries 1327
floors 1327
organism 1327
privileges 1327
sweep 1327
yn 1327
Hunan 1326
anchor 1326
Champ@@ 1325
conqu@@ 1325
cow@@ 1325
gol@@ 1325
turbine 1325
Failure 1324
LY 1324
MENT 1324
Oxford 1324
cheeks 1324
cows 1324
disadvantaged 1324
eration 1324
eyed 1324
goat 1324
observance 1324
Danish 1323
Napoleon 1323
Taipei 1323
buck@@ 1323
disadvantage 1323
exhaust 1323
innovations 1323
phy@@ 1323
relieved 1323
semester 1323
Around 1322
Disaster 1322
Hang 1322
ICE 1322
Jeff 1322
Short 1322
chase 1322
confront 1322
deliberate 1322
prohibition 1322
quarrel 1322
sky@@ 1322
Thats 1321
anny 1321
attachment 1321
rendering 1321
scholarship 1321
LTD 1320
cool@@ 1320
hu 1320
righteous 1320
aces 1319
coated 1319
ounce 1319
pause 1319
shire 1319
s鈥 1319
vitro 1319
115 1318
Far@@ 1318
Web@@ 1318
comparatively 1318
extracted 1318
jealous 1318
leverage 1318
segments 1318
tax@@ 1318
updates 1318
Columbia 1317
ample 1317
businessmen 1317
ishment 1317
Tim 1316
Van 1316
empire 1316
immun@@ 1316
jar 1316
mas 1316
memorial 1316
weed 1316
Mari@@ 1315
Tuen 1315
bias 1315
brain@@ 1315
commencement 1315
imbalance 1315
need@@ 1315
ogenic 1315
rode 1315
stove 1315
Am 1314
Buddhism 1314
Laboratory 1314
bee 1314
persist 1314
appealed 1313
clarity 1313
inability 1313
sour 1313
Defin@@ 1312
NPT 1312
Transfer 1312
Vic@@ 1312
declarations 1312
escent 1312
itter 1312
mem@@ 1312
nutrients 1312
ordin@@ 1312
simplicity 1312
ampli@@ 1311
class5 1311
dang@@ 1311
infants 1311
sellers 1311
soaring 1311
Mail 1310
Pharaoh 1310
Surely 1310
democratization 1310
surprisingly 1310
townships 1310
yo 1310
BBC 1309
Inside 1309
Kate 1309
clarification 1309
coral 1309
mitigate 1309
106 1308
8th 1308
Save 1308
affordable 1308
customary 1308
float 1308
hypertension 1308
protesters 1308
repay 1308
scri@@ 1308
stabilization 1308
will@@ 1308
Azerbaijan 1307
Indonesian 1307
Qin 1307
elet 1307
practise 1307
19th 1306
Electoral 1306
Inner 1306
accorded 1306
induce 1306
softly 1306
system@@ 1306
thereon 1306
Base 1305
Marriage 1305
championship 1305
consisted 1305
irregular 1305
lunar 1305
origins 1305
presently 1305
Forest 1304
Pierre 1304
Sem@@ 1304
Sudanese 1304
advocated 1304
churches 1304
extingu@@ 1304
fall@@ 1304
impartial 1304
moreover 1304
strains 1304
supreme 1304
tomb 1304
y. 1304
Cambridge 1303
Syn@@ 1303
agreeable 1303
curse 1303
ict 1303
multipl@@ 1303
precip@@ 1303
raft 1303
renowned 1303
ull 1303
Manchester 1302
Supervision 1302
intim@@ 1302
jol@@ 1302
lobby 1302
slavery 1302
&apos;No 1301
Documents 1301
nerves 1301
nings 1301
responsive 1301
speeches 1301
23.@@ 1300
accent 1300
shaping 1300
shel@@ 1300
Brazilian 1299
STA@@ 1299
Statistical 1299
Tanzania 1299
d. 1299
defending 1299
illi@@ 1299
ordering 1299
recruit 1299
summar@@ 1299
transferring 1299
whoever 1299
Alexander 1298
Plan@@ 1298
Sony 1298
digging 1298
likelihood 1298
locks 1298
rison 1298
Maritime 1297
junk 1297
resumption 1297
tolerate 1297
1973 1296
Thanksgiving 1296
destroying 1296
Ah@@ 1295
Straits 1295
crunch 1295
diagnosed 1295
feast 1295
phosph@@ 1295
dim 1294
disseminate 1294
fetch 1294
harassment 1294
overweight 1294
sealing 1294
standardized 1294
7,000 1293
aped 1293
cible 1293
consum@@ 1293
importing 1293
Armenia 1292
Deng 1292
Latvia 1292
discharged 1292
rit@@ 1292
Seeing 1291
broker 1291
cip@@ 1291
curves 1291
plum@@ 1291
premature 1291
retailers 1291
ero@@ 1290
frustrated 1290
maximize 1290
swallow 1290
tled 1290
Bangkok 1289
Deep 1289
Introduction 1289
Ple@@ 1289
destined 1289
morph@@ 1289
revol@@ 1289
usable 1289
HP 1288
arguing 1288
instinct 1288
screens 1288
acious 1287
clusters 1287
gossip 1287
medication 1287
Correc@@ 1286
NPC 1286
Problems 1286
dissolution 1286
flock 1286
illustrates 1286
mechan@@ 1286
omed 1286
Renminbi 1285
aug@@ 1285
flow@@ 1285
lo 1285
olive 1285
Transitional 1284
faction 1284
posting 1284
robots 1284
xing 1284
asters 1283
sanc@@ 1283
unstable 1283
GRE@@ 1282
Mechanical 1282
cervical 1282
cheating 1282
erous 1282
gly@@ 1282
ultrasonic 1282
yu 1282
PLC 1281
decreases 1281
gn@@ 1281
magne@@ 1281
tailor 1281
Broadcasting 1280
Emer@@ 1280
proving 1280
Coal 1279
acceleration 1279
antic 1279
arti@@ 1279
dest@@ 1279
juvenile 1279
pub@@ 1279
reminder 1279
spinal 1279
weighed 1279
Ul@@ 1278
boun@@ 1278
cies 1278
detective 1278
ffe@@ 1278
hereby 1278
lamb 1278
polluted 1278
Alex 1277
ENT 1277
Feng 1277
Hot 1277
eph@@ 1277
essive 1277
filtering 1277
infer@@ 1277
laundering 1277
unconscious 1277
unreasonable 1277
ECOMOG 1276
bie 1276
endangered 1276
insert 1276
ost@@ 1276
printer 1276
shifts 1276
strang@@ 1276
utilizing 1276
vent@@ 1276
Dre@@ 1275
Reduction 1275
ais@@ 1275
chur@@ 1275
dealer 1275
geography 1275
lighted 1275
Bus@@ 1274
decay 1274
dom@@ 1274
leak 1274
portal 1274
tap@@ 1274
ective 1273
sensation 1273
spontaneous 1273
successive 1273
bind 1272
effected 1272
lodge 1272
surroundings 1272
LCQ@@ 1271
ech@@ 1271
hierarchy 1271
pulmonary 1271
resignation 1271
spotted 1271
unlimited 1271
Arbitration 1270
Quar@@ 1270
Specific 1270
literacy 1270
manship 1270
swift 1270
wei 1270
permanently 1269
presum@@ 1269
107 1268
Ann@@ 1268
Seoul 1268
aki 1268
cherish 1268
editing 1268
glucose 1268
pret@@ 1268
qi 1268
AF@@ 1267
SO 1267
asser@@ 1267
earth@@ 1267
neur@@ 1267
refrigerator 1267
sexually 1267
binary 1266
darling 1266
frames 1266
gger 1266
motiv@@ 1266
phon@@ 1266
regression 1266
thered 1266
Rule 1265
differentiation 1265
glut@@ 1265
manages 1265
meanings 1265
penny 1265
shuttle 1265
tom 1265
Re 1264
remarkably 1264
unch 1264
voyage 1264
9th 1263
catalogue 1263
inary 1263
necess@@ 1263
remainder 1263
Estonia 1262
Max 1262
Wilson 1262
beams 1262
ellip@@ 1262
nel 1262
viewpoint 1262
addiction 1261
manifest 1261
photography 1261
questionnaire 1261
rainy 1261
Eat 1260
Eight 1260
Mid 1260
Navy 1260
UC@@ 1260
Wa@@ 1260
batt@@ 1260
inte@@ 1260
Daddy 1259
External 1259
Log@@ 1259
advocates 1259
banker 1259
ffy 1259
heavens 1259
naval 1259
prudent 1259
sofa 1259
accepts 1258
autom@@ 1258
fatty 1258
hopeful 1258
hotline 1258
predic@@ 1258
Ceremony 1257
Drugs 1257
HD 1257
aero@@ 1257
dispatch 1257
fashioned 1257
handles 1257
icks 1257
wai@@ 1257
Southeast 1256
Vis@@ 1256
compilation 1256
Ltd. 1255
Saul 1255
ador@@ 1255
cardiac 1255
crushed 1255
ees 1255
endeavor 1255
harbor 1255
intentionally 1255
111 1254
Co. 1254
Eli@@ 1254
Pop@@ 1254
aroused 1254
electrode 1254
numbered 1254
Att@@ 1253
fain@@ 1253
gment 1253
mitigation 1253
recalls 1253
restoring 1253
weekends 1253
Rica 1252
archives 1252
performs 1252
synchron@@ 1252
Bot@@ 1251
meditation 1251
sel 1251
springs 1251
Freddie 1250
fla@@ 1250
hypothesis 1250
usi@@ 1250
wasting 1250
30,000 1249
8,000 1249
Ghana 1249
Ox@@ 1249
Pa@@ 1249
charter 1249
demobilization 1249
fs 1249
geometry 1249
opol@@ 1249
versus 1249
Chairmen 1248
airs 1248
bees 1248
py@@ 1248
sway 1248
4. 1247
Independence 1247
Ori@@ 1247
elaborated 1247
gallery 1247
gloomy 1247
lik@@ 1247
renovation 1247
struc@@ 1247
Inc. 1246
blocking 1246
child@@ 1246
cracked 1246
holdings 1246
ignorant 1246
seasonal 1246
shor@@ 1246
smen 1246
submitting 1246
tici@@ 1246
accum@@ 1245
licences 1245
sculp@@ 1245
stationary 1245
Aid 1244
MS@@ 1244
corridor 1244
dominate 1244
insulin 1244
lighter 1244
uous 1244
Payment 1243
ek@@ 1243
mould 1243
sums 1243
Hangzhou 1242
Main@@ 1242
ete 1242
eving 1242
heavier 1242
interrupt 1242
peer 1242
tooth@@ 1242
Buildings 1241
Clearly 1241
Issues 1241
idated 1241
vacant 1241
Pollution 1240
Scott 1240
Ze@@ 1240
dug 1240
entation 1240
movable 1240
museums 1240
outward 1240
twins 1240
Expert 1239
Iceland 1239
acies 1239
alignment 1239
awkward 1239
chickens 1239
class6 1239
flux 1239
occup@@ 1239
ousness 1239
pledges 1239
unanimously 1239
Count 1238
Wai 1238
eable 1238
interventions 1238
perspectives 1238
rier 1238
sweet@@ 1238
Authorities 1237
Sand@@ 1237
Source 1237
Xu 1237
cracks 1237
graceful 1237
narrative 1237
retrieval 1237
sweater 1237
Item 1236
MBA 1236
Trading 1236
apology 1236
cher@@ 1236
los@@ 1236
recipients 1236
MP 1235
Marx 1235
pills 1235
tam@@ 1235
condemn 1234
gies 1234
healthcare 1234
retention 1234
109 1233
Sar@@ 1233
arena 1233
conducts 1233
firstly 1233
fix@@ 1233
neat 1233
proclaimed 1233
Oscar 1232
Pas@@ 1232
U.N. 1232
Want 1232
aning 1232
authorize 1232
boy@@ 1232
breath@@ 1232
credited 1232
quo 1232
repairing 1232
rotating 1232
specialty 1232
Spr@@ 1231
earthquakes 1231
thal@@ 1231
Jenny 1230
competitions 1230
complaining 1230
cycl@@ 1230
enduring 1230
hy 1230
public@@ 1230
Starting 1229
Valjean 1229
acet@@ 1229
deficits 1229
eased 1229
insists 1229
mach@@ 1229
tility 1229
Ensure 1228
plastics 1228
severity 1228
vacancy 1228
&apos;S 1227
Command 1227
FA 1227
Participants 1227
View 1227
brow@@ 1227
fuck 1227
ingredient 1227
mother@@ 1227
notable 1227
passionate 1227
reign 1227
undergraduate 1227
114 1226
Cro@@ 1226
Env 1226
ales 1226
automated 1226
cep@@ 1226
deepest 1226
http 1226
insur@@ 1226
manifestations 1226
requ@@ 1226
rubbish 1226
140 1225
Swedish 1225
Taylor 1225
assumptions 1225
burns 1225
ector 1225
fishery 1225
hobby 1225
induction 1225
orth@@ 1225
perceive 1225
valves 1225
Banks 1224
Howard 1224
Mid@@ 1224
inflammation 1224
lag 1224
packet 1224
ruined 1224
sacrifices 1224
uph@@ 1224
faithfully 1223
periodically 1223
buys 1222
declines 1222
energies 1222
entries 1222
gal 1222
justification 1222
noodles 1222
scram@@ 1222
unrest 1222
Gets 1221
PER@@ 1221
appreh@@ 1221
cholesterol 1221
corrected 1221
deed 1221
teenth 1221
transported 1221
utable 1221
asi@@ 1220
coronary 1220
debates 1220
depths 1220
frank 1220
picnic 1220
scheduling 1220
103 1219
Mand@@ 1219
Owing 1219
helicopters 1219
punc@@ 1219
sleeve 1219
GU@@ 1218
Stamps 1218
Weather 1218
blend 1218
replacing 1218
tournament 1218
Audit 1217
STE@@ 1217
angel@@ 1217
aver 1217
grading 1217
researching 1217
D.@@ 1216
Einstein 1216
Jan@@ 1216
downloaded 1216
edit 1216
grabbed 1216
intervene 1216
viewers 1216
IB@@ 1215
Secondary 1215
browser 1215
homeland 1215
reinforcing 1215
aned 1214
brac@@ 1214
minors 1214
temptation 1214
tou@@ 1214
Cer@@ 1213
Frank@@ 1213
Franklin 1213
Fur@@ 1213
comprise 1213
guarded 1213
mistaken 1213
nes@@ 1213
peripheral 1213
tz 1213
validation 1213
vered 1213
Cover 1212
Distribution 1212
NA 1212
NO 1212
Organizations 1212
Panama 1212
Schedule 1212
bow@@ 1212
certainty 1212
eous 1212
fir@@ 1212
improper 1212
judiciary 1212
renminbi 1212
stimulation 1212
Banking 1211
Clean 1211
Cristo 1211
artillery 1211
ood 1211
sandwich 1211
updating 1211
widow 1211
Diana 1210
Ok 1210
Wel@@ 1210
asp@@ 1210
assurances 1210
gloves 1210
piles 1210
this@@ 1210
tionally 1210
twist 1210
Disease 1209
Sto@@ 1209
evolutionary 1209
frag@@ 1209
trustee 1209
1976 1208
ato 1208
attacking 1208
bucket 1208
capsule 1208
cessation 1208
hn@@ 1208
inflammatory 1208
moc@@ 1208
persuaded 1208
rebuilding 1208
wells 1208
Boutros 1207
enthusiastic 1207
foremost 1207
manned 1207
margins 1207
tos@@ 1207
tubes 1207
I. 1206
Java 1206
Proliferation 1206
Tree 1206
brass 1206
gradient 1206
homeless 1206
mesh 1206
noisy 1206
ongs 1206
pt 1206
torate 1206
Amy 1205
Close 1205
attainment 1205
distr@@ 1205
symbolic 1205
trauma 1205
26.@@ 1204
3D 1204
Hoc 1204
IPO 1204
Initiative 1204
Men@@ 1204
civilized 1204
ght@@ 1204
loneliness 1204
nickel 1204
pore 1204
terribly 1204
.You 1203
Agent 1203
Doctors 1203
Hua 1203
Pack@@ 1203
arized 1203
humidity 1203
ider 1203
liner 1203
right@@ 1203
shoul@@ 1203
Mr.@@ 1202
St 1202
detector 1202
dilemma 1202
inqu@@ 1202
scenic 1202
stly 1202
ession 1201
fork 1201
honestly 1201
logo 1201
recipe 1201
robbery 1201
tidy 1201
underlined 1201
Ali 1200
Coll@@ 1200
Grant 1200
apers 1200
assignments 1200
echo 1200
flee 1200
garments 1200
mination 1200
ug 1200
Doha 1199
LA 1199
UNU 1199
carved 1199
creditor 1199
escence 1199
graft 1199
inequality 1199
jour@@ 1199
simulate 1199
tem@@ 1199
whatsoever 1199
é 1199
barrels 1198
footing 1198
icing 1198
manipulation 1198
plague 1198
regulator 1198
stabilize 1198
thereafter 1198
ANG 1197
Marxism 1197
OL 1197
abol@@ 1197
buttons 1197
dumb 1197
facilitated 1197
fibre 1197
greeted 1197
molecule 1197
recognised 1197
reimbur@@ 1197
word@@ 1197
Tea 1196
acquisitions 1196
brutal 1196
committing 1196
featuring 1196
onally 1196
rian 1196
ails 1195
directional 1195
exclusion 1195
fascinating 1195
mond 1195
25.@@ 1194
Cypriot 1194
Hawaii 1194
SARS 1194
aerial 1194
caus@@ 1194
evolving 1194
shifted 1194
sweeping 1194
turkey 1194
utterly 1194
yearly 1194
ABC 1193
Animal 1193
Automatic 1193
Decision 1193
People鈥檚 1193
Speak 1193
aloud 1193
box@@ 1193
citizenship 1193
craf@@ 1193
rot 1193
steak 1193
ura 1193
NASA 1192
Permit 1192
abdominal 1192
duplicate 1192
herein 1192
horri@@ 1192
ogy 1192
Century 1191
Cru@@ 1191
discrete 1191
inhabited 1191
ja 1191
metry 1191
neutr@@ 1191
salesman 1191
104 1190
10th 1190
Lower 1190
dislike 1190
disturb 1190
imperial 1190
nutritional 1190
resses 1190
sensi@@ 1190
wel@@ 1190
22.@@ 1189
Ash@@ 1189
Disney 1189
accomplishment 1189
cracking 1189
eing 1189
gad@@ 1189
pumping 1189
supplements 1189
tia 1189
wit 1189
bru@@ 1188
doll 1188
kilograms 1188
similarly 1188
undertook 1188
LD 1187
Officers 1187
Period 1187
cus 1187
religions 1187
veil 1187
Late 1186
Lei 1186
consulted 1186
counsel@@ 1186
hint 1186
instructed 1186
lent 1186
stating 1186
suffers 1186
1974 1185
Success 1185
cock 1185
commend 1185
corrections 1185
deteriorating 1185
gla@@ 1185
glue 1185
schooling 1185
Ath@@ 1184
Philip 1184
assumes 1184
coup 1184
curative 1184
dispose 1184
dye 1184
enced 1184
exhibitions 1184
faculty 1184
outing 1184
probable 1184
relying 1184
NBA 1183
Programmes 1183
R. 1183
Sco@@ 1183
Wind 1183
bull@@ 1183
discourse 1183
eties 1183
iles 1183
imper@@ 1183
projection 1183
socially 1183
Conditions 1182
Cont@@ 1182
grim 1182
osity 1182
power@@ 1182
propagation 1182
tiles 1182
una 1182
Michelle 1181
Sue 1181
ected 1181
guitar 1181
someday 1181
Cosette 1180
Div 1180
Euro@@ 1180
abil@@ 1180
bail 1180
bubbles 1180
fashionable 1180
geo@@ 1180
presidents 1180
speedy 1180
vin@@ 1180
voluntarily 1180
Islam 1179
Promoting 1179
awa 1179
balances 1179
dealers 1179
flames 1179
nos@@ 1179
preambular 1179
tail@@ 1179
towel 1179
Arctic 1178
Joey 1178
ara 1178
careless 1178
financially 1178
groundwater 1178
pain@@ 1178
peri@@ 1178
respecting 1178
stakes 1178
Ethnic 1177
Lisa 1177
aliz@@ 1177
cardi@@ 1177
contingency 1177
fortunes 1177
pertinent 1177
promotional 1177
sigh 1177
soda 1177
supplying 1177
weakened 1177
Dream 1176
Jos@@ 1176
Stri@@ 1176
amazed 1176
analy@@ 1176
ather@@ 1176
commissioned 1176
lofty 1176
ograph 1176
plunged 1176
takeover 1176
ulator 1176
ushes 1176
Aviation 1175
Principal 1175
Video 1175
beaches 1175
dew 1175
dump 1175
enrich 1175
herd 1175
observ@@ 1175
1960 1174
Madam 1174
adherence 1174
bac@@ 1174
dragged 1174
embarrassed 1174
fic 1174
lectures 1174
Hamas 1173
Lily 1173
demonstrations 1173
exempted 1173
org@@ 1173
taining 1173
undergone 1173
Relief 1172
Samuel 1172
disrup@@ 1172
nia 1172
paras 1172
pavement 1172
standardization 1172
switched 1172
Factory 1171
MPF 1171
auxiliary 1171
basement 1171
exploded 1171
govern@@ 1171
grap@@ 1171
orable 1171
transient 1171
Az@@ 1170
Likewise 1170
Toyota 1170
bel 1170
country@@ 1170
donated 1170
husbands 1170
lays 1170
trash 1170
treats 1170
Dow 1169
Gam@@ 1169
Nairobi 1169
adversely 1169
capitalism 1169
iction 1169
lungs 1169
mall 1169
martial 1169
regul@@ 1169
rounded 1169
sexy 1169
stac@@ 1169
stall 1169
supervising 1169
Hal@@ 1168
fragrance 1168
friend@@ 1168
lessness 1168
prosecuted 1168
sprink@@ 1168
subordinate 1168
uster 1168
CR 1167
Sel@@ 1167
crow@@ 1167
custom@@ 1167
depart 1167
green@@ 1167
healthier 1167
woven 1167
Alliance 1166
Car 1166
aided 1166
covenant 1166
dean 1166
denial 1166
dispatched 1166
featured 1166
fostering 1166
inclusive 1166
god@@ 1165
refr@@ 1165
summarizes 1165
Seller 1164
admired 1164
bert 1164
endeavours 1164
lacked 1164
mun@@ 1164
persistence 1164
tes@@ 1164
tha 1164
Adobe 1163
Stage 1163
Wit@@ 1163
appealing 1163
preferences 1163
scre@@ 1163
strife 1163
Beauty 1162
Preparation 1162
Pul@@ 1162
ambitions 1162
fet@@ 1162
gle 1162
rents 1162
rist@@ 1162
tak@@ 1162
AI 1161
There@@ 1161
alternate 1161
boiler 1161
diving 1161
gon@@ 1161
tices 1161
Cut 1160
Doc@@ 1160
administrators 1160
carb@@ 1160
expired 1160
protocols 1160
Depression 1159
Express 1159
P. 1159
Stat@@ 1159
aine 1159
colon@@ 1159
constrained 1159
dog@@ 1159
exclaimed 1159
inn 1159
rebels 1159
spill 1159
tism 1159
xes 1159
Diffe@@ 1158
Macedonia 1158
OECD 1158
Talks 1158
decree 1158
ga 1158
poisonous 1158
chro@@ 1157
pensions 1157
reforming 1157
sist@@ 1157
stric@@ 1157
鈥淚 1157
EF@@ 1156
beg@@ 1156
guaranteeing 1156
hug 1156
i. 1156
lowing 1156
struggles 1156
taxpayers 1156
Nation@@ 1155
celebrity 1155
irs 1155
marginal 1155
particulars 1155
Ban 1154
Interest 1154
PM 1154
atom 1154
stimulating 1154
Material 1153
Williams 1153
awn 1153
eradicate 1153
recreation 1153
shut@@ 1153
tumors 1153
weary 1153
Bei@@ 1152
Centres 1152
Millennium 1152
Trademark 1152
departmental 1152
inspected 1152
sia 1152
thwestern 1152
0s 1151
2012 1151
Key@@ 1151
Procedures 1151
accidentally 1151
logy 1151
oak 1151
sibility 1151
terrain 1151
Hamlet 1150
ateral 1150
compile 1150
has@@ 1150
pep@@ 1150
1970 1149
Aqu@@ 1149
Plus 1149
alty 1149
disciplines 1149
gru@@ 1149
hello 1149
spelling 1149
wires 1149
Didn 1148
brow 1148
endanger 1148
limbs 1148
pillow 1148
China鈥檚 1147
Pan 1147
Prosecutor 1147
architect 1147
charts 1147
compelled 1147
finest 1147
heav@@ 1147
professors 1147
ranges 1147
tioning 1147
Cour@@ 1146
Kevin 1146
Lat@@ 1146
alarming 1146
commerci@@ 1146
inquire 1146
liz@@ 1146
resonance 1146
stakeholders 1146
tren@@ 1146
Inte@@ 1145
Mei 1145
Prior 1145
aspiration 1145
cartoon 1145
northeast 1145
pati@@ 1145
ply 1145
Day@@ 1144
Easter 1144
Ka@@ 1144
essness 1144
hop 1144
sincerity 1144
tenants 1144
Chandler 1143
Grade 1143
cot@@ 1143
distributing 1143
iro 1143
mang@@ 1143
oath 1143
relies 1143
wiped 1143
Boy 1142
HS 1142
ammunition 1142
gall@@ 1142
magical 1142
nucle@@ 1142
shouting 1142
silently 1142
stom@@ 1142
violating 1142
Examples 1141
MIN@@ 1141
Remove 1141
Van@@ 1141
appropriation 1141
dive 1141
less@@ 1141
ont 1141
procuring 1141
00,000 1140
Taiwanese 1140
illary 1140
testi@@ 1140
whale 1140
Excellency 1139
Tsui 1139
Zhao 1139
Zhu 1139
centralized 1139
dividend 1139
token 1139
travelled 1139
CT@@ 1138
Improving 1138
UNOMIG 1138
collections 1138
cured 1138
fermentation 1138
helpless 1138
reinforcement 1138
thoughtful 1138
turtle 1138
3.5 1137
H. 1137
Subsequently 1137
absorbing 1137
authentic 1137
ingu@@ 1137
regrets 1137
titude 1137
Fred 1136
emin@@ 1136
enquiry 1136
infin@@ 1136
refusing 1136
Aim 1135
Improvement 1135
SS@@ 1135
ench@@ 1135
nasty 1135
toes 1135
Electro@@ 1134
Pyongyang 1134
Reas@@ 1134
Zhen 1134
cil@@ 1134
gastric 1134
marble 1134
pac@@ 1134
Front 1133
Tsang 1133
aster@@ 1133
purity 1133
veto 1133
yarn 1133
Outside 1132
awaiting 1132
dul@@ 1132
feder@@ 1132
flags 1132
surgeon 1132
1.1 1131
Brussels 1131
alcoholic 1131
collateral 1131
elle 1131
fluctuations 1131
gor@@ 1131
jungle 1131
oblig@@ 1131
otted 1131
practitioners 1131
112 1130
Tech 1130
eighty 1130
isions 1130
magni@@ 1130
morrow 1130
.2 1129
Brian 1129
Embassy 1129
HSBC 1129
bowed 1129
dling 1129
explo@@ 1129
hang@@ 1129
multitude 1129
nt 1129
tribes 1129
yers 1129
Portuguese 1128
Processing 1128
anian 1128
audi@@ 1128
cruise 1128
develop@@ 1128
inward 1128
preparedness 1128
textiles 1128
vag@@ 1128
CAR@@ 1127
Fire@@ 1127
dentist 1127
isc@@ 1127
nan 1127
practicable 1127
suppl@@ 1127
Guam 1126
deviation 1126
english 1126
logistical 1126
mou@@ 1126
pipelines 1126
rol@@ 1126
tomato 1126
turing 1126
uti@@ 1126
Europeans 1125
PD@@ 1125
Yangtze 1125
advocacy 1125
forge 1125
tles 1125
Defence 1124
Run 1124
alise 1124
eagle 1124
surveying 1124
1975 1123
Incl@@ 1123
NC 1123
Yemen 1123
connotation 1123
dared 1123
landlord 1123
mann 1123
thieves 1123
tighten 1123
unwilling 1123
Game 1122
Sav@@ 1122
billi@@ 1122
comedy 1122
punch 1122
soybean 1122
tonnes 1122
tours 1122
Budget 1121
Colonel 1121
Lynch 1121
convincing 1121
fabrics 1121
lau@@ 1121
traveler 1121
CIS 1120
Mah@@ 1120
abr@@ 1120
andy 1120
clauses 1120
destabil@@ 1120
forging 1120
grocery 1120
Bearing 1119
Budgetary 1119
Wuhan 1119
acle 1119
ault 1119
chap 1119
lor@@ 1119
rotor 1119
ted@@ 1119
though@@ 1119
22@@ 1118
EP@@ 1118
End 1118
Fannie 1118
Liber@@ 1118
emic 1118
invites 1118
shelves 1118
swelling 1118
vy 1118
Ci@@ 1117
IOC 1117
Kung 1117
Les@@ 1117
OS 1117
Sierra 1117
Tehran 1117
Welcoming 1117
dow@@ 1117
gul@@ 1117
questioning 1117
15th 1116
Billy 1116
Intergovernmental 1116
Rich 1116
activists 1116
assass@@ 1116
drafted 1116
lamps 1116
oration 1116
Develop@@ 1115
Telecommunications 1115
elev@@ 1115
lenders 1115
motions 1115
oscopic 1115
withdrew 1115
wrath 1115
FE@@ 1114
Return 1114
Similar 1114
cane 1114
dietary 1114
ida 1114
judging 1114
tain 1114
Spec@@ 1113
Testing 1113
arri@@ 1113
bed@@ 1113
list@@ 1113
peacefully 1113
prospecting 1113
resolutely 1113
reversed 1113
shocks 1113
suite 1113
ditch 1112
legality 1112
myth 1112
scenarios 1112
stern 1112
ult 1112
widening 1112
ATE 1111
Behind 1111
Christians 1111
broaden 1111
generic 1111
prov@@ 1111
rhetoric 1111
side@@ 1111
vase 1111
Ladies 1110
dian 1110
embassy 1110
inconsistent 1110
metre 1110
pancre@@ 1110
partition 1110
petition 1110
philosopher 1110
resettlement 1110
resigned 1110
Users 1109
Woman 1109
expedi@@ 1109
offspring 1109
sperm 1109
Eg 1108
Response 1108
ado 1108
assemble 1108
pris@@ 1108
prisons 1108
puzzle 1108
torque 1108
verb 1108
vicious 1108
Exp@@ 1107
Red@@ 1107
Roger 1107
duced 1107
edible 1107
embodied 1107
flap 1107
otes 1107
pel 1107
resign 1107
taxpayer 1107
Albania 1106
Avenue 1106
Cun 1106
Lhasa 1106
Vietnamese 1106
Xia@@ 1106
atically 1106
evolve 1106
fountain 1106
ratings 1106
thi@@ 1106
Care@@ 1105
S.@@ 1105
athletic 1105
conceal 1105
e- 1105
greeting 1105
his@@ 1105
ice@@ 1105
Any@@ 1104
Clo@@ 1104
Dynamic 1104
EF 1104
Greater 1104
collector 1104
dun@@ 1104
econom@@ 1104
Heavy 1103
User 1103
Week 1103
absurd 1103
acquiring 1103
arithmetic 1103
endorse 1103
ik@@ 1103
seekers 1103
Jobs 1102
Lanka 1102
blu@@ 1102
coma 1102
railways 1102
Ice 1101
concealed 1101
cooperating 1101
furnished 1101
laptop 1101
quarterly 1101
sued 1101
waking 1101
Bos@@ 1100
Lar@@ 1100
Probably 1100
Writing 1100
alls 1100
generates 1100
ogen@@ 1100
reuse 1100
towers 1100
&apos;an 1099
5. 1099
Darfur 1099
ECE 1099
glimpse 1099
leness 1099
lesser 1099
lymph@@ 1099
programmed 1099
rel 1099
unification 1099
Easy 1098
SMEs 1098
Sally 1098
Talking 1098
booming 1098
cared 1098
cliff 1098
courtyard 1098
iah 1098
imbalances 1098
parade 1098
philosophical 1098
tance 1098
Chu@@ 1097
Lic@@ 1097
Psych@@ 1097
West@@ 1097
bir@@ 1097
consciously 1097
diamonds 1097
diff@@ 1097
pes 1097
slim 1097
tains 1097
thematic 1097
Dark 1096
Linda 1096
Lusaka 1096
ONUSAL 1096
communic@@ 1096
offense 1096
Adv@@ 1095
MT 1095
ask@@ 1095
bou@@ 1095
devi@@ 1095
dissolved 1095
expose 1095
grad@@ 1095
queries 1095
regretted 1095
sticking 1095
theirs 1095
withstand 1095
Citizens 1094
DPRK 1094
Ex 1094
Mass 1094
contributors 1094
ectomy 1094
essions 1094
iller 1094
intact 1094
ja@@ 1094
lump 1094
protec@@ 1094
Believe 1093
Beyond 1093
Going 1093
Organiz@@ 1093
downs 1093
forged 1093
rebel 1093
salvation 1093
Consultation 1092
Ecuador 1092
Guangxi 1092
Monica 1092
Summary 1092
balloon 1092
incredibly 1092
lap@@ 1092
maj@@ 1092
motorcycle 1092
.4 1091
Compensation 1091
dwelling 1091
iv 1091
olu@@ 1091
robbed 1091
Antarctica 1090
Prices 1090
arg@@ 1090
thin@@ 1090
PA@@ 1089
cub@@ 1089
money@@ 1089
patri@@ 1089
portrait 1089
Dick 1088
Ga@@ 1088
mation 1088
offender 1088
recourse 1088
Donald 1087
Wen@@ 1087
boil 1087
con 1087
memor@@ 1087
tore 1087
merge 1086
ogue 1086
pepper 1086
sided 1086
six@@ 1086
stabil@@ 1086
LC 1085
Mountains 1085
Tel@@ 1085
atter 1085
commence 1085
exquisite 1085
hormones 1085
norm 1085
oa 1085
pulp 1085
returnees 1085
utation 1085
Grad@@ 1084
arsen@@ 1084
aught 1084
insecurity 1084
objections 1084
viscosity 1084
Laura 1083
Michigan 1083
Roc@@ 1083
aic 1083
eral 1083
habitat 1083
sati@@ 1083
Anne 1082
Antarctic 1082
Chap@@ 1082
Result 1082
Stre@@ 1082
bosses 1082
chim@@ 1082
filters 1082
indications 1082
mentality 1082
mot@@ 1082
Hand 1081
Ok@@ 1081
arduous 1081
block@@ 1081
counterpart 1081
devotion 1081
interpersonal 1081
intrac@@ 1081
miners 1081
pa 1081
scent 1081
spoil 1081
swap 1081
Ha 1080
cir@@ 1080
fade 1080
hn 1080
impress 1080
kernel 1080
prayers 1080
tales 1080
turn@@ 1080
000@@ 1079
Dou@@ 1079
Nordic 1079
Rob@@ 1079
Super 1079
UGC 1079
Yang@@ 1079
boiled 1079
exterior 1079
vicinity 1079
Copyright 1078
Juli@@ 1078
adv@@ 1078
arming 1078
kills 1078
oy@@ 1078
pas@@ 1078
revisions 1078
singular 1078
thirst 1078
courtesy 1077
implements 1077
snack 1077
vide@@ 1077
Blu@@ 1076
Laws 1076
NT 1076
Yau 1076
aquatic 1076
designate 1076
iner 1076
inquiries 1076
ometry 1076
refin@@ 1076
tones 1076
trait 1076
Determin@@ 1075
Photo 1075
Tem@@ 1075
brokerage 1075
depl@@ 1075
du 1075
eck 1075
exec@@ 1075
intolerance 1075
jazz 1075
murdered 1075
qing 1075
rust 1075
treasures 1075
Exam@@ 1074
Fujian 1074
GPS 1074
Grandpa 1074
Non@@ 1074
Ron 1074
analysing 1074
danced 1074
genic 1074
hardest 1074
hinder 1074
nity 1074
postmark 1074
rene 1074
thunder@@ 1074
tightening 1074
baking 1073
bank@@ 1073
cries 1073
exempt 1073
knot 1073
nish 1073
perme@@ 1073
sick@@ 1073
watch@@ 1073
Cape 1072
Settlements 1072
Shipping 1072
biom@@ 1072
donkey 1072
font 1072
isnt 1072
snap 1072
subscription 1072
ul 1072
volatility 1072
Ol@@ 1071
Requirements 1071
bble 1071
deliberation 1071
leaning 1071
scar 1071
shone 1071
substrate 1071
traces 1071
vity 1071
welcoming 1071
29.@@ 1070
Danglars 1070
Deli@@ 1070
Respon@@ 1070
itz 1070
lad 1070
ser 1070
uration 1070
鈥淚@@ 1070
Bus 1069
Buyer 1069
Jintao 1069
ania 1069
ankle 1069
delegate 1069
exer@@ 1069
just@@ 1069
piling 1069
sculpture 1069
sten@@ 1069
200,000 1068
Baby 1068
Buy 1068
ellers 1068
harmonic 1068
heap 1068
jer@@ 1068
malignant 1068
visas 1068
Clerk 1067
N. 1067
Program@@ 1067
Spo@@ 1067
communicating 1067
crip@@ 1067
grac@@ 1067
hap@@ 1067
iti 1067
needy 1067
souvenir 1067
stipulates 1067
Cost 1066
Expresses 1066
Outline 1066
PAR@@ 1066
Trad@@ 1066
ader 1066
alli@@ 1066
ambassador 1066
innocence 1066
obstruc@@ 1066
oscill@@ 1066
poorer 1066
underneath 1066
21.@@ 1065
500,000 1065
Arm@@ 1065
PF 1065
elbow 1065
festivals 1065
initiation 1065
ologies 1065
raining 1065
Bad 1064
DR@@ 1064
discrimin@@ 1064
emer@@ 1064
flooded 1064
fulfilment 1064
fundamentally 1064
insult 1064
itably 1064
regain 1064
spirit@@ 1064
Jason 1063
Rap@@ 1063
Resident 1063
Shanxi 1063
bladder 1063
celebrating 1063
coloured 1063
derive 1063
elly 1063
eventual 1063
grassland 1063
marsh@@ 1063
rever@@ 1063
semiconductor 1063
trop@@ 1063
vul@@ 1063
Apply 1062
Law@@ 1062
adj 1062
che 1062
criticize 1062
jade 1062
profiles 1062
simplify 1062
lowed 1061
urt 1061
vill@@ 1061
Dur@@ 1060
facto 1060
illustr@@ 1060
judgments 1060
twisted 1060
verb@@ 1060
Partnership 1059
Pressure 1059
Properties 1059
clu@@ 1059
collaborative 1059
digit 1059
episode 1059
lation 1059
lemon 1059
systemic 1059
Qingdao 1058
Relationship 1058
attracts 1058
compares 1058
disruption 1058
downstairs 1058
fantasy 1058
idation 1058
stubborn 1058
thir@@ 1058
transplant 1058
80@@ 1057
Peninsula 1057
comic 1057
enses 1057
imminent 1057
oste@@ 1057
painter 1057
prophet 1057
Bir@@ 1056
CS 1056
Overseas 1056
able@@ 1056
anic 1056
colony 1056
communicated 1056
eves 1056
lan@@ 1056
learners 1056
sal 1056
similarity 1056
Chengdu 1055
JP 1055
aids 1055
comprehensively 1055
decentralization 1055
femin@@ 1055
implied 1055
insurer 1055
manifestation 1055
nu@@ 1055
ony@@ 1055
privatization 1055
richer 1055
sens@@ 1055
thouse 1055
ually 1055
utilities 1055
Atlanta 1054
COM@@ 1054
Principle 1054
Sector 1054
accompanying 1054
activate 1054
anning 1054
couldnt 1054
finals 1054
morphology 1054
shrinking 1054
stems 1054
Intellectual 1053
angu@@ 1053
commenced 1053
monk 1053
ogenous 1053
origin@@ 1053
outlets 1053
setup 1053
travelers 1053
vin 1053
0.5 1052
Fa@@ 1052
Listing 1052
Lucy 1052
cone 1052
motives 1052
pizza 1052
privileged 1052
spur 1052
Betty 1051
ITY 1051
Rain@@ 1051
imply 1051
sar@@ 1051
sympathetic 1051
worthwhile 1051
117 1050
Anna 1050
Institutions 1050
acceded 1050
guardian 1050
hic 1050
iter 1050
ration@@ 1050
ruins 1050
threads 1050
vanished 1050
1,500 1049
Lon@@ 1049
Sor@@ 1049
administrations 1049
confess 1049
intrinsic 1049
peacemaking 1049
prescri@@ 1049
reservoirs 1049
sanitary 1049
scoring 1049
199@@ 1048
Temporary 1048
ellow@@ 1048
hall@@ 1048
iny 1048
railroad 1048
reckon 1048
Cop@@ 1047
IE@@ 1047
Pep@@ 1047
Truth 1047
disastrous 1047
exed 1047
fertile 1047
greet 1047
grou@@ 1047
mum@@ 1047
southwest 1047
witch 1047
Shu@@ 1046
coordinator 1046
fan@@ 1046
mosquito 1046
must@@ 1046
sym@@ 1046
Rwandese 1045
Zambia 1045
dip 1045
doub@@ 1045
elt 1045
pumps 1045
recogn@@ 1045
twentieth 1045
Pu@@ 1044
atorial 1044
closet 1044
converter 1044
embarrassing 1044
envel@@ 1044
ouses 1044
PR 1043
TP 1043
ayer 1043
day.@@ 1043
loos@@ 1043
oids 1043
suppress 1043
tuberculosis 1043
Influence 1042
enforcing 1042
ign 1042
milestone 1042
obs@@ 1042
touches 1042
Logistics 1041
minus 1041
nate 1041
refresh@@ 1041
termin@@ 1041
transforming 1041
Peri@@ 1040
Work@@ 1040
anne 1040
declares 1040
enhances 1040
lodged 1040
pesticides 1040
polling 1040
stretching 1040
Namibia 1039
Sym@@ 1039
Top@@ 1039
UBS 1039
arium 1039
combatants 1039
expectancy 1039
indifferent 1039
logs 1039
makeup 1039
merry 1039
zzle 1039
Chau 1038
Dor@@ 1038
Literature 1038
antibiotics 1038
counselling 1038
ego 1038
fulfillment 1038
hopefully 1038
permeability 1038
proportions 1038
telescope 1038
thful 1038
wrist 1038
Hester 1037
Important 1037
Qinghai 1037
Smoking 1037
adap@@ 1037
catalytic 1037
class7 1037
couch 1037
deficiencies 1037
divorced 1037
eu 1037
insti@@ 1037
receipts 1037
sport@@ 1037
Andy 1036
Clar@@ 1036
DC@@ 1036
De 1036
SW@@ 1036
cardiovascular 1036
crane 1036
ence@@ 1036
revise 1036
scep@@ 1036
shipments 1036
tertiary 1036
33@@ 1035
Hard 1035
Kabul 1035
bon 1035
evacuation 1035
generalized 1035
logistic 1035
releasing 1035
subparagraph 1035
Indians 1034
WA@@ 1034
alteration 1034
ause 1034
debtor 1034
gaz@@ 1034
premier 1034
spoon 1034
ued 1034
GIS 1033
aders 1033
arc@@ 1033
bio 1033
competitor 1033
mark@@ 1033
mentation 1033
proof@@ 1033
recovering 1033
roast 1033
skies 1033
--and 1032
2011 1032
31.@@ 1032
Ohio 1032
anks 1032
arbitr@@ 1032
buff@@ 1032
comprehension 1032
decolonization 1032
eagerly 1032
exual 1032
investigators 1032
perseverance 1032
recreational 1032
riches 1032
socks 1032
Jersey 1031
PRESIDENT 1031
credentials 1031
descriptions 1031
enlarge 1031
everlasting 1031
exhibits 1031
hail 1031
nonsense 1031
orial 1031
rigorous 1031
tribal 1031
Author@@ 1030
Characteristics 1030
Less 1030
acquaintance 1030
arization 1030
concessions 1030
optic 1030
projections 1030
rou@@ 1030
Dong 1029
Mont@@ 1029
Purpose 1029
Ray 1029
Terms 1029
conquer 1029
del 1029
dispersion 1029
embarked 1029
itude 1029
sev@@ 1029
toler@@ 1029
ultrasound 1029
vious 1029
Biological 1028
Delhi 1028
Person 1028
Vehicle 1028
enact 1028
equities 1028
gorgeous 1028
how@@ 1028
inating 1028
reactive 1028
remedial 1028
stra@@ 1028
yah 1028
Dave 1027
Down 1027
Fixed 1027
Statements 1027
Ye 1027
armies 1027
bundle 1027
communist 1027
ener@@ 1027
exporter 1027
haste 1027
linkage 1027
offenders 1027
perfume 1027
question@@ 1027
sno@@ 1027
Fox 1026
Grand@@ 1026
Move 1026
Rub@@ 1026
accredited 1026
aim@@ 1026
asm 1026
enriched 1026
ext@@ 1026
ozone 1026
scare 1026
scrap 1026
sediment 1026
Chair 1025
Cla@@ 1025
Leisure 1025
Some@@ 1025
deposition 1025
doomed 1025
ecosystems 1025
endorsement 1025
feathers 1025
orn 1025
sequences 1025
theoretically 1025
Books 1024
Heritage 1024
PH@@ 1024
Simple 1024
inherit 1024
predicting 1024
siveness 1024
spreads 1024
wizard 1024
AF 1023
Meteorological 1023
eer 1023
ension 1023
immer@@ 1023
inception 1023
rack 1023
stud@@ 1023
venues 1023
weights 1023
Normal 1022
Reaffirms 1022
Scarlett 1022
Thought 1022
bombing 1022
eighteen 1022
ethanol 1022
regener@@ 1022
seals 1022
then@@ 1022
Facebook 1021
Mess@@ 1021
amy 1021
continual 1021
daylight 1021
frameworks 1021
goo@@ 1021
hears 1021
magnet 1021
ury 1021
weighing 1021
Barcelona 1020
Cert 1020
Conventions 1020
Scre@@ 1020
UNIFEM 1020
ffle 1020
heights 1020
lengthy 1020
look@@ 1020
scar@@ 1020
spect 1020
Already 1019
Fab@@ 1019
Provisional 1019
Swe@@ 1019
applause 1019
clue 1019
deprivation 1019
discoveries 1019
garlic 1019
memorandum 1019
policemen 1019
sulfur 1019
Comb@@ 1018
Pass@@ 1018
Proc@@ 1018
Ven@@ 1018
jack 1018
mistress 1018
sinking 1018
tiz@@ 1018
transformer 1018
Hebei 1017
Tra@@ 1017
Wol@@ 1017
atical 1017
attributable 1017
petty 1017
priv@@ 1017
retaining 1017
sanction 1017
solitary 1017
tioners 1017
vap@@ 1017
ves@@ 1017
Identity 1016
acupuncture 1016
inval@@ 1016
obstruction 1016
presentations 1016
storing 1016
ticul@@ 1016
Eventually 1015
Nam 1015
Sex 1015
Somebody 1015
acceler@@ 1015
booked 1015
every@@ 1015
incorrect 1015
natur@@ 1015
predictable 1015
ptions 1015
trim 1015
Average 1014
Facilities 1014
Licensing 1014
Pass 1014
accusations 1014
disputed 1014
elevated 1014
fut@@ 1014
nodded 1014
prohibit 1014
tsunami 1014
￡ 1014
852 1013
Active 1013
Majesty 1013
Mechanism 1013
comb@@ 1013
company@@ 1013
diligence 1013
metr@@ 1013
outfit 1013
swiftly 1013
128 1012
Connie 1012
Eur@@ 1012
aler@@ 1012
chaired 1012
forgiveness 1012
happiest 1012
medicinal 1012
proxy 1012
relaxing 1012
repayment 1012
seizure 1012
seventy 1012
umes 1012
vi 1012
Ds 1011
Guard 1011
discer@@ 1011
firearms 1011
fis@@ 1011
impartiality 1011
pioneer 1011
plating 1011
tily 1011
36@@ 1010
Cu@@ 1010
ESCAP 1010
Employees 1010
Eric 1010
Fear 1010
Stand 1010
chol@@ 1010
crimin@@ 1010
etting 1010
pilots 1010
rectification 1010
vic 1010
Auditors 1009
Link 1009
Salt 1009
oling 1009
omes 1009
oos 1009
slot 1009
sor 1009
traced 1009
Jo 1008
Phoebe 1008
amino 1008
asym@@ 1008
electroly@@ 1008
enjoyable 1008
enlarged 1008
es. 1008
extrabudgetary 1008
mediate 1008
misfortune 1008
nucleus 1008
purification 1008
scrutiny 1008
universality 1008
Beach 1007
Hillary 1007
Jerry 1007
Malta 1007
Ying 1007
beautifully 1007
ffed 1007
formidable 1007
huang 1007
lith@@ 1007
modi@@ 1007
Chrysler 1006
Da@@ 1006
Regular 1006
Viol@@ 1006
admits 1006
empowerment 1006
marrying 1006
tiveness 1006
trem@@ 1006
ushing 1006
voter 1006
weeds 1006
Block 1005
Brow@@ 1005
Congo 1005
Pet@@ 1005
Presidents 1005
cuisine 1005
diversion 1005
firm@@ 1005
lt 1005
ocy@@ 1005
porters 1005
pron@@ 1005
recruiting 1005
tus 1005
wear@@ 1005
Answer 1004
Duke 1004
Memorial 1004
Outer 1004
descent 1004
saf@@ 1004
tackling 1004
whistle 1004
Christianity 1003
Fit@@ 1003
Liberian 1003
Pil@@ 1003
compelling 1003
drastic 1003
lions 1003
overdue 1003
potassium 1003
proposition 1003
Matters 1002
Mit@@ 1002
Ow@@ 1002
bad@@ 1002
cab 1002
ections 1002
monkeys 1002
skull 1002
sue 1002
venti@@ 1002
wre@@ 1002
ARY 1001
chill 1001
detainees 1001
goose 1001
infantry 1001
precipitation 1001
rewarded 1001
vian 1001
yoga 1001
28.@@ 1000
Aunt 1000
Groups 1000
Pin@@ 1000
asas 1000
doses 1000
husbandry 1000
militia 1000
revealing 1000
specimen 1000
warmer 1000
Animals 999
PP 999
Ruth 999
Trial 999
bred 999
distances 999
joins 999
peaks 999
stare 999
think@@ 999
weak@@ 999
Bird 998
Brit@@ 998
Cos@@ 998
ancies 998
individu@@ 998
opes 998
osa 998
ria 998
saves 998
thereto 998
vendor 998
verbs 998
volcanic 998
Asked 997
battles 997
clinics 997
hospit@@ 997
modem 997
spi@@ 997
therap@@ 997
鈥淭@@ 997
Bat@@ 996
CHAIRMAN 996
Carolina 996
Vie@@ 996
Wales 996
aerobic 996
allied 996
hel 996
industri@@ 996
langu@@ 996
rus 996
Play 995
humili@@ 995
obscure 995
physic@@ 995
toxicity 995
Phil@@ 994
Present 994
anticipate 994
backgrounds 994
burdens 994
imposition 994
sedi@@ 994
spine 994
unk 994
veteran 994
Bun@@ 993
U.S 993
agu@@ 993
banner 993
chooses 993
cros@@ 993
disbur@@ 993
injustice 993
invaluable 993
porter 993
skip 993
wines 993
Impact 992
onia 992
potent 992
sighted 992
uling 992
Pennsylvania 991
fist 991
frost 991
imitation 991
imperi@@ 991
tieth 991
Fif@@ 990
Nancy 990
banquet 990
deserted 990
laboratories 990
linen 990
lou@@ 990
people鈥檚 990
realise 990
tage 990
technically 990
teens 990
Pre 989
asing 989
compliment 989
curing 989
diplomats 989
inspectors 989
itely 989
ower 989
ratios 989
snat@@ 989
swine 989
zen 989
&apos;But 988
E.@@ 988
MR@@ 988
Premi@@ 988
Release 988
Whereas 988
bribery 988
descended 988
ept@@ 988
ffing 988
omy@@ 988
propag@@ 988
sharp@@ 988
simplest 988
Wood 987
abolished 987
aya 987
fron@@ 987
gus 987
presses 987
Abstract 986
Conn@@ 986
Rus@@ 986
clos@@ 986
fig@@ 986
gau@@ 986
iang 986
noc@@ 986
norm@@ 986
ophy@@ 986
overcoming 986
said@@ 986
trademarks 986
verdict 986
Massachusetts 985
McDonald 985
Miller 985
Som@@ 985
cen@@ 985
definitive 985
depended 985
loom 985
shri@@ 985
stag@@ 985
Arms 984
Cola 984
Description 984
Identification 984
PD 984
Racial 984
consolidating 984
ele 984
herbs 984
hero@@ 984
iPhone 984
room@@ 984
speeding 984
unle@@ 984
wording 984
350 983
Tian@@ 983
Um 983
beverage 983
biodiversity 983
exclude 983
occupying 983
skating 983
youve 983
.3 982
Dom@@ 982
Efficiency 982
bat 982
cubic 982
ense 982
hip@@ 982
onset 982
shop@@ 982
susceptible 982
urg@@ 982
Bond 981
Hil@@ 981
Regi@@ 981
Transportation 981
aser 981
emphas@@ 981
euros 981
hectares 981
market@@ 981
nearer 981
northwest 981
pane 981
tempted 981
unconditional 981
waved 981
Comparison 980
Leo 980
Pap@@ 980
Socialist 980
aligned 980
astro@@ 980
bearings 980
console 980
eb@@ 980
exotic 980
reproduced 980
rugged 980
shark 980
simultaneous 980
statutes 980
temp@@ 980
vendors 980
Christopher 979
concentrations 979
cutter 979
formulas 979
lottery 979
chr@@ 978
compressed 978
dash 978
ela 978
leaned 978
relied 978
sauc@@ 978
technicians 978
Kai 977
Kur@@ 977
Page 977
afting 977
bud 977
diminished 977
dit 977
expres@@ 977
notices 977
rabbits 977
spectral 977
synthesized 977
1960s 976
Bra@@ 976
Mart 976
bag@@ 976
bitch 976
dumped 976
eper 976
goodwill 976
meteor@@ 976
porous 976
tization 976
yielding 976
Near 975
narr@@ 975
nov@@ 975
persisted 975
sights 975
small@@ 975
tenure 975
vitamins 975
123 974
Baltic 974
Observation 974
afterward 974
chiefly 974
dd@@ 974
hostage 974
kne@@ 974
prevalence 974
pts 974
Prote@@ 973
brilli@@ 973
chil@@ 973
critic 973
geometric 973
gown 973
grapes 973
honoured 973
incompatible 973
jaw 973
mud@@ 973
nutrient 973
paramount 973
Campaign 972
Cli@@ 972
Uzbekistan 972
accessed 972
aus@@ 972
cache 972
cottage 972
doth 972
hut 972
incur@@ 972
installing 972
killings 972
polls 972
rub@@ 972
Intelligence 971
Nine 971
bosom 971
dead@@ 971
defl@@ 971
erc@@ 971
feeds 971
institution@@ 971
recoll@@ 971
suppression 971
Angel 970
Darcy 970
Request 970
bark 970
defended 970
explosives 970
inhibit@@ 970
mortal 970
straightforward 970
vaccines 970
vapor 970
170 969
Cel@@ 969
Prec@@ 969
battlefield 969
candles 969
deter@@ 969
dled 969
foil 969
leasing 969
ometric 969
spectro@@ 969
submissions 969
thirsty 969
.And 968
CUHK 968
Freedom 968
Jing@@ 968
adolescents 968
cherry 968
flash@@ 968
habit@@ 968
iss@@ 968
percep@@ 968
rescued 968
sigh@@ 968
trivial 968
Kwun 967
Sister 967
altern@@ 967
artic@@ 967
bulb 967
correspon@@ 967
liness 967
offici@@ 967
penetration 967
rog@@ 967
sympath@@ 967
UNOPS 966
appliance 966
ital 966
markedly 966
paradise 966
prevalent 966
revoked 966
swim@@ 966
upside 966
Every@@ 965
MD 965
coil 965
constituent 965
crust 965
particul@@ 965
soy 965
whisper 965
world@@ 965
Alaska 964
Optional 964
bonuses 964
chemotherapy 964
confirms 964
housework 964
inquired 964
navy 964
piracy 964
rop@@ 964
Formul@@ 963
Jamaica 963
Norwegian 963
Pope 963
entrust 963
galaxy 963
inalienable 963
restricting 963
unhealthy 963
2.1 962
HE@@ 962
IL 962
Manhattan 962
Roosevelt 962
bells 962
formul@@ 962
rup@@ 962
triumph@@ 962
variance 962
duction 961
missi@@ 961
sufficiency 961
whispered 961
TT 960
catalog 960
mia 960
paused 960
ration 960
tactic 960
119 959
Americas 959
Fir@@ 959
evidently 959
foreigner 959
impoverished 959
routing 959
synchronous 959
ulous 959
violin 959
weaken 959
yielded 959
1972 958
Adoption 958
Hay@@ 958
Send 958
accomplishments 958
beasts 958
births 958
clari@@ 958
curtains 958
endant 958
intestinal 958
pleasing 958
stup@@ 958
subregion 958
wave@@ 958
zy@@ 958
Agencies 957
Emphas@@ 957
Qing@@ 957
asia 957
catering 957
coherence 957
comfortably 957
diligent 957
fixation 957
ground@@ 957
junction 957
lur@@ 957
portation 957
recognise 957
Arrangements 956
Jun@@ 956
Nick 956
Opera 956
civic 956
ener 956
furious 956
gia 956
jealousy 956
nod@@ 956
Kat@@ 955
ONE 955
Sound 955
curved 955
indic@@ 955
indifference 955
lor 955
modifications 955
nightmare 955
rainbow 955
reaffirms 955
trembling 955
34.@@ 954
Holdings 954
Margaret 954
Mind 954
Nik@@ 954
Object 954
Satellite 954
denying 954
duct 954
handy 954
imag@@ 954
nur@@ 954
posture 954
schedules 954
xia 954
Bolivia 953
chaotic 953
fibr@@ 953
positioned 953
taller 953
thankful 953
ults 953
ECA 952
Rate 952
Villefort 952
Voluntary 952
bust@@ 952
comb 952
polarization 952
servic@@ 952
sure@@ 952
warranty 952
your@@ 952
zh@@ 952
Abkhazia 951
Conventional 951
Indic@@ 951
body@@ 951
bum@@ 951
business@@ 951
complied 951
consul@@ 951
creep 951
degrad@@ 951
malnutrition 951
teenager 951
uality 951
vigor 951
2.4 950
Arti@@ 950
Delegation 950
Directors 950
Fun@@ 950
Jia 950
Presentation 950
Relevant 950
Revenue 950
Wei@@ 950
bonded 950
devise 950
ema 950
intermediary 950
misunderstanding 950
proportional 950
residue 950
rulers 950
simpler 950
tablet 950
Combined 949
Heathcliff 949
Kid@@ 949
aftermath 949
banana 949
collabor@@ 949
debut 949
expires 949
fai@@ 949
medic@@ 949
orate 949
southeast 949
strata 949
300,000 948
35.@@ 948
Mandarin 948
Polish 948
Sleep 948
bran@@ 948
camp@@ 948
electr@@ 948
greatness 948
har 948
originating 948
typing 948
uter@@ 948
Focus 947
decomposition 947
fluctuation 947
recurrence 947
resor@@ 947
Rehabilitation 946
Thirty 946
atable 946
bandwidth 946
defective 946
disappointing 946
pirates 946
sworn 946
textbooks 946
weakening 946
weighted 946
Dog 945
essly 945
evenly 945
illustration 945
jun@@ 945
oscope 945
publisher 945
regeneration 945
resp@@ 945
rifle 945
triangle 945
Ak@@ 944
Conserv@@ 944
Ot@@ 944
Thinking 944
blood@@ 944
compass 944
coping 944
enger 944
escalation 944
itted 944
opt 944
owning 944
remarked 944
temporal 944
Mes@@ 943
Meth@@ 943
URA 943
buc@@ 943
interfaces 943
olic 943
rit 943
suitcase 943
trader 943
unusually 943
APEC 942
Dav@@ 942
Germans 942
Huang@@ 942
Pow@@ 942
Savings 942
authorised 942
automotive 942
birth@@ 942
confronting 942
deceased 942
harmonization 942
incense 942
marathon 942
playground 942
stirred 942
thre@@ 942
Jake 941
alloys 941
amounting 941
announcing 941
coo@@ 941
correspond 941
fireworks 941
heel 941
identi@@ 941
mour@@ 941
obese 941
overwhelmed 941
riot 941
Bruce 940
Haz@@ 940
Zhong@@ 940
anytime 940
coke 940
compens@@ 940
geared 940
phil@@ 940
replen@@ 940
retrieve 940
Counter@@ 939
Francis 939
Indigenous 939
Sept 939
ashore 939
desperately 939
mast@@ 939
news@@ 939
sha 939
tum 939
ICRC 938
Jon@@ 938
Puerto 938
atization 938
giants 938
gloom 938
heater 938
restrictive 938
superficial 938
tings 938
vacancies 938
DO 937
Fast 937
Lan@@ 937
Radi@@ 937
adjustable 937
chop@@ 937
dread 937
dupl@@ 937
icular 937
lawfully 937
oom 937
outsourcing 937
pearl 937
pools 937
postpone 937
routinely 937
semantic 937
spake 937
6.The 936
Auto 936
Engr 936
Ken 936
Registrar 936
appl@@ 936
attered 936
battalion 936
calligraphy 936
fellows 936
greetings 936
interrup@@ 936
led@@ 936
neighbourhood 936
ograp@@ 936
registry 936
remin@@ 936
sponsoring 936
.If 935
Customers 935
Davis 935
Excellent 935
Football 935
Grap@@ 935
harv@@ 935
lan 935
tionist 935
1.4 934
Basin 934
Hundreds 934
Hus@@ 934
LIMITED 934
Mayor 934
Vegas 934
amplitude 934
bust 934
cumulative 934
frater@@ 934
labourers 934
prising 934
radius 934
realizes 934
statistic 934
tories 934
IE 933
cans 933
correlated 933
humane 933
rationality 933
recorder 933
theres 933
uo 933
volcano 933
BM@@ 932
Conduct 932
Jur@@ 932
Off 932
Stress 932
appreciates 932
briefed 932
chann@@ 932
closures 932
equals 932
extinction 932
gland 932
hydration 932
incorporation 932
nasal 932
&apos;And 931
Func@@ 931
blessings 931
boxing 931
dancer 931
illiteracy 931
rists 931
visibility 931
18th 930
John@@ 930
Smo@@ 930
TCM 930
arid 930
chambers 930
edes 930
essing 930
fling 930
participates 930
seafood 930
segmentation 930
uneven 930
Kir@@ 929
counterfeit 929
implication 929
ota 929
philatelic 929
prognosis 929
treas@@ 929
volleyball 929
ype 929
Bernanke 928
Bretton 928
Jamahiriya 928
Pursuant 928
VO@@ 928
antagon@@ 928
arded 928
atis@@ 928
dessert 928
faded 928
integr@@ 928
monot@@ 928
newest 928
peninsula 928
resid@@ 928
stuffed 928
upwards 928
118 927
Fisheries 927
Manufac@@ 927
arranging 927
bachelor 927
fiers 927
metap@@ 927
optimizing 927
parcel 927
store@@ 927
triple 927
trophy 927
uled 927
won@@ 927
worms 927
ye@@ 927
BE@@ 926
Girl 926
Northeast 926
Soil 926
aft 926
charitable 926
editorial 926
eland 926
extrac@@ 926
goats 926
interdependence 926
monument 926
overe@@ 926
portions 926
Port@@ 925
Rot@@ 925
Sher@@ 925
Takes 925
Yin 925
advantageous 925
bailout 925
coexistence 925
cushion 925
ferry 925
fort 925
haw@@ 925
positi@@ 925
ritual 925
scattering 925
tally 925
uro@@ 925
usefulness 925
@ 924
Angolan 924
Combat 924
Quite 924
atitis 924
chat@@ 924
clone 924
incorporating 924
ouldn 924
sth@@ 924
Ang@@ 923
Dalian 923
Neg@@ 923
Ran@@ 923
agre@@ 923
bang 923
cles 923
mans 923
mobilizing 923
reap 923
sab@@ 923
tub 923
39@@ 922
Academic 922
appro@@ 922
clearer 922
destinations 922
explores 922
humour 922
policymakers 922
put@@ 922
Buffett 921
Carl 921
Example 921
GC 921
MAN 921
evaluations 921
grease 921
pardon 921
stain 921
trick@@ 921
ulations 921
&apos;seems 920
1950 920
Henan 920
Lao 920
Lewis 920
MAN@@ 920
Toronto 920
UNFICYP 920
Venus 920
alth@@ 920
campaig@@ 920
commented 920
deceive 920
ipping 920
litter 920
locality 920
molding 920
tomatoes 920
2.2 919
ALL 919
Discus@@ 919
Kal@@ 919
Sab@@ 919
Set@@ 919
TH 919
anterior 919
arent 919
catastrophe 919
laughs 919
osphere 919
rockets 919
whe@@ 919
34@@ 918
Clark 918
Noise 918
benign 918
constituencies 918
hardships 918
lawmakers 918
negatively 918
pering 918
possessions 918
squir@@ 918
Delivery 917
Saharan 917
aggre@@ 917
brokers 917
crystals 917
daddy 917
hurricane 917
idence 917
light@@ 917
occupies 917
steer 917
teenage 917
AIM 916
K. 916
Whe@@ 916
ascertain 916
comment@@ 916
concludes 916
disagreement 916
disrupt 916
enrichment 916
fa 916
formats 916
hardness 916
implicit 916
legendary 916
searches 916
subsection 916
subsidi@@ 916
Georgian 915
cater 915
gating 915
ishness 915
metaphor 915
puzz@@ 915
Establishing 914
Friendship 914
capitalist 914
cell@@ 914
costume 914
harness 914
mutation 914
needing 914
poc@@ 914
rotary 914
stiffness 914
train@@ 914
HR@@ 913
NP@@ 913
achi@@ 913
broadband 913
bushes 913
coaches 913
fractures 913
glob@@ 913
hurting 913
instituted 913
nes 913
otherapy 913
porcelain 913
posters 913
sque@@ 913
Brun@@ 912
Leone 912
Tan@@ 912
V. 912
ake@@ 912
anth@@ 912
beats 912
boosting 912
contradictions 912
expire 912
groom 912
interviewer 912
pense 912
plur@@ 912
pronunciation 912
17th 911
Commit@@ 911
Da 911
Div@@ 911
Peking 911
academics 911
cognition 911
deferred 911
dividends 911
ethylene 911
excav@@ 911
legislature 911
populated 911
textbook 911
tour@@ 911
virtues 911
Lai 910
Tari@@ 910
conspiracy 910
cooler 910
favoured 910
flir@@ 910
functionality 910
handing 910
incumbent 910
internation@@ 910
popularization 910
ses@@ 910
shiny 910
slaughter 910
s锛 910
watercourse 910
Paul@@ 909
Violence 909
adver@@ 909
baked 909
clan 909
coarse 909
gent@@ 909
ili 909
illes 909
produc@@ 909
remembering 909
struction 909
uneasy 909
--------------------------------@@ 908
Qi 908
cooled 908
haz@@ 908
hostility 908
interven@@ 908
lum@@ 908
retali@@ 908
wagon 908
Beautiful 907
aka 907
akin 907
defender 907
eye@@ 907
hec@@ 907
liter@@ 907
nineteen 907
plex@@ 907
psycho@@ 907
punishments 907
supersti@@ 907
whit@@ 907
Airlines 906
Fang 906
Industries 906
Suc@@ 906
WOR@@ 906
ambulance 906
consular 906
gracious 906
nationally 906
raid 906
recei@@ 906
slightest 906
--the 905
27.@@ 905
Gao 905
HR 905
Russians 905
adsorption 905
aren@@ 905
calibr@@ 905
detrimental 905
marrow 905
sep@@ 905
AG 904
Envoy 904
Sale 904
Senegal 904
again@@ 904
compatriots 904
entail 904
fluor@@ 904
generosity 904
pretext 904
reconnaissance 904
tle@@ 904
Hear@@ 903
Turning 903
coincidence 903
fluctu@@ 903
gie 903
ive 903
kissing 903
radial 903
repeating 903
sanctuary 903
unwanted 903
Ellen 902
Flight 902
Hur@@ 902
Marxist 902
apartments 902
chari@@ 902
corne@@ 902
discourage 902
dless 902
madam 902
meaningless 902
pill 902
prestige 902
sors 902
Assist 901
Bell 901
Coca 901
Kwai 901
Procurement 901
Term 901
aux 901
bom@@ 901
buck 901
dos 901
drowned 901
feren@@ 901
grum@@ 901
heroic 901
issu@@ 901
proposing 901
tele@@ 901
thrive 901
unpaid 901
Hung 900
Lots 900
Qatar 900
SON 900
accuse 900
ambi@@ 900
cid@@ 900
coatings 900
e.g 900
employs 900
four@@ 900
ity.@@ 900
pedestrian 900
rejoice 900
vern@@ 900
122 899
Amazon 899
Bad@@ 899
CH 899
Gon@@ 899
Providing 899
elial 899
farm@@ 899
fearful 899
federation 899
prosecutor 899
rang@@ 899
slip@@ 899
weep 899
Babylon 898
Emily 898
Establish 898
Mining 898
NA@@ 898
Treas@@ 898
accumulate 898
adly 898
arrears 898
discharging 898
etry 898
fibro@@ 898
ogram 898
splitting 898
supervised 898
temples 898
Entry 897
Jiabao 897
Karen 897
character@@ 897
dow 897
ensi@@ 897
fools 897
melancholy 897
polished 897
treasury 897
vet 897
1971 896
Journ@@ 896
Ling 896
Nas@@ 896
PI 896
Tour 896
Wide 896
amateur 896
annoying 896
cann@@ 896
cast@@ 896
clamation 896
emotionally 896
flourish 896
limb 896
median 896
resemble 896
stic@@ 896
wary 896
35@@ 895
Beg@@ 895
Kyrgyzstan 895
Ninth 895
Proce@@ 895
brightness 895
collap@@ 895
delightful 895
feather 895
impunity 895
invariably 895
pedi@@ 895
prayed 895
supplemented 895
walk@@ 895
鈥淭he 895
Update 894
b. 894
cons@@ 894
embraced 894
exile 894
halfway 894
heroin 894
overlap 894
senator 894
strained 894
vou@@ 894
70@@ 893
Fal@@ 893
Grandma 893
Jam@@ 893
Nic@@ 893
Preliminary 893
Promote 893
[...]
