我 们</w> 751657
一 个</w> 555401
他 们</w> 445201
可 以</w> 339421
问 题</w> 308534
没 有</w> 300110
国 家</w> 282861
工 作</w> 254323
进 行</w> 251127
这 些</w> 246550
1 9 242895
发 展</w> 238961
这 个</w> 237299
中 国</w> 226941
政 府</w> 226265
自 己</w> 219145
什 么</w> 219004
公 司</w> 209745
可 能</w> 208779
如 果</w> 200403
提 供</w> 189569
研 究</w> 187797
需 要</w> 185232
19 9 177866
经 济</w> 171974
组 织</w> 167867
因 为</w> 167486
委 员 165792
委员 会</w> 165141
已 经</w> 164590
方 面</w> 160157
通 过</w> 159610
国 际</w> 159020
有 关</w> 155905
一 些</w> 154395
其 他</w> 153473
但 是</w> 153108
美 国</w> 150253
会 议</w> 148358
知 道</w> 147420
社 会</w> 146653
所 有</w> 146543
重 要</w> 145181
认 为</w> 144904
必 须</w> 144859
以 及</w> 143764
不 是</w> 141559
时 间</w> 141111
系 统</w> 140379
这 种</w> 140331
情 况</w> 137991
方 法</w> 136403
0 0 135832
使 用</w> 135643
联 合 135149
一 种</w> 134703
现 在</w> 134244
就 是</w> 128524
影 响</w> 128265
时 候</w> 126605
技 术</w> 126454
世 界</w> 122509
机 构</w> 121629
开 始</w> 120835
联合 国</w> 120775
包 括</w> 120464
这 样</w> 120057
活 动</w> 120033
部 分</w> 115272
安 全</w> 113890
管 理</w> 112788
人 员</w> 112770
任 何</w> 112124
报 告</w> 111712
关 于</w> 111165
主 要</w> 109383
或 者</w> 109032
计 划</w> 107695
提 出</w> 106755
生 活</w> 105895
规 定</w> 105272
合 作</w> 102887
表 示</w> 102468
你 们</w> 101911
特 别</w> 101812
决 定</w> 101808
服 务</w> 101689
不 能</w> 100988
要 求</w> 100726
行 动</w> 100601
希 望</w> 98466
许 多</w> 95778
企 业</w> 94980
地 区</w> 94465
方 案</w> 94447
作 为</w> 94151
人 们</w> 94085
2 00 94022
项 目</w> 93120
成 为</w> 92299
执 行</w> 91887
关 系</w> 91232
它 们</w> 91096
应 该</w> 91087
不 同</w> 89880
不 会</w> 88757
得 到</w> 88314
因 此</w> 87854
分 析</w> 87754
市 场</w> 87170
根 据</w> 85168
先 生</w> 84737
非 常</w> 83549
之 间</w> 83396
孩 子</w> 83121
那 些</w> 83047
发 生</w> 82533
建 议</w> 82127
继 续</w> 81894
能 够</w> 81787
环 境</w> 81706
作 用</w> 81165
正 在</w> 80893
地 方</w> 80849
发 现</w> 80641
努 力</w> 79833
由 于</w> 79514
起 来</w> 79508
支 持</w> 79229
具 有</w> 79165
方 式</w> 78756
同 时</w> 78357
建 立</w> 77762
能 力</w> 77100
和 平</w> 76273
部 门</w> 76253
设 计</w> 74716
而 且</w> 74307
0 0</w> 73920
教 育</w> 73876
为 了</w> 73791
措 施</w> 73722
一 样</w> 73345
产 品</w> 73175
目 前</w> 72759
处 理</w> 72623
喜 欢</w> 72456
对 于</w> 72409
主 义</w> 72134
目 标</w> 72072
资 源</w> 71587
美 元</w> 71509
结 果</w> 71121
目 的</w> 70517
代 表</w> 70461
增 加</w> 70323
保 护</w> 69529
如 何</w> 69528
1 0</w> 68795
一 次</w> 68519
政 策</w> 68373
人 民 68291
解 决</w> 67831
过 程</w> 67793
实 现</w> 67223
决 议</w> 67111
区 域</w> 66992
法 律</w> 66758
所 以</w> 66496
获 得</w> 66284
采 取</w> 65438
银 行</w> 65437
应 当</w> 65271
提 高</w> 65240
还 是</w> 64820
那 么</w> 64814
帮 助</w> 64757
看 到</w> 64664
资 料</w> 64369
行 为</w> 64130
中 心</w> 63933
学 生</w> 63930
一 直</w> 63348
最 后</w> 63138
告 诉</w> 63000
是 否</w> 62655
很 多</w> 62454
控 制</w> 62323
有 效</w> 62298
其 中</w> 62114
这 是</w> 61900
存 在</w> 61407
出 现</w> 61354
第 二 61335
朋 友</w> 60880
不 要</w> 60486
东 西</w> 60416
利 用</w> 60355
一 起</w> 60334
并 且</w> 59987
注 意</w> 59533
不 过</w> 59500
生 产</w> 59321
信 息</w> 59283
然 后</w> 59107
过 去</w> 59032
大 会</w> 58999
两 个</w> 58761
加 强</w> 58596
领 域</w> 58505
那 个</w> 58482
产 生</w> 58387
接 受</w> 57794
考 虑</w> 57623
一 切</w> 57333
之 一</w> 57073
投 资</w> 56720
只 是</w> 56625
基 础</w> 56561
应 用</w> 56398
选 择</w> 56205
文 件</w> 56175
结 构</w> 55824
程 序</w> 55333
条 件</w> 55189
事 会</w> 55165
妇 女</w> 55141
工 作 55042
一 定</w> 54865
一 步</w> 54666
1 2</w> 54500
香 港</w> 54319
促 进</w> 54110
人 民</w> 53882
调 查</w> 53443
今 天</w> 53260
参 加</w> 53098
文 化</w> 52863
的 话</w> 52812
还 有</w> 52794
事 情</w> 52590
之 后</w> 52479
数 据</w> 52459
讨 论</w> 52364
作 出</w> 51932
这 里</w> 51647
代 表 51495
制 度</w> 51223
全 球</w> 51153
大 学</w> 50930
只 有</w> 50795
政 治</w> 50473
原 因</w> 50211
成 功</w> 49936
来 说</w> 49816
造 成</w> 49772
增 长</w> 49420
感 到</w> 49227
受 到</w> 48881
机 会</w> 48733
各 种</w> 48664
变 化</w> 48572
标 准</w> 48430
完 全</w> 48060
觉 得</w> 48031
及 其</w> 48025
理 事会</w> 47921
完 成</w> 47780
秘 书 47526
之 前</w> 47171
取 得</w> 47141
城 市</w> 47117
期 间</w> 47099
举 行</w> 46988
权 利</w> 46869
各 国</w> 46789
一 点</w> 46402
介 绍</w> 45959
开 发</w> 45766
一 下</w> 45764
价 格</w> 45747
采 用</w> 45721
虽 然</w> 45712
减 少</w> 45554
责 任</w> 45460
出 来</w> 45446
然 而</w> 45438
表 明</w> 45327
显 示</w> 45302
办 法</w> 45268
无 法</w> 45246
我 国</w> 45143
范 围</w> 44938
任 务</w> 44811
准 备</w> 44597
了 解</w> 44574
秘书 长</w> 44570
人 类</w> 44531
严 重</w> 44463
每 个</w> 44304
一 位</w> 44214
改 变</w> 43984
进 一步</w> 43639
相 信</w> 43573
学 习</w> 43275
确 定</w> 43183
有 人</w> 43136
成 员</w> 43101
相 关</w> 43034
学 校</w> 43025
援 助</w> 43017
直 接</w> 42967
1 1</w> 42931
用 于</w> 42904
儿 童</w> 42820
参 与</w> 42749
英 语</w> 42675
行 政</w> 42619
共 和 42536
为 什么</w> 42460
持 续</w> 42457
因 素</w> 42365
健 康</w> 42245
199 4</w> 42045
2 0</w> 41629
确 保</w> 41453
主 席</w> 41402
基 本</w> 41367
有 些</w> 41265
多 数</w> 41232
保 持</w> 41229
基 金</w> 41192
如 此</w> 41177
英 国</w> 41041
贸 易</w> 41033
个 人</w> 40997
业 务</w> 40954
水 平</w> 40887
尽 管</w> 40680
本 文</w> 40563
申 请</w> 40562
必 要</w> 40541
人 权</w> 40454
导 致</w> 40354
运 动</w> 40339
怎 么</w> 40046
通 常</w> 39998
意 见</w> 39891
实 施</w> 39765
家 庭</w> 39644
价 值</w> 39510
带 来</w> 39445
最 近</w> 39408
总 统</w> 39352
治 疗</w> 39208
人 口</w> 39028
电 话</w> 38982
那 里</w> 38824
设 备</w> 38776
费 用</w> 38543
拥 有</w> 38476
第 三 38407
按 照</w> 38258
内 容</w> 38222
不 断</w> 38055
甚 至</w> 37995
整 个</w> 37873
l a 37780
质 量</w> 37769
建 设</w> 37752
下 来</w> 37683
发 展 37672
原 则</w> 37631
理 论</w> 37579
单 位</w> 37571
最 大</w> 37442
仍 然</w> 37416
比 较</w> 37184
来 自</w> 37141
一 般</w> 37139
第 一 36989
部 队</w> 36949
199 3</w> 36915
这 一</w> 36877
意 义</w> 36798
未 来</w> 36740
历 史</w> 36702
指 出</w> 36686
以 来</w> 36660
协 调</w> 36599
安 排</w> 36375
汽 车</w> 36324
负 责</w> 36298
自 由</w> 36293
武 器</w> 36258
形 式</w> 35988
总 是</w> 35977
找 到</w> 35965
代表 团</w> 35900
进 入</w> 35781
共和 国</w> 35762
网 络</w> 35704
材 料</w> 35635
也 许</w> 35570
认 识</w> 35362
欧 洲</w> 35325
几 个</w> 35290
事 务</w> 35261
说 明</w> 35220
学 家</w> 35160
中 国 35135
容 易</w> 35094
传 统</w> 35081
这 么</w> 35013
表 现</w> 34929
经 济 34918
这 项</w> 34804
似 乎</w> 34730
e r 34679
日 本</w> 34632
积 极</w> 34534
一 天</w> 34495
结 束</w> 34447
同 样</w> 34417
达 到</w> 34310
共 同</w> 34220
管 理 34192
离 开</w> 34098
经 验</w> 34093
维 持</w> 34080
保 证</w> 33939
欢 迎</w> 33718
稳 定</w> 33693
3 0</w> 33544
非 洲</w> 33541
其 它</w> 33511
事 件</w> 33484
程 度</w> 33391
最 好</w> 33350
00 0</w> 33276
资 金</w> 33210
小 时</w> 33106
工 程</w> 33033
感 觉</w> 33006
同 意</w> 32959
公 约</w> 32908
例 如</w> 32889
经 常</w> 32887
a n 32814
收 入</w> 32598
以 上</w> 32584
更 加</w> 32583
需 求</w> 32562
1 5</w> 32455
真 正</w> 32454
此 外</w> 32414
以 前</w> 32359
模 型</w> 32250
国 际 32242
5 0</w> 32232
实 际</w> 32035
改 革</w> 31918
大 量</w> 31904
探 讨</w> 31861
i n 31831
协 议</w> 31683
证 明</w> 31680
几 乎</w> 31659
改 善</w> 31656
制 定</w> 31500
出 口</w> 31472
那 样</w> 31454
比 赛</w> 31379
生 命</w> 31343
机 关</w> 31256
以 便</w> 31178
一 项</w> 31127
a r 31105
超 过</w> 31017
随 着</w> 30943
当 然</w> 30836
语 言</w> 30820
大 家</w> 30741
星 期 30655
重 新</w> 30534
才 能</w> 30491
动 物</w> 30465
别 人</w> 30381
困 难</w> 30284
一 条</w> 30187
今 年</w> 30179
适 当</w> 30116
大 多数</w> 30093
草 案</w> 30068
科 学</w> 30047
设 施</w> 30040
人 士</w> 29950
限 制</w> 29830
联 系</w> 29795
利 亚</w> 29774
全 面</w> 29762
十 分</w> 29756
形 成</w> 29610
空 间</w> 29587
交 易</w> 29570
审 查</w> 29534
员 国</w> 29457
简 单</w> 29447
斯 坦</w> 29435
法 院</w> 29393
父 亲</w> 29321
进 程</w> 29247
反 应</w> 29220
民 族</w> 29207
引 起</w> 29182
北 京</w> 29179
具 体</w> 29136
冲 突</w> 29122
中 国家</w> 29022
发展 中国家</w> 29022
计 算</w> 28964
以 下</w> 28917
压 力</w> 28897
机 制</w> 28855
强 调</w> 28849
自 然</w> 28710
愿 意</w> 28710
越 来 28627
尼 亚</w> 28596
一 份</w> 28589
设 立</w> 28455
精 神</w> 28352
某 些</w> 28304
女 人</w> 28217
医 生</w> 28184
变 得</w> 28162
尤 其</w> 28132
充 分</w> 28051
知 识</w> 28034
以 色 27988
利 益</w> 27979
地 位</w> 27950
解 释</w> 27906
关 注</w> 27902
评 价</w> 27782
计 算 27774
以 后</w> 27762
危 险</w> 27739
以色 列</w> 27700
风 险</w> 27681
社 会 27652
多 少</w> 27647
广 泛</w> 27628
状 况</w> 27575
可 是</w> 27561
土 地</w> 27464
模 式</w> 27363
专 家</w> 27356
用 户</w> 27355
基 于</w> 27344
一 年</w> 27339
组 成</w> 27317
审 议</w> 27286
行 政 27263
母 亲</w> 27259
越来 越</w> 27255
回 答</w> 27187
专 业</w> 27120
阶 段</w> 27110
批 准</w> 27090
食 物</w> 27037
鼓 励</w> 26903
意 思</w> 26856
检 查</w> 26824
真 的</w> 26802
战 略</w> 26798
世 纪</w> 26662
国 内</w> 26603
行 业</w> 26601
小 组</w> 26571
首 先</w> 26467
功 能</w> 26399
第 四 26393
0 %</w> 26379
客 户</w> 26324
选 举</w> 26311
长 期</w> 26293
理 解</w> 26279
最 终</w> 26248
避 免</w> 26212
这 次</w> 26132
谈 判</w> 26114
高 兴</w> 26091
世 界 26076
恢 复</w> 26056
罗 斯</w> 26032
至 少</w> 25978
危 机</w> 25913
官 员</w> 25908
看 见</w> 25904
发 言</w> 25850
规 划</w> 25736
拉 克</w> 25725
我 要</w> 25703
不 到</w> 25701
协 助</w> 25689
协 定</w> 25663
明 显</w> 25652
面 临</w> 25650
- -</w> 25637
细 胞</w> 25624
效 果</w> 25594
训 练</w> 25557
每 天</w> 25557
当 地</w> 25549
la s 25507
培 训</w> 25410
各 项</w> 25358
很 大</w> 25353
男 人</w> 25308
另 外</w> 25297
永 远</w> 25273
成 本</w> 25227
进 展</w> 25225
军 事</w> 25225
合 同</w> 25214
即 使</w> 25195
一 家</w> 25180
调 整</w> 25166
错 误</w> 25139
规 模</w> 25113
想 要</w> 25069
工 具</w> 25065
经 过</w> 25062
集 团</w> 25024
给 予</w> 24907
除 了</w> 24886
全 国</w> 24884
身 体</w> 24871
预 算</w> 24867
经 营</w> 24833
战 争</w> 24815
力 量</w> 24814
巨 大</w> 24798
令 人</w> 24757
良 好</w> 24739
199 5</w> 24705
怎 样</w> 24677
独 立</w> 24670
记 录</w> 24624
允 许</w> 24622
儿 子</w> 24613
工作 人员</w> 24603
服 务 24551
a n</w> 24523
金 融 24492
涉 及</w> 24476
适 用</w> 24439
投 资 24427
c las 24408
不 得</w> 24386
体 系</w> 24379
电 影</w> 24353
新 闻</w> 24300
保 障</w> 24230
双 方</w> 24132
一 致</w> 24109
承 诺</w> 24094
一 名</w> 24012
测 试</w> 24004
结 论</w> 24002
试 验</w> 23996
销 售</w> 23974
状 态</w> 23939
正 式</w> 23923
意 识</w> 23852
评 估</w> 23851
只 要</w> 23794
1 4</w> 23771
重 大</w> 23724
威 胁</w> 23724
印 度</w> 23623
发 挥</w> 23548
工 业</w> 23482
收 到</w> 23417
我 会</w> 23396
她 们</w> 23332
提 交</w> 23319
办 公 23318
女 性</w> 23301
迅 速</w> 23291
创 造</w> 23274
当 时</w> 23272
开 展</w> 23268
第 十 23249
研 究 23240
清 楚</w> 23230
条 例</w> 23201
承 认</w> 23199
速 度</w> 23154
扩 大</w> 23124
资 产</w> 23107
国 务 23105
挑 战</w> 23064
199 6</w> 23014
一 只</w> 23011
商 业</w> 22987
上 述</w> 22968
支 付</w> 22953
满 足</w> 22951
实 验</w> 22916
兴 趣</w> 22874
加 入</w> 22776
1 3</w> 22754
数 量</w> 22728
消 息</w> 22676
更 好</w> 22517
从 而</w> 22494
反 对</w> 22479
o r 22472
科 技</w> 22448
思 想</w> 22440
时 期</w> 22416
网 站</w> 22381
一 部分</w> 22333
o n 22299
正 确</w> 22293
全 部</w> 22288
2 1</w> 22286
课 程</w> 22258
声 音</w> 22249
死 亡</w> 22234
意 味 22234
生 物</w> 22218
规 则</w> 22146
故 事</w> 22138
看 看</w> 22094
结 合</w> 22093
1 6</w> 22085
2 5</w> 22077
贷 款</w> 22075
三 个</w> 22066
犯 罪</w> 22062
位 置</w> 22040
19 8 22036
听 到</w> 22007
通 知</w> 21966
十 年</w> 21961
飞 机</w> 21960
系 列</w> 21948
数 字</w> 21849
去 年</w> 21828
降 低</w> 21823
俄 罗斯</w> 21817
伊 拉克</w> 21789
父 母</w> 21781
不 仅</w> 21751
推 动</w> 21750
高 级</w> 21730
而 是</w> 21727
眼 睛</w> 21725
警 察</w> 21697
意味 着</w> 21695
符 合</w> 21693
生 产 21678
分 钟</w> 21677
1 8</w> 21673
软 件</w> 21669
他 人</w> 21614
特 点</w> 21564
针 对</w> 21537
秘 书</w> 21428
做 出</w> 21423
发 出</w> 21421
经 费</w> 21361
复 杂</w> 21339
担 心</w> 21331
食 品</w> 21313
不 再</w> 21304
性 能</w> 21287
宣 布</w> 21247
快 乐</w> 21247
亚 洲</w> 21244
难 民</w> 21176
肯 定</w> 21173
特 殊</w> 21156
观 察</w> 21118
音 乐</w> 21105
方 向</w> 21102
不 可</w> 21079
衣 服</w> 21075
下 降</w> 21063
登 记</w> 21060
将 会</w> 21031
议 程</w> 20896
效 率</w> 20895
妈 妈</w> 20852
电 脑</w> 20822
大 部分</w> 20799
经 历</w> 20778
能 源</w> 20741
制 造</w> 20735
国务 院</w> 20721
e n 20709
现 象</w> 20707
外 国</w> 20684
时 代</w> 20681
属 于</w> 20624
每 年</w> 20620
数 据 20570
有 时</w> 20563
民 主</w> 20539
反 映</w> 20530
估 计</w> 20495
事 实</w> 20493
法 国</w> 20471
联 合</w> 20459
报 道</w> 20420
关 键</w> 20412
协 商</w> 20380
这 位</w> 20341
和 华</w> 20287
o n</w> 20273
很 快</w> 20266
耶 和华</w> 20254
计 划 20235
成 立</w> 20182
当 局</w> 20181
内 部</w> 20173
物 质</w> 20145
维 护</w> 20096
实 际 20064
概 念</w> 20014
房 间</w> 19992
污 染</w> 19989
员 工</w> 19983
疾 病</w> 19853
从 事</w> 19850
房 子</w> 19820
合 理</w> 19800
现 有</w> 19798
态 度</w> 19796
现 代</w> 19780
试 图</w> 19761
拒 绝</w> 19743
理 会</w> 19734
电 子 19719
表 达</w> 19712
亿 美元</w> 19697
办公 室</w> 19684
商 品</w> 19638
观 点</w> 19627
晚 上</w> 19618
感 谢</w> 19604
农 业</w> 19567
达 成</w> 19542
特 征</w> 19509
e r</w> 19496
公 众</w> 19489
类 型</w> 19464
坚 持</w> 19443
曾 经</w> 19430
变 成</w> 19414
放 在</w> 19366
领 导</w> 19366
综 合</w> 19356
改 进</w> 19333
下 列</w> 19330
而 言</w> 19325
防 止</w> 19273
名 字</w> 19258
监 测</w> 19255
正 常</w> 19231
贡 献</w> 19225
损 失</w> 19217
竞 争</w> 19217
财 政</w> 19209
运 输</w> 19181
手 段</w> 19179
禁 止</w> 19151
在 于</w> 19134
星 期</w> 19127
再 次</w> 19103
理 由</w> 19093
仅 仅</w> 19075
投资 者</w> 19059
相 当</w> 19054
交 流</w> 19034
艺 术</w> 19030
破 坏</w> 19025
人 道 19020
经 理</w> 19015
1 9</w> 19013
领 导 18999
回 来</w> 18986
事 业</w> 18981
条 约</w> 18980
文 章</w> 18978
实 行</w> 18976
建 筑</w> 18955
于 是</w> 18931
一 件</w> 18930
中 华 18892
请 求</w> 18845
唯 一</w> 18841
明 白</w> 18812
老 师</w> 18793
助 于</w> 18776
明 确</w> 18732
不 得 18728
上 海</w> 18722
停 止</w> 18720
职 业</w> 18689
直 到</w> 18685
监 督</w> 18675
消 费 18669
1 7</w> 18644
足 够</w> 18632
安 理会</w> 18631
游 戏</w> 18625
事 处</w> 18604
分 别</w> 18582
公 民</w> 18554
电 子</w> 18539
只 能</w> 18513
处 于</w> 18491
大 约</w> 18448
年 轻</w> 18433
购 买</w> 18420
电 视</w> 18404
妻 子</w> 18389
违 反</w> 18364
咨 询</w> 18364
重 点</w> 18360
趋 势</w> 18350
义 务</w> 18309
观 察 18292
当 前</w> 18241
卫 生</w> 18194
运 行</w> 18191
美 国 18180
女 孩</w> 18177
支 助</w> 18177
学 院</w> 18176
上 帝</w> 18163
怎 么 18155
2 4</w> 18133
居 民</w> 18123
发 表</w> 18084
5 %</w> 18050
访 问</w> 18048
用 来</w> 18044
实际 上</w> 18034
使 得</w> 18005
遵 守</w> 17983
指 定</w> 17979
药 物</w> 17973
类 似</w> 17971
回 到</w> 17943
二 十 17847
金 融</w> 17845
操 作</w> 17835
身 上</w> 17832
办 事处</w> 17825
突 然</w> 17787
教 授</w> 17777
不 可 17742
消 除</w> 17733
失 去</w> 17729
社 区</w> 17726
多 年</w> 17710
植 物</w> 17700
平 衡</w> 17666
地 球</w> 17663
t i 17644
坐 在</w> 17613
尊 重</w> 17593
广 告</w> 17586
确 实</w> 17545
预 测</w> 17537
199 2</w> 17528
会 员国</w> 17520
指 导</w> 17517
面 前</w> 17503
公 共</w> 17494
事 实 17480
说 话</w> 17480
第 一</w> 17480
看 起来</w> 17466
本 身</w> 17447
联 盟</w> 17437
领 土</w> 17435
往 往</w> 17424
对 象</w> 17411
寻 找</w> 17407
缺 乏</w> 17397
主 任</w> 17322
1 0 17304
人道 主义</w> 17301
2 2</w> 17279
4 0</w> 17279
优 先</w> 17266
普 遍</w> 17244
分 子</w> 17230
打 算</w> 17214
这 儿</w> 17204
有 助于</w> 17181
有 限 17151
德 国</w> 17137
根 本</w> 17106
想 法</w> 17097
保 险</w> 17090
描 述</w> 17053
相 同</w> 17045
患 者</w> 17033
检 测</w> 17021
出 去</w> 16999
媒 体</w> 16979
重 视</w> 16938
男 孩</w> 16934
开 放</w> 16880
算 法</w> 16858
分 配</w> 16826
幸 福</w> 16818
货 物</w> 16788
快 速</w> 16775
道 路</w> 16757
医 院</w> 16747
以 为</w> 16732
是 因为</w> 16666
对 话</w> 16656
满 意</w> 16654
不 想</w> 16637
不得 不</w> 16636
工 程 16624
附 近</w> 16607
集 中</w> 16577
立 即</w> 16568
奥 运 16559
权 力</w> 16558
最 高</w> 16553
国 家 16542
作 品</w> 16507
面 对</w> 16466
环 境 16447
装 置</w> 16438
第 二</w> 16438
运 动 16437
第 一次</w> 16432
平 等</w> 16414
财 产</w> 16400
上 升</w> 16381
痛 苦</w> 16340
履 行</w> 16322
要 性</w> 16318
适 合</w> 16316
失 败</w> 16293
定 义</w> 16270
位 于</w> 16257
下 去</w> 16246
特 性</w> 16235
第二 十 16224
联 邦</w> 16206
计算 机</w> 16170
人 数</w> 16141
习 惯</w> 16141
进 口</w> 16119
工 艺</w> 16106
现 实</w> 16087
依 照</w> 16082
i c 16082
2 3</w> 16075
供 应</w> 16073
明 天</w> 16067
伦 敦</w> 16055
公 共 16041
中华 人民 16029
1 00</w> 16027
表 面</w> 16022
管 制</w> 15990
声 明</w> 15990
策 略</w> 15984
石 油</w> 15979
常 常</w> 15969
一 场</w> 15952
那 种</w> 15941
- - 15941
构 成</w> 15935
或 许</w> 15930
暴 力</w> 15914
有 权</w> 15880
或 是</w> 15874
有 着</w> 15865
统 计</w> 15862
公 开</w> 15861
动 力</w> 15855
好 像</w> 15839
本 法</w> 15822
旅 游</w> 15818
详 细</w> 15811
承 担</w> 15803
奥运 会</w> 15764
事实 上</w> 15745
建 筑 15714
资 本</w> 15708
预 防</w> 15690
教 学</w> 15655
6 0</w> 15641
紧 急</w> 15632
遇 到</w> 15609
中国 政府</w> 15604
吸 引</w> 15602
值 得</w> 15598
之 中</w> 15594
3 1</w> 15556
证 据</w> 15516
空 气</w> 15484
事 项</w> 15465
自 动</w> 15462
4 8</w> 15426
工 人</w> 15407
补 充</w> 15405
统 一</w> 15396
相 对</w> 15338
充 满</w> 15303
一 张</w> 15301
临 时</w> 15289
后 来</w> 15280
里 面</w> 15243
安 全 15228
有 点</w> 15226
来 源</w> 15171
提 到</w> 15170
成 果</w> 15170
测 量</w> 15160
控 制 15160
病 人</w> 15089
农 村</w> 15086
真 是</w> 15085
下 午</w> 15076
来 到</w> 15070
旅 行</w> 15070
还 要</w> 15056
考 试</w> 15056
计划 署</w> 15047
下 面</w> 15033
1 . 15029
制 作</w> 15014
无 论</w> 14995
上 去</w> 14989
寻 求</w> 14969
美 丽</w> 14967
1 8 14956
就 业</w> 14950
信 号</w> 14934
女 儿</w> 14912
丈 夫</w> 14904
运 用</w> 14885
一 系列</w> 14864
最 新</w> 14863
主 题</w> 14827
公 布</w> 14813
200 8</w> 14807
享 受</w> 14802
记 者</w> 14744
平 均</w> 14739
看 来</w> 14726
非 法</w> 14722
相 互</w> 14722
产 业</w> 14693
国 人</w> 14683
收 集</w> 14659
最 佳</w> 14651
律 师</w> 14619
创 新</w> 14616
确 认</w> 14615
消费 者</w> 14613
攻 击</w> 14609
司 法</w> 14594
其 实</w> 14593
包 含</w> 14586
一 旦</w> 14580
设 置</w> 14579
适 应</w> 14578
放 弃</w> 14524
之 外</w> 14520
地 点</w> 14516
各 方</w> 14490
年 代</w> 14489
科 学家</w> 14458
中华人民 共和国</w> 14458
宗 教</w> 14444
这 件</w> 14443
军 队</w> 14442
阿 拉 14436
安 装</w> 14424
举 办</w> 14417
领导 人</w> 14414
团 体</w> 14408
巴 勒 14405
交 通</w> 14379
预 计</w> 14378
那 儿</w> 14343
照 片</w> 14342
自 然 14332
手 术</w> 14331
伙 伴</w> 14330
2 6</w> 14329
正 是</w> 14327
接 触</w> 14289
2 7</w> 14280
比 例</w> 14272
日 子</w> 14256
损 害</w> 14255
过 来</w> 14250
法 规</w> 14230
教 师</w> 14226
条 款</w> 14224
框 架</w> 14223
2 0 14200
申 请 14162
日 期</w> 14161
呼 吁</w> 14153
对 此</w> 14148
打 开</w> 14137
案 件</w> 14132
为 止</w> 14124
回 家</w> 14122
不 起</w> 14107
债 务</w> 14071
技 术 14070
阅 读</w> 14053
签 署</w> 14040
连 接</w> 14031
森 林</w> 14022
看 法</w> 14021
做 法</w> 14010
民 主 13996
卫 生 13977
谢 谢</w> 13972
r o 13969
个 月</w> 13955
就 要</w> 13949
参 数</w> 13932
丰 富</w> 13928
财 务</w> 13913
不 管</w> 13905
预 期</w> 13904
想 到</w> 13901
上 面</w> 13895
人民 政府</w> 13888
保 险 13883
比 亚</w> 13878
法 庭</w> 13876
境 内</w> 13875
核 心</w> 13873
主 管 13836
2 8</w> 13831
第 五 13825
保 留</w> 13823
传 播</w> 13814
特 定</w> 13794
纽 约</w> 13784
以 外</w> 13772
天 气</w> 13750
邀 请</w> 13737
制 订</w> 13722
医 疗</w> 13709
两 种</w> 13684
局 势</w> 13684
步 骤</w> 13631
约 翰</w> 13625
背 景</w> 13615
不 错</w> 13608
家 里</w> 13608
年 度</w> 13588
部 长</w> 13567
月 份</w> 13560
显 然</w> 13552
加 以</w> 13542
伟 大</w> 13536
实 践</w> 13531
地 震</w> 13527
第 一个</w> 13513
要 是</w> 13490
基 金 13481
大 型</w> 13478
结 婚</w> 13470
性 质</w> 13456
年 来</w> 13453
进 步</w> 13425
理 想</w> 13421
角 色</w> 13417
并 非</w> 13415
发 言 13404
自 治 13394
颜 色</w> 13380
怀 疑</w> 13378
a l 13357
协 会</w> 13353
优 势</w> 13329
有限 公司</w> 13314
记 得</w> 13291
结 果 13286
加 拿 13267
障 碍</w> 13247
私 人</w> 13229
恐 怖 13200
强 烈</w> 13198
巴勒 斯坦</w> 13198
紧 张</w> 13197
注 册</w> 13177
高 度</w> 13174
及 时</w> 13155
市 场 13132
邮 件</w> 13106
警 告</w> 13106
信 息 13085
伤 害</w> 13074
该 国</w> 13040
节 目</w> 13040
不 足</w> 13037
i t 13037
定 性</w> 13033
相 应</w> 13027
西 方</w> 13016
粮 食</w> 12972
临 床</w> 12965
事 故</w> 12958
普 通</w> 12952
尝 试</w> 12952
关 心</w> 12948
工 厂</w> 12947
第四 十 12937
移 动</w> 12915
日 益</w> 12893
担 任</w> 12886
完 善</w> 12881
称 为</w> 12853
漂 亮</w> 12824
立 法</w> 12814
重 要性</w> 12809
培 养</w> 12804
信 任</w> 12802
正 如</w> 12800
途 径</w> 12788
机 场</w> 12772
专 员</w> 12760
股 票</w> 12734
更 为</w> 12691
年 轻 12685
参 考</w> 12670
留 下</w> 12666
公 平</w> 12650
e l 12643
太 阳</w> 12640
投 入</w> 12631
不 了</w> 12631
信 心</w> 12629
加 工</w> 12627
如 今</w> 12615
病 毒</w> 12610
增 强</w> 12604
到 达</w> 12591
各 地</w> 12575
有 所</w> 12571
巴 马</w> 12552
澳 大 12543
翻 译</w> 12536
提 议</w> 12532
2 9</w> 12530
修 改</w> 12529
爱 情</w> 12510
议 员</w> 12500
重 建</w> 12487
加拿 大</w> 12481
5 00</w> 12468
老 板</w> 12463
作 者</w> 12456
重 申</w> 12452
人 生</w> 12450
逐 渐</w> 12449
电 视 12432
化 学</w> 12427
今 后</w> 12419
授 权</w> 12417
完 整</w> 12411
很 少</w> 12410
终 于</w> 12406
宣 传</w> 12396
评 论</w> 12393
指 标</w> 12381
货 币</w> 12377
成 就</w> 12364
答 案</w> 12362
e s 12362
基 本 12348
体 制</w> 12347
哪 里</w> 12320
香 港 12314
几 年</w> 12311
方 便</w> 12309
共 同 12308
意 大 12304
例 子</w> 12302
顾 客</w> 12286
周 围</w> 12276
指 数</w> 12270
依 据</w> 12270
分 布</w> 12266
夫 人</w> 12253
见 到</w> 12251
奥 巴马</w> 12241
依 法</w> 12230
温 度</w> 12223
年 龄</w> 12221
. . 12216
clas s</w> 12211
职 责</w> 12210
打 击</w> 12209
竞 争 12209
为 此</w> 12205
clas s 12197
令 人 12195
工作 组</w> 12195
第三 十 12186
马 上</w> 12179
海 洋</w> 12163
另 一 12151
是 不是</w> 12140
的 确</w> 12118
保 健</w> 12107
看 着</w> 12097
年 人</w> 12079
爸 爸</w> 12044
发 布</w> 12038
应 用 12023
地 址</w> 12007
裁 军</w> 12000
证 券</w> 11997
秘 密</w> 11986
资 格</w> 11982
核 武器</w> 11974
自 我</w> 11971
角 度</w> 11942
200 7</w> 11940
旨 在</w> 11936
成 员国</w> 11934
金 属</w> 11929
房 屋</w> 11929
法 官</w> 11918
自 身</w> 11915
公 园</w> 11898
诊 断</w> 11894
19 7 11873
图 像</w> 11871
澳大 利亚</w> 11862
命 令</w> 11856
召 开</w> 11849
美 洲</w> 11842
创 建</w> 11842
西 班 11840
分 析 11837
基金 会</w> 11835
差 异</w> 11824
伊 朗</w> 11789
定 期</w> 11788
相 比</w> 11777
全 世界</w> 11774
现 代 11769
情 绪</w> 11766
决 心</w> 11765
歧 视</w> 11762
予 以</w> 11762
将 来</w> 11745
基 因</w> 11744
台 湾</w> 11733
使 用 11730
物 品</w> 11727
总 部</w> 11722
a c 11697
4 9</w> 11690
各 个</w> 11688
财 政 11686
比 如</w> 11686
礼 物</w> 11656
解 决 11599
能 性</w> 11598
否 则</w> 11595
公 路</w> 11591
各 级</w> 11581
2 . 11575
名 称</w> 11567
三 年</w> 11567
采 购</w> 11566
关 键 11564
车 辆</w> 11562
本 书</w> 11547
百 分 11541
年轻 人</w> 11537
小 姐</w> 11529
不 久</w> 11527
严 格</w> 11491
扩 散</w> 11489
距 离</w> 11473
家 人</w> 11469
西 藏</w> 11449
发 达</w> 11448
附 件</w> 11444
第 三</w> 11438
时 刻</w> 11435
相 反</w> 11433
想 象</w> 11429
国际 法</w> 11428
宪 法</w> 11418
提 升</w> 11416
赢 得</w> 11406
密 切</w> 11404
展 开</w> 11396
r i 11390
消 费</w> 11389
出 售</w> 11387
给 出</w> 11385
感 染</w> 11382
作 业</w> 11365
学 会</w> 11349
关 切</w> 11347
若 干</w> 11332
外 交 11330
女 士</w> 11312
决 策</w> 11294
宣 言</w> 11287
应 对</w> 11275
诉 讼</w> 11275
图 书 11267
有 限</w> 11266
特 派</w> 11262
专 门</w> 11257
除 非</w> 11245
等 待</w> 11229
转 移</w> 11227
兄 弟</w> 11223
投 票</w> 11213
多 么</w> 11208
西 亚</w> 11198
商 业 11191
显 著</w> 11188
运 作</w> 11177
从 来</w> 11175
男 性</w> 11169
编 制</w> 11102
昨 天</w> 11086
a t 11085
转 让</w> 11081
梦 想</w> 11074
来 看</w> 11073
200 6</w> 11067
好 处</w> 11064
前 景</w> 11056
一 块</w> 11052
怎么 样</w> 11031
工 资</w> 11017
准 则</w> 10998
互 联 10984
优 化</w> 10977
今 日</w> 10976
种 族</w> 10974
顾 问</w> 10969
期 望</w> 10959
资 助</w> 10956
检 验</w> 10949
纲 领</w> 10944
一 半</w> 10938
阿 富 10934
技 能</w> 10917
享 有</w> 10917
财 富</w> 10913
真 实</w> 10902
说 道</w> 10901
整 体</w> 10894
s p 10881
对 方</w> 10879
杂 志</w> 10873
不 用</w> 10856
意大 利</w> 10855
在 内</w> 10839
至 于</w> 10834
出 席</w> 10833
心 里</w> 10822
利 于</w> 10815
如 下</w> 10799
绝 对</w> 10798
200 5</w> 10797
标 志</w> 10776
阿富 汗</w> 10775
返 回</w> 10768
别 的</w> 10764
制 造 10763
尚 未</w> 10763
任 何 10760
团 队</w> 10756
可 能性</w> 10749
那 时</w> 10743
代 码</w> 10743
更 新</w> 10742
更 大</w> 10742
能 量</w> 10737
波 斯 10716
个 人 10714
视 为</w> 10707
上 涨</w> 10705
埃 及</w> 10701
摘 要</w> 10700
依 然</w> 10682
手 机</w> 10681
固 定</w> 10667
图书 馆</w> 10667
贫 穷</w> 10664
人 物</w> 10649
后 面</w> 10646
即 将</w> 10634
中 央</w> 10627
发言 人</w> 10619
英 文</w> 10606
开 支</w> 10604
难 以</w> 10599
这 场</w> 10595
接 近</w> 10594
交 换</w> 10592
机 器</w> 10582
缔 约 10582
全 国 10580
我 能</w> 10573
侵 犯</w> 10572
早 期</w> 10570
市 民</w> 10562
免 费</w> 10562
一 百 10549
劳 动</w> 10536
职 位</w> 10532
有 趣</w> 10523
取 消</w> 10521
报 纸</w> 10518
老 人</w> 10506
思 考</w> 10504
科 学 10500
证 实</w> 10500
结果 表明</w> 10492
种 族 10485
艺 术 10485
新 型</w> 10473
多 个</w> 10469
发 行</w> 10468
农 民</w> 10464
2 00</w> 10452
r e 10431
原 理</w> 10429
额 外</w> 10429
支 出</w> 10424
a l</w> 10421
批 评</w> 10417
动 机</w> 10416
打 电话</w> 10412
交 通 10404
葡 萄 10403
证 书</w> 10399
两 年</w> 10383
数据 库</w> 10380
后 果</w> 10378
道 德</w> 10360
本 地</w> 10356
代 理</w> 10344
消 失</w> 10334
可 靠</w> 10329
连 续</w> 10329
4 5</w> 10324
首 次</w> 10320
南 部</w> 10319
大 规模</w> 10312
流 动</w> 10300
会 儿</w> 10295
原 来</w> 10288
五 年</w> 10273
政 治 10264
组 合</w> 10263
耶 稣</w> 10251
利 率</w> 10247
少 年</w> 10245
数 目</w> 10231
人民 法院</w> 10230
这 家</w> 10214
论 文</w> 10207
酒 店</w> 10184
准 确</w> 10174
头 发</w> 10173
展 示</w> 10170
福 利</w> 10167
同 事</w> 10164
全 球 10164
保 护 10154
品 牌</w> 10152
接 着</w> 10145
4 7</w> 10142
合 适</w> 10141
左 右</w> 10138
办 理</w> 10136
遭 受</w> 10136
运动 员</w> 10135
规 范</w> 10134
分 享</w> 10133
男 子</w> 10132
中 间</w> 10130
第 六 10127
出 版</w> 10125
波斯 尼亚</w> 10124
著 名</w> 10110
对 手</w> 10103
所 谓</w> 10094
麻 烦</w> 10080
自 由 10059
用 途</w> 10039
害 怕</w> 10039
贸 易 10029
期 限</w> 10021
大 小</w> 10019
某 种</w> 10019
实 验 10015
皮 肤</w> 10014
掌 握</w> 10005
愉 快</w> 10001
立 场</w> 9995
审 计</w> 9985
刺 激</w> 9981
1 3 9965
主 管</w> 9961
生 存</w> 9949
太 太</w> 9945
主管 部门</w> 9939
化 学 9921
e s</w> 9916
缔约 国</w> 9916
国 王</w> 9911
事 物</w> 9910
药 品</w> 9909
不 好</w> 9905
回 顾</w> 9889
移 民</w> 9881
不 够</w> 9877
当 事 9875
袭 击</w> 9870
成 绩</w> 9869
早 上</w> 9863
重 复</w> 9851
部 署</w> 9847
供 应 9842
身 份</w> 9840
7 0</w> 9840
居 住</w> 9832
议 会</w> 9831
生 物 9820
追 求</w> 9816
飞 行</w> 9812
开 发 9809
少 数 9809
i l 9809
忘 记</w> 9785
商 店</w> 9785
不 幸</w> 9783
论 坛</w> 9769
显 得</w> 9757
推 广</w> 9755
含 量</w> 9751
人民 代表 9748
南 非</w> 9747
阻 止</w> 9741
独 特</w> 9740
s t 9735
所 说</w> 9732
输 入</w> 9730
日 起</w> 9727
通 讯</w> 9718
模 拟</w> 9711
到 底</w> 9703
感 兴趣</w> 9698
o l 9694
韩 国</w> 9694
大 陆</w> 9692
宪 章</w> 9689
群 体</w> 9687
许 可</w> 9678
一 段</w> 9675
旺 达</w> 9663
一 片</w> 9648
1 6 9645
卢 旺达</w> 9640
成 长</w> 9638
延 长</w> 9636
公 正</w> 9635
初 步</w> 9635
199 1</w> 9628
敌 人</w> 9622
o u 9614
强 大</w> 9613
赔 偿</w> 9599
士 兵</w> 9596
当 中</w> 9596
红 色</w> 9594
十 二 9579
卫 星</w> 9577
列 入</w> 9575
欧 盟</w> 9571
官 方</w> 9565
利 润</w> 9555
多 种</w> 9551
收 购</w> 9546
监 管</w> 9531
美 好</w> 9525
8 0</w> 9516
阐 述</w> 9513
博 士</w> 9511
随 后</w> 9511
咖 啡</w> 9503
照 顾</w> 9501
某 个</w> 9500
遗 憾</w> 9491
200 0</w> 9472
交 易 9464
元 素</w> 9450
遭 到</w> 9450
看 上去</w> 9441
体 现</w> 9429
包 装</w> 9422
拉 夫</w> 9418
汤 姆</w> 9418
社会 主义</w> 9407
循 环</w> 9401
许 可 9399
完 美</w> 9389
建 造</w> 9382
信 贷</w> 9379
假 如</w> 9379
婚 姻</w> 9372
青 年</w> 9372
应用 程序</w> 9370
工 业 9365
生 长</w> 9344
前 面</w> 9340
期 待</w> 9338
主 权</w> 9333
记 忆</w> 9324
海 外</w> 9320
气 候</w> 9320
减 轻</w> 9312
推 进</w> 9309
有 力</w> 9299
一 边</w> 9298
实 在</w> 9296
查 询</w> 9295
辩 论</w> 9279
阿 尔 9269
转 变</w> 9266
胜 利</w> 9265
知 识 9259
认 真</w> 9259
样 子</w> 9254
表 演</w> 9253
透 过</w> 9253
小 心</w> 9234
休 息</w> 9230
一 套</w> 9223
当事 人</w> 9217
已 有</w> 9215
每 次</w> 9212
表 格</w> 9211
做 到</w> 9208
现 场</w> 9202
很 难</w> 9202
形 象</w> 9201
法 律 9200
心 理</w> 9199
网 上</w> 9192
保 存</w> 9189
记 住</w> 9180
作 家</w> 9163
许可 证</w> 9163
四 个</w> 9153
立 法 9153
观察 员</w> 9150
新 闻 9136
是 从</w> 9135
机 械</w> 9120
下 跌</w> 9120
一 座</w> 9114
第 五</w> 9114
通 信</w> 9108
h a 9108
中 央 9101
3 5</w> 9091
动 作</w> 9084
讲 话</w> 9083
面 积</w> 9081
聪 明</w> 9081
近 年来</w> 9076
互联 网</w> 9061
今 晚</w> 9051
小 说</w> 9046
同 一</w> 9042
流 行</w> 9008
获 取</w> 9007
测 定</w> 9006
现 金</w> 9006
地 图</w> 9005
受 害 9004
外 交</w> 9001
判 断</w> 9001
200 4</w> 9000
国 会</w> 8995
圣 诞 8992
罪 行</w> 8991
1 5 8988
风 格</w> 8987
之 下</w> 8979
七 条</w> 8977
具 备</w> 8976
效 应</w> 8971
人民 币</w> 8971
有 用</w> 8970
199 0</w> 8970
感 受</w> 8956
彼 此</w> 8944
因 而</w> 8941
首 脑</w> 8939
做 好</w> 8926
地 上</w> 8922
航 空 8919
首 席</w> 8913
无 论 8912
修 订</w> 8905
亲 爱</w> 8896
巴 基 8889
最 初</w> 8884
国 外</w> 8881
动 态</w> 8870
彻 底</w> 8870
释 放</w> 8867
设 法</w> 8865
识 别</w> 8865
引 发</w> 8862
绿 色</w> 8860
任何 人</w> 8858
婴 儿</w> 8856
姑 娘</w> 8851
文 明</w> 8836
少数 民族</w> 8833
长 时间</w> 8832
路 上</w> 8824
鉴 于</w> 8821
对 待</w> 8812
出 生</w> 8802
有 利于</w> 8793
自治 区</w> 8788
像 是</w> 8786
I n 8782
发 明</w> 8766
潜 在</w> 8765
地 产</w> 8763
处 罚</w> 8747
危 害</w> 8746
体 育 8739
毫 无 8737
突 出</w> 8733
1 7 8725
氧 化 8717
付 款</w> 8716
混 合</w> 8709
4 . 8702
零 零 8700
合 物</w> 8699
一 生</w> 8692
不 少</w> 8686
所 述</w> 8682
贫 困</w> 8682
品 质</w> 8666
合 并</w> 8665
灾 害</w> 8653
恐怖 主义</w> 8650
技 巧</w> 8639
sp an</w> 8636
未 能</w> 8630
感 情</w> 8624
验 证</w> 8620
所 有人</w> 8614
人 才</w> 8613
平 台</w> 8605
秩 序</w> 8602
阳 光</w> 8599
场 所</w> 8598
武 装</w> 8594
助 理</w> 8577
这 时</w> 8573
火 车</w> 8569
九 条</w> 8566
分 之一</w> 8566
大 脑</w> 8563
那 位</w> 8554
斗 争</w> 8551
探 索</w> 8550
各 自</w> 8533
加 上</w> 8510
燃 料</w> 8509
伊 斯 8504
一 会儿</w> 8503
穿 着</w> 8490
巴基 斯坦</w> 8482
全 体</w> 8478
关 闭</w> 8477
提 醒</w> 8474
3 . 8474
俱 乐 8471
前 往</w> 8467
决 于</w> 8466
华 盛 8463
段 时间</w> 8459
其 他人</w> 8457
取 决于</w> 8454
几 天</w> 8446
选 人</w> 8440
俱乐 部</w> 8433
信 用 8429
内 地</w> 8421
配 置</w> 8421
体 育</w> 8418
说 法</w> 8418
指 示</w> 8418
依 赖</w> 8414
主 人</w> 8413
负 担</w> 8413
不 安</w> 8411
多 样 8407
总 理</w> 8407
采 取 8405
渴 望</w> 8399
总 结</w> 8391
分 类</w> 8389
力 于</w> 8381
希 腊</w> 8376
常 见</w> 8373
身 边</w> 8370
推 出</w> 8363
恐 惧</w> 8360
函 数</w> 8359
富 有</w> 8357
致 力于</w> 8357
小 型</w> 8356
灵 魂</w> 8352
有 没有</w> 8348
有 效 8332
3 2</w> 8329
特 别 8327
收 益</w> 8324
一 句</w> 8323
刚 刚</w> 8318
分 离</w> 8317
周 末</w> 8310
强 度</w> 8309
本 人</w> 8308
拟 订</w> 8308
成 熟</w> 8304
细 节</w> 8298
战 斗</w> 8292
地 面</w> 8291
统 计 8288
历 史 8278
债 券</w> 8259
得 以</w> 8257
微 笑</w> 8257
斯 拉夫</w> 8254
罚 款</w> 8252
马 里</w> 8247
智 慧</w> 8246
极 大</w> 8245
.. .</w> 8243
听 说</w> 8242
成 分</w> 8235
警 方</w> 8234
球 队</w> 8226
单 独</w> 8224
多 边</w> 8222
海 地</w> 8221
0 . 8221
外 部</w> 8216
产 权</w> 8213
黑 暗</w> 8213
受 伤</w> 8197
劳 动 8183
非 常 8178
海 关</w> 8169
典 型</w> 8167
合 法</w> 8162
热 情</w> 8160
最 低</w> 8149
务 员</w> 8148
性 别</w> 8146
加 快</w> 8138
公 里</w> 8137
候 选人</w> 8133
一 道</w> 8132
自 愿</w> 8132
抓 住</w> 8126
深 入</w> 8125
练 习</w> 8123
争 议</w> 8123
信 仰</w> 8121
南 斯拉夫</w> 8118
墨 西 8118
l e 8113
气 体</w> 8111
演 员</w> 8088
谈 话</w> 8082
配 合</w> 8081
繁 荣</w> 8074
可 怕</w> 8069
少 数</w> 8068
现代 化</w> 8067
朝 鲜</w> 8065
西班 牙</w> 8063
中 文</w> 8059
友 好</w> 8058
等 等</w> 8056
自 从</w> 8051
编 写</w> 8050
t h 8043
添 加</w> 8038
人 群</w> 8029
西 部</w> 8027
克 斯</w> 8025
格 兰</w> 8025
革 命</w> 8018
阿拉 伯</w> 8016
神 经 8009
3 3</w> 8009
雇 员</w> 8005
边 界</w> 8002
200 9</w> 7997
a m 7996
疑 问</w> 7995
含 有</w> 7990
熟 悉</w> 7988
听 见</w> 7982
仲 裁</w> 7976
筹 备</w> 7975
9 0</w> 7971
先 进</w> 7966
在 线</w> 7965
慢 慢</w> 7965
报 告 7964
哪 些</w> 7962
名 单</w> 7961
倾 向</w> 7942
会 谈</w> 7940
外 面</w> 7938
救 济</w> 7938
废 物</w> 7937
巴 黎</w> 7934
职 务</w> 7933
扩 展</w> 7933
不 必</w> 7932
委 会</w> 7929
这 份</w> 7926
二 零零 7912
审 判</w> 7908
铁 路</w> 7904
刑 事</w> 7902
庆 祝</w> 7899
启 动</w> 7891
心 理 7889
观 念</w> 7888
哪 儿</w> 7888
持 有</w> 7877
主 动</w> 7865
糟 糕</w> 7864
制 品</w> 7861
四 条</w> 7856
o o 7852
4 6</w> 7845
进 来</w> 7838
行 使</w> 7838
形 势</w> 7837
2 %</w> 7833
恶 化</w> 7828
三 条</w> 7824
指 控</w> 7821
精 神 7818
较 大</w> 7811
支 援</w> 7807
行 车</w> 7801
航 空</w> 7800
玻 璃</w> 7798
教 堂</w> 7795
同 学</w> 7786
效 益</w> 7786
与 其</w> 7786
缺 陷</w> 7783
那 天</w> 7782
应 付</w> 7776
所 在</w> 7770
能 否</w> 7753
会 计</w> 7748
规 律</w> 7745
家 伙</w> 7736
积 极 7734
版 本</w> 7728
环 保</w> 7727
所 得</w> 7726
排 放</w> 7717
苏 丹</w> 7716
白 色</w> 7715
实验 室</w> 7709
文 字</w> 7708
北 部</w> 7686
沟 通</w> 7682
生 态 7681
民 族 7680
i s 7678
不 见</w> 7677
权 益</w> 7669
内 外</w> 7666
八 条</w> 7666
小 孩</w> 7663
监 狱</w> 7655
有 时候</w> 7654
纤 维</w> 7653
争 取</w> 7639
环境 保护</w> 7630
生 育</w> 7624
立 刻</w> 7623
检 察 7620
股 市</w> 7617
核 查</w> 7617
天 空</w> 7612
优 秀</w> 7608
1 %</w> 7603
意 外</w> 7599
提 案</w> 7598
出 版 7593
青 少年</w> 7590
补 偿</w> 7587
抱 歉</w> 7585
现 状</w> 7582
o m 7581
持 久</w> 7580
对 不起</w> 7576
号 码</w> 7575
文 学</w> 7571
刑 事 7571
建 设 7556
维 亚</w> 7548
有 个</w> 7546
尔 斯</w> 7546
产 量</w> 7544
清 洁</w> 7542
足 以</w> 7541
吸 收</w> 7537
地 说</w> 7536
英 里</w> 7533
联 络</w> 7528
服务 器</w> 7520
随 时</w> 7519
观 众</w> 7512
可 行</w> 7494
布 什</w> 7493
任 命</w> 7493
华盛 顿</w> 7493
逐 步</w> 7492
人 力 7490
3 6</w> 7489
与 此 7484
申请 人</w> 7484
始 终</w> 7478
上 午</w> 7476
基 地</w> 7475
球 员</w> 7471
生 态</w> 7466
公 务员</w> 7463
从 未</w> 7457
欧 洲 7456
不 愿</w> 7454
仔 细</w> 7453
主 张</w> 7451
格 式</w> 7450
合 成</w> 7441
得 出</w> 7437
建筑 物</w> 7427
数 额</w> 7417
毕 业</w> 7413
a s 7407
罗 马</w> 7406
尽 可能</w> 7406
担 忧</w> 7406
观察 团</w> 7393
文 书</w> 7392
网 页</w> 7391
制 裁</w> 7391
住 房</w> 7390
新 加 7384
转 换</w> 7383
活 性</w> 7382
共 有</w> 7374
集 体</w> 7371
中 有</w> 7369
情 形</w> 7369
区 别</w> 7365
奇 怪</w> 7361
本 国</w> 7358
某 人</w> 7353
大 卫</w> 7345
依 靠</w> 7343
研究 所</w> 7343
周 期</w> 7342
纪 录</w> 7329
属 性</w> 7325
爆 炸</w> 7322
生 意</w> 7321
和 谐</w> 7313
资 讯</w> 7313
旅 游 7312
出 发</w> 7311
形 态</w> 7308
维 修</w> 7308
C h 7306
敦 促</w> 7299
参 观</w> 7297
神 经</w> 7291
毒 品</w> 7280
苹 果</w> 7279
下 载</w> 7278
杰 克</w> 7272
难 道</w> 7271
c h 7270
特别 行政 7268
互 相</w> 7263
至 关 7258
斯 特</w> 7253
特 色</w> 7250
阻 碍</w> 7246
促 使</w> 7243
为 何</w> 7241
4 1</w> 7241
取 代</w> 7240
他 会</w> 7239
早 晨</w> 7231
英 译 7222
视 频</w> 7207
力 学</w> 7207
论 述</w> 7204
呼 吸</w> 7204
有 利</w> 7200
事 务 7197
199 7</w> 7197
受害 者</w> 7195
抱 怨</w> 7192
退 休</w> 7191
点 儿</w> 7191
失 望</w> 7190
矛 盾</w> 7189
原 子 7186
5 1</w> 7186
索 马里</w> 7185
基 础 7181
存 款</w> 7180
音 乐 7177
e t 7176
实 体</w> 7175
客 人</w> 7172
至关 重要</w> 7170
克 服</w> 7166
印 度 7157
和 解</w> 7153
认 可</w> 7153
系 统 7152
刚 才</w> 7140
脸 上</w> 7139
放 松</w> 7136
敏 感</w> 7135
执 行 7134
削 减</w> 7132
生 效</w> 7130
2 6 7127
却 是</w> 7118
一 般 7113
答 复</w> 7112
i n</w> 7112
邮 票</w> 7105
分 为</w> 7097
医 学</w> 7091
万 美元</w> 7087
想 起</w> 7084
S t 7078
3 4</w> 7077
睡 觉</w> 7076
博 物 7075
回 应</w> 7070
装 备</w> 7070
此 类</w> 7069
愿 望</w> 7067
治 理</w> 7062
陷 入</w> 7057
推 行</w> 7055
和 政</w> 7046
夏 天</w> 7045
三 十 7044
不 利</w> 7042
花 费</w> 7041
进 去</w> 7040
奥 运</w> 7031
低 于</w> 7030
气 候 7027
众 多</w> 7027
相 互 7026
代 价</w> 7015
到 来</w> 7012
英译 汉</w> 7010
设 计 7005
立法 会</w> 6995
多 次</w> 6993
相 似</w> 6992
4 %</w> 6992
种 类</w> 6986
激 烈</w> 6985
太 平 6982
局 长</w> 6978
船 舶</w> 6974
高 等 6968
大 楼</w> 6967
带 有</w> 6965
会 员</w> 6965
旁 边</w> 6960
4 2</w> 6952
明 年</w> 6948
饮 食</w> 6945
命 运</w> 6944
自 行车</w> 6943
捐 助</w> 6942
占 领</w> 6937
惩 罚</w> 6934
一 部</w> 6933
清 单</w> 6933
一 辆</w> 6924
尽 量</w> 6917
数 学</w> 6910
加 速</w> 6906
u r 6905
桌 子</w> 6905
生 成</w> 6900
过 渡</w> 6899
暂 时</w> 6899
短 期</w> 6896
4 4</w> 6894
巴 西</w> 6891
倡 议</w> 6891
好 好</w> 6887
博物 馆</w> 6887
搜 索</w> 6884
学 者</w> 6879
3 00</w> 6878
毫 无</w> 6875
走 进</w> 6870
不 论</w> 6842
网 络 6842
落 实</w> 6839
情 感</w> 6839
用 品</w> 6838
股 东</w> 6834
异 常</w> 6833
简 直</w> 6833
充 分 6831
演 讲</w> 6830
构 建</w> 6829
谈 论</w> 6823
蛋 白</w> 6823
与此 同时</w> 6822
花 园</w> 6821
汇 率</w> 6818
3 %</w> 6817
失 业</w> 6810
仪 式</w> 6809
主 意</w> 6807
未 经</w> 6799
引 导</w> 6794
商 务</w> 6793
营 养</w> 6790
极 为</w> 6786
自 治</w> 6782
负 责 6782
职 工</w> 6779
更 改</w> 6777
线 性</w> 6774
浪 费</w> 6769
抑 制</w> 6760
教 育 6759
中 东</w> 6756
大 概</w> 6756
主 持</w> 6755
编 辑</w> 6755
穿 过</w> 6753
逻 辑</w> 6750
职 能</w> 6745
基 督 6738
尽 快</w> 6737
英 语 6736
此 次</w> 6733
游 客</w> 6733
译 文</w> 6727
潜 力</w> 6726
如 同</w> 6722
分 区</w> 6712
工程 师</w> 6709
深 刻</w> 6708
以 往</w> 6707
产 品 6707
3 7</w> 6705
核 准</w> 6705
住 宅</w> 6705
施 工</w> 6702
损 伤</w> 6701
季 度</w> 6699
纳 入</w> 6697
一 周</w> 6696
200 3</w> 6696
雇 主</w> 6695
经 营 6688
四 年</w> 6688
学 位</w> 6685
融 资</w> 6673
仿 真</w> 6671
收 费</w> 6669
不 多</w> 6665
顺 利</w> 6659
股 份</w> 6654
膨 胀</w> 6654
邮 政</w> 6650
证 券 6649
-- -- 6649
银 行 6647
土 壤</w> 6635
提 取</w> 6629
破 产</w> 6629
综 合 6626
机 器 6625
印 象</w> 6624
创 作</w> 6618
监 督 6614
新加 坡</w> 6607
活 力</w> 6604
民 众</w> 6604
企 业 6603
资 讯 6601
终 止</w> 6601
书 面</w> 6598
生 气</w> 6593
传 递</w> 6591
中 期</w> 6590
委 员</w> 6588
心 中</w> 6587
衰 退</w> 6585
克 罗 6582
金 钱</w> 6581
灾 难</w> 6578
爆 发</w> 6576
空 中</w> 6568
队 伍</w> 6559
争 论</w> 6557
3 8</w> 6552
忽 视</w> 6551
e n</w> 6547
合 作 6544
垃 圾</w> 6544
干 预</w> 6543
睡 眠</w> 6539
气候 变化</w> 6535
可 怜</w> 6533
平 民</w> 6532
每 月</w> 6525
输 出</w> 6516
太 阳 6516
图 片</w> 6513
走 向</w> 6509
军 事 6506
定 书</w> 6502
合 法 6499
幸 运</w> 6495
轻 松</w> 6494
古 巴</w> 6493
读 者</w> 6491
8 %</w> 6485
创 造 6478
一 个 6475
家 庭 6470
谴 责</w> 6470
专 门 6467
报告 员</w> 6464
回 去</w> 6463
4 3</w> 6461
墨西 哥</w> 6456
之 内</w> 6455
付 出</w> 6455
护 理</w> 6454
房 地产</w> 6454
a ti 6450
19 6 6446
起 诉</w> 6442
友 谊</w> 6433
对 比</w> 6431
导 弹</w> 6428
响 应</w> 6425
声 称</w> 6423
员 额</w> 6422
5 . 6420
质 性</w> 6417
司 机</w> 6411
纪 念</w> 6411
日 常</w> 6410
赞 成</w> 6410
可 爱</w> 6403
万 元</w> 6399
大 幅</w> 6381
边 缘</w> 6381
这 座</w> 6381
高 于</w> 6380
董 事会</w> 6378
注 意 6376
双 边</w> 6375
假 设</w> 6375
玛 丽</w> 6372
黑 色</w> 6364
专 利</w> 6364
销 售 6363
表 决</w> 6362
形 状</w> 6360
蓝 色</w> 6358
上 周</w> 6358
前 进</w> 6357
乐 观</w> 6352
长 官</w> 6349
覆 盖</w> 6348
电 话 6345
迹 象</w> 6345
7 %</w> 6344
企 图</w> 6343
人 体</w> 6340
症 状</w> 6336
医 疗 6332
团 结</w> 6330
坚 定</w> 6328
至 今</w> 6327
讨 厌</w> 6325
第二 天</w> 6324
一 支</w> 6308
而 已</w> 6305
修 复</w> 6304
对 外</w> 6302
锻 炼</w> 6300
一 段时间</w> 6297
稳 定性</w> 6297
极 其</w> 6292
制 备</w> 6287
采 访</w> 6287
人民代表 大会</w> 6284
一 面</w> 6281
发 射</w> 6280
似 的</w> 6279
话 题</w> 6273
文 本</w> 6272
文 化 6270
赋 予</w> 6266
委 托</w> 6265
赞 赏</w> 6264
目 录</w> 6262
缺 少</w> 6259
大 大</w> 6253
足 球</w> 6248
推 荐</w> 6247
电 力</w> 6244
服 装</w> 6236
实 例</w> 6230
责 任 6228
体 验</w> 6224
最 为</w> 6223
一 日</w> 6221
辐 射</w> 6212
存 储</w> 6207
代 替</w> 6204
有 机</w> 6199
吃 饭</w> 6198
资讯 科技</w> 6198
不 知</w> 6191
人力 资源</w> 6191
群 众</w> 6190
不 仅仅</w> 6189
度 过</w> 6189
本 来</w> 6187
职 业 6187
谨 慎</w> 6187
冠 军</w> 6185
浏 览</w> 6185
自 信</w> 6182
血 管</w> 6182
残 疾 6181
常 用</w> 6181
出 于</w> 6180
劳 工</w> 6179
引 力</w> 6179
物 理</w> 6178
统 治</w> 6173
石 头</w> 6170
愤 怒</w> 6167
写 作</w> 6163
手 中</w> 6161
什 么 6160
经济 学家</w> 6159
过 度</w> 6158
捐 款</w> 6152
总 额</w> 6148
和 平 6145
干 扰</w> 6144
到 处</w> 6144
调 节</w> 6143
各 类</w> 6142
货 币 6139
中 方</w> 6135
既 然</w> 6133
欣 赏</w> 6131
五 条</w> 6129
第二 个</w> 6125
国 民</w> 6123
职 员</w> 6119
后 续</w> 6113
议 定书</w> 6110
流 程</w> 6109
有 益</w> 6106
合 约</w> 6101
什么 样</w> 6093
子 女</w> 6090
防 治</w> 6086
一 群</w> 6085
开 心</w> 6079
影 片</w> 6078
第 四</w> 6075
跟 踪</w> 6071
开 车</w> 6070
巴 嫩</w> 6070
层 次</w> 6069
3 9</w> 6068
定 位</w> 6061
u n 6057
200 1</w> 6054
关 联</w> 6048
拘 留</w> 6046
匹 配</w> 6045
一 九 6043
过 于</w> 6043
气 氛</w> 6042
外 国人</w> 6042
改 造</w> 6041
餐 厅</w> 6038
聚 会</w> 6037
勇 气</w> 6037
管 辖</w> 6035
冲 击</w> 6034
心 情</w> 6033
心 灵</w> 6031
总 体</w> 6027
7 . 6026
海 岸</w> 6021
句 子</w> 6021
本 周</w> 6020
代 理 6016
女 子</w> 6016
古 老</w> 6013
领 袖</w> 6013
地 雷</w> 6005
优 点</w> 6004
精 力</w> 6003
门 口</w> 6003
便 宜</w> 6002
兴 奋</w> 6000
接 下来</w> 6000
各 位</w> 5990
安 哥 5990
承 受</w> 5985
频 率</w> 5983
5 2</w> 5981
机器 人</w> 5981
难 以 5979
处 理 5968
还 会</w> 5968
广 播</w> 5967
制造 商</w> 5964
判 决</w> 5962
调 查 5958
约 会</w> 5957
燃 烧</w> 5955
这 部</w> 5954
安哥 拉</w> 5952
替 代</w> 5949
逮 捕</w> 5949
意 愿</w> 5947
喜 爱</w> 5946
私 营</w> 5944
电 路</w> 5943
知识 产权</w> 5943
旅 客</w> 5941
供应 商</w> 5938
黎 巴嫩</w> 5937
咱 们</w> 5936
故 障</w> 5933
思 维</w> 5932
之 日起</w> 5931
游 泳</w> 5931
差 距</w> 5924
里 亚</w> 5922
方 针</w> 5922
出 色</w> 5919
克 尔</w> 5917
爱 尔 5915
剩 下</w> 5915
年 底</w> 5913
留 在</w> 5911
恐 怕</w> 5908
担 保</w> 5908
组 成 5906
组成 部分</w> 5906
一 把</w> 5901
无 疑</w> 5899
地 亚</w> 5898
六 条</w> 5897
一 大 5896
会 计 5896
赞 扬</w> 5896
两 次</w> 5890
其 次</w> 5879
待 遇</w> 5879
删 除</w> 5878
另一 方面</w> 5875
沿 着</w> 5873
自 动 5868
in g</w> 5866
没 什么</w> 5865
旅 馆</w> 5860
尺 寸</w> 5860
艾 滋 5858
困 境</w> 5853
太平 洋</w> 5853
上 市</w> 5851
衡 量</w> 5850
流 感</w> 5849
一 月</w> 5846
理 性</w> 5846
词 汇</w> 5845
巩 固</w> 5844
面 包</w> 5840
必 然</w> 5840
百 万</w> 5831
模 糊</w> 5829
全球 化</w> 5825
克罗 地亚</w> 5825
一 本</w> 5823
专 业 5823
l e</w> 5821
心 脏</w> 5816
肿 瘤</w> 5815
百分 之 5808
再 也</w> 5807
哪 个</w> 5806
计算 机 5801
否 认</w> 5799
选 民</w> 5795
为 主</w> 5791
交 给</w> 5789
夫 妇</w> 5789
修 正</w> 5787
疗 效</w> 5786
品 种</w> 5780
王 国</w> 5779
实 质性</w> 5775
两 人</w> 5774
每 周</w> 5769
隔 离</w> 5767
艰 难</w> 5765
水 果</w> 5764
可 用</w> 5763
电 池</w> 5763
土 耳 5762
地 理</w> 5762
诸 如</w> 5759
应 力</w> 5755
法 案</w> 5744
当 作</w> 5741
信 托</w> 5738
a d 5738
6 %</w> 5738
吸 烟</w> 5737
混 乱</w> 5735
学 科</w> 5730
操 作 5719
色 彩</w> 5717
储 存</w> 5711
我 方</w> 5708
装 饰</w> 5703
舒 适</w> 5703
精 确</w> 5701
泰 国</w> 5697
个 别</w> 5697
电子 邮件</w> 5690
原 料</w> 5686
负责 人</w> 5682
牛 奶</w> 5677
通 道</w> 5675
赞 同</w> 5674
源 于</w> 5667
玩 具</w> 5667
英 镑</w> 5666
从 不</w> 5665
本 质</w> 5664
究 竟</w> 5660
密 度</w> 5655
4 00</w> 5654
5 5</w> 5649
城 市 5644
共 产 5639
混 凝 5638
感 器</w> 5638
极 端</w> 5636
增 长 5635
智 能</w> 5634
教 学 5634
诚 实</w> 5631
对 抗</w> 5627
档 案</w> 5627
瑞 士</w> 5624
不 停</w> 5623
蔬 菜</w> 5623
旋 转</w> 5616
抵 押</w> 5615
派 遣</w> 5613
感 激</w> 5612
作 物</w> 5611
大 学生</w> 5608
摆 脱</w> 5600
英 尺</w> 5597
非 正式</w> 5595
转 向</w> 5594
津 贴</w> 5593
惊 讶</w> 5593
轨 道</w> 5584
部 件</w> 5582
争 端</w> 5581
上 诉</w> 5579
特别行政 区</w> 5575
常 务 5573
内 心</w> 5565
教 训</w> 5563
毕 业 5562
解决 方案</w> 5556
物 体</w> 5553
寿 命</w> 5552
受 欢迎</w> 5547
国 民 5541
谈 到</w> 5540
储 备</w> 5540
注意 力</w> 5540
残疾 人</w> 5540
央 行</w> 5537
将 要</w> 5535
被 告</w> 5534
一 个月</w> 5524
截 至</w> 5521
哲 学</w> 5520
不 良</w> 5516
通 货 5515
商 标</w> 5511
将 军</w> 5510
饮 料</w> 5502
级 别</w> 5499
亿 元</w> 5498
年 前</w> 5496
昨 日</w> 5496
混凝 土</w> 5496
从 前</w> 5495
灵 活</w> 5495
询 问</w> 5490
设 想</w> 5489
缺 点</w> 5489
展 览</w> 5488
婚 礼</w> 5487
殖 民 5483
体 化</w> 5481
这 方面</w> 5479
观 看</w> 5477
阶 级</w> 5477
辅 助</w> 5473
街 道</w> 5469
丧 失</w> 5466
老 鼠</w> 5464
回 报</w> 5463
激 励</w> 5461
营 销</w> 5457
金 额</w> 5448
土耳 其</w> 5448
一 代</w> 5442
路 线</w> 5441
签 订</w> 5441
竞 选</w> 5441
滥 用</w> 5440
种 种</w> 5438
标 签</w> 5437
仆 人</w> 5435
生 活 5434
清 晰</w> 5433
对 付</w> 5431
9 %</w> 5431
无 线 5429
类 别</w> 5425
教 练</w> 5425
第 七 5422
拉 丁 5419
密 斯</w> 5414
数 值</w> 5411
透 露</w> 5410
渠 道</w> 5408
驾 驶</w> 5407
研 讨 5406
曲 线</w> 5405
新 兴</w> 5404
分 发</w> 5404
税 收</w> 5399
坚 决</w> 5397
象 征</w> 5396
港 口</w> 5394
演 出</w> 5393
课 题</w> 5392
继 承</w> 5390
违 法</w> 5389
远 远</w> 5387
血 液</w> 5387
打 破</w> 5386
传 感器</w> 5386
财 务 5383
便 利</w> 5381
厨 房</w> 5381
一 声</w> 5379
荷 兰</w> 5377
样 品</w> 5375
e l</w> 5373
前 提</w> 5370
细 菌</w> 5370
竞争 力</w> 5367
管 道</w> 5366
失 所</w> 5363
流 离 5361
流离 失所</w> 5361
王 子</w> 5355
祝 贺</w> 5355
尼 斯</w> 5353
现 行</w> 5353
伯 特</w> 5351
主 义 5351
变 更</w> 5348
行政 部门</w> 5348
纪 念 5346
该 项</w> 5344
6 . 5338
幅 度</w> 5336
研讨 会</w> 5335
上 班</w> 5334
看 出</w> 5333
二 条</w> 5330
生 日</w> 5327
地 下</w> 5326
家 长</w> 5318
教 会</w> 5318
平 静</w> 5314
只 会</w> 5312
窗 户</w> 5312
送 到</w> 5311
娱 乐</w> 5305
各 样</w> 5296
牺 牲</w> 5295
大 使</w> 5294
加 勒 5293
理 念</w> 5293
款 项</w> 5289
每 日</w> 5287
缓 慢</w> 5286
伊斯 兰</w> 5283
常 规</w> 5282
向 前</w> 5281
答 应</w> 5281
购 物</w> 5278
癌 症</w> 5277
最 高 5275
帐 户</w> 5275
人 会</w> 5274
大 众</w> 5273
主 体</w> 5272
效 力</w> 5272
叫 做</w> 5271
时 光</w> 5269
蛋 白 5268
海 上</w> 5267
排 除</w> 5267
自 主</w> 5264
一 篇</w> 5262
聚 集</w> 5260
送 给</w> 5260
董 事</w> 5257
疯 狂</w> 5255
日 内 5253
携 带</w> 5253
u s 5252
分析 师</w> 5248
2 8 5247
指 责</w> 5244
爱尔 兰</w> 5239
投 诉</w> 5230
第五 十 5226
黑 塞 5221
节 日</w> 5220
事 宜</w> 5219
黑塞 哥 5218
维 那</w> 5217
黑塞哥 维那</w> 5217
解 除</w> 5216
管理 局</w> 5216
合 格</w> 5214
第二 次</w> 5214
约 束</w> 5210
尊 敬</w> 5205
辖 市</w> 5205
乘 客</w> 5205
找 出</w> 5204
电 机</w> 5202
大 声</w> 5198
国 内外</w> 5197
驱 动</w> 5197
舒 服</w> 5194
例 句</w> 5192
研 制</w> 5190
太 多</w> 5189
手 续</w> 5187
执 法</w> 5172
相 当 5172
构 造</w> 5172
施 行</w> 5171
遵 循</w> 5170
结 构 5169
就 是 5169
妨 碍</w> 5168
史 密斯</w> 5164
精 度</w> 5160
仿 佛</w> 5157
不 住</w> 5155
星期 一</w> 5155
差 别</w> 5154
考 察</w> 5150
6 00</w> 5149
天 然</w> 5147
见 面</w> 5146
奥 林 5146
冒 险</w> 5146
整 天</w> 5142
买 卖</w> 5138
直 辖市</w> 5136
忍 受</w> 5134
味 道</w> 5133
机 遇</w> 5132
宇 宙</w> 5130
艾滋 病</w> 5130
人 人</w> 5129
温 暖</w> 5128
分 歧</w> 5128
背 后</w> 5127
宝 贵</w> 5125
不 行</w> 5123
拯 救</w> 5123
e d</w> 5122
面 试</w> 5120
融 合</w> 5120
懂 得</w> 5120
升 级</w> 5115
手 里</w> 5114
种 植</w> 5113
星期 五</w> 5109
引 入</w> 5107
不 如</w> 5106
价 格 5101
有 害</w> 5098
差 不多</w> 5093
推 迟</w> 5093
被 迫</w> 5093
消 耗</w> 5092
较 为</w> 5092
一 颗</w> 5090
抗 议</w> 5088
列 出</w> 5085
体 重</w> 5084
e d 5084
长 大</w> 5083
常务 委员会</w> 5082
公 主</w> 5078
首 都</w> 5078
标 记</w> 5074
圣诞 节</w> 5070
古 代</w> 5067
不 出</w> 5065
只 不过</w> 5065
共 享</w> 5065
扮 演</w> 5065
达 国家</w> 5064
行 李</w> 5064
发 达国家</w> 5064
200 2</w> 5064
遭 遇</w> 5063
指 引</w> 5057
传 输</w> 5051
高 效</w> 5042
车 站</w> 5039
账 户</w> 5038
脂 肪</w> 5037
分 裂</w> 5036
中 学</w> 5035
犯 罪 5035
一 间</w> 5031
一 根</w> 5030
明 星</w> 5028
局 面</w> 5023
设 定</w> 5022
椅 子</w> 5022
入 境</w> 5020
以 期</w> 5019
这 句</w> 5017
超 越</w> 5017
家 族</w> 5015
罪 犯</w> 5013
即 便</w> 5011
地 带</w> 5008
头 脑</w> 5007
价 值 5006
冬 天</w> 5004
尽 力</w> 4999
由 此</w> 4995
帮 忙</w> 4995
节 省</w> 4989
种 子</w> 4987
变 革</w> 4987
a v 4987
七 年</w> 4985
例 外</w> 4981
天 然 4980
妹 妹</w> 4980
发 动机</w> 4979
复 制</w> 4978
日内 瓦</w> 4978
免 疫</w> 4976
工 会</w> 4975
布 莱 4974
劳 动力</w> 4973
告 知</w> 4973
怎么 办</w> 4972
可 见</w> 4971
在 家</w> 4962
一 杯</w> 4961
活 着</w> 4955
信 用</w> 4955
司 法 4955
订 单</w> 4955
素 质</w> 4954
署 长</w> 4948
艺术 家</w> 4947
基 督</w> 4946
l i 4946
单 元</w> 4945
回 收</w> 4945
缓 解</w> 4945
议 院</w> 4945
支 票</w> 4944
场 合</w> 4943
奥林 匹 4943
五 个</w> 4941
耶 路 4941
床 上</w> 4940
肌 肉</w> 4939
接 收</w> 4939
耶路 撒 4936
时 尚</w> 4931
脆 弱</w> 4928
7 5</w> 4927
提 名</w> 4926
一 体化</w> 4925
岩 石</w> 4925
假 期</w> 4925
靠 近</w> 4922
动 性</w> 4916
方 程</w> 4914
干 净</w> 4913
成 年人</w> 4912
克 兰</w> 4910
周 一</w> 4909
共同 体</w> 4908
性 格</w> 4902
引 擎</w> 4897
家 具</w> 4896
县 级</w> 4896
男 女</w> 4893
详 情</w> 4888
复 苏</w> 4886
一 阵</w> 4884
围 绕</w> 4883
保 持 4882
透 明</w> 4879
污 染 4873
耶路撒 冷</w> 4873
变 形</w> 4872
回 忆</w> 4872
勇 敢</w> 4870
e c 4870
任 意</w> 4866
整 理</w> 4866
交 谈</w> 4865
报 表</w> 4857
磋 商</w> 4857
提 及</w> 4852
乔 治</w> 4852
公 寓</w> 4851
恐 怖</w> 4849
毫无 疑问</w> 4849
1 0%</w> 4848
昨 晚</w> 4846
正 义</w> 4845
划 分</w> 4843
5 6</w> 4842
仪 器</w> 4838
奖 励</w> 4837
一 方面</w> 4836
手 指</w> 4836
布 朗</w> 4835
任 期</w> 4834
o b 4834
里 斯</w> 4833
o t 4827
接 到</w> 4823
加 剧</w> 4818
层 面</w> 4818
基本 上</w> 4816
不 但</w> 4810
公 安 4805
遗 产</w> 4800
太 空</w> 4797
英 雄</w> 4796
视 觉</w> 4796
两 位</w> 4791
扩 张</w> 4791
一 对</w> 4790
黄 色</w> 4790
处 在</w> 4790
天 使</w> 4789
屏 幕</w> 4786
哥 哥</w> 4785
我 来</w> 4784
公 告</w> 4784
9 . 4783
订 正</w> 4782
激 光</w> 4779
交 往</w> 4775
机 理</w> 4773
撤 销</w> 4773
追 究</w> 4772
不 敢</w> 4771
提 前</w> 4769
餐 馆</w> 4769
窗 口</w> 4766
克 力</w> 4764
两 者</w> 4764
比 尔</w> 4762
春 天</w> 4760
实 质</w> 4759
监督 管理</w> 4759
弹 性</w> 4758
长 度</w> 4757
时 间 4756
议 题</w> 4753
法 语</w> 4750
a g 4750
起 到</w> 4747
此 时</w> 4745
液 体</w> 4745
平 均 4744
振 动</w> 4743
保险 公司</w> 4742
吸 引力</w> 4741
请 问</w> 4739
帽 子</w> 4739
老 年人</w> 4738
对 策</w> 4735
事 先</w> 4732
证 人</w> 4731
行 性</w> 4726
必 需</w> 4725
支 撑</w> 4725
e m 4724
组 件</w> 4721
疫 苗</w> 4721
透 明 4721
单 一</w> 4720
信 念</w> 4719
监 控</w> 4717
城 镇</w> 4716
限 于</w> 4715
谈 谈</w> 4714
出 口 4712
报 导</w> 4708
使用 者</w> 4706
i r 4703
大 厦</w> 4701
拿 到</w> 4701
真 理</w> 4700
进 出口</w> 4698
补 贴</w> 4698
拍 摄</w> 4696
引 用</w> 4694
活 跃</w> 4691
通 用</w> 4691
魅 力</w> 4691
多 久</w> 4690
新 鲜</w> 4690
生 素</w> 4689
那 边</w> 4689
协 作</w> 4687
查 看</w> 4686
系 数</w> 4685
指 挥 4685
就是 说</w> 4685
文 档</w> 4683
拨 款</w> 4679
保 罗</w> 4678
六 年</w> 4677
当 选</w> 4676
救 助</w> 4675
周 年</w> 4674
责 令</w> 4670
加 大</w> 4669
疼 痛</w> 4669
彼 得</w> 4668
物 种</w> 4667
体 内</w> 4666
总 数</w> 4666
拉 斯</w> 4661
巧 克力</w> 4661
跟 着</w> 4660
列 表</w> 4658
身 份 4658
应 有</w> 4657
新 西 4656
情 报</w> 4652
离 婚</w> 4651
杀 死</w> 4650
并 不 4649
营 养 4647
为 期</w> 4646
增 进</w> 4646
激 动</w> 4645
最 小</w> 4643
抵 达</w> 4643
地 板</w> 4642
农 场</w> 4640
民主 党</w> 4639
单 词</w> 4638
o s 4635
以 此</w> 4634
消 灭</w> 4633
远 离</w> 4630
原子 能</w> 4630
职 权</w> 4628
合 金</w> 4627
露 出</w> 4624
后 者</w> 4621
容 器</w> 4617
暂 停</w> 4617
偿 还</w> 4615
化 合物</w> 4614
脱 离</w> 4611
一 遍</w> 4607
迫 使</w> 4607
损 坏</w> 4603
政 党</w> 4599
总 裁</w> 4597
检 查 4595
学 术</w> 4594
客 观</w> 4593
座 位</w> 4591
并 未</w> 4587
无 需</w> 4585
头 上</w> 4584
道 理</w> 4581
人 力</w> 4581
电 流</w> 4581
外 地</w> 4581
武 装 4581
根 本 4579
金融 机构</w> 4579
个 案</w> 4578
普 通 4578
浓 度</w> 4576
提 起</w> 4574
广 场</w> 4574
o w 4573
注 册 4570
硬 件</w> 4567
之 上</w> 4566
各 种 4566
内 在</w> 4566
船 只</w> 4566
5 4</w> 4565
规 划 4564
人 家</w> 4563
目 光</w> 4561
信用 卡</w> 4561
商 人</w> 4559
架 构</w> 4558
千 年</w> 4557
紧 密</w> 4557
相当 于</w> 4557
薪 酬</w> 4556
重 量</w> 4556
独 立 4556
乡 村</w> 4556
A d 4554
些 时候</w> 4554
地 利</w> 4552
耳 朵</w> 4552
环 节</w> 4551
优 惠</w> 4549
移 植</w> 4549
发 起</w> 4547
名 义</w> 4546
上 学</w> 4546
英 国 4544
8 . 4544
签 证</w> 4544
上 来</w> 4543
基础 设施</w> 4543
7 7</w> 4542
选 手</w> 4540
预 防 4537
联合 国 4537
密 码</w> 4532
饭 店</w> 4532
波 动</w> 4530
客 户 4528
油 价</w> 4526
监 察</w> 4524
之 处</w> 4523
北 京 4523
神 秘</w> 4523
世界 各地</w> 4520
万 人</w> 4516
要 素</w> 4516
超 出</w> 4516
玩 笑</w> 4513
广 大</w> 4512
其 余</w> 4511
支 持 4511
协 调 4508
法 定</w> 4507
5 3</w> 4504
小 岛</w> 4503
安 静</w> 4503
世界 银行</w> 4501
一 人</w> 4498
发 生 4498
舞 台</w> 4497
o f</w> 4496
提 示</w> 4492
两 天</w> 4487
所 知</w> 4486
钥 匙</w> 4486
无论 是</w> 4485
尔 德</w> 4484
o r</w> 4483
发 送</w> 4481
拍 卖</w> 4481
这 条</w> 4477
据 说</w> 4476
牧 师</w> 4475
当 今</w> 4473
尸 体</w> 4472
经 典</w> 4468
黑 人</w> 4468
确 立</w> 4468
印 刷</w> 4460
啤 酒</w> 4460
姓 名</w> 4459
邻 居</w> 4459
华 尔 4457
人 工</w> 4454
名 词</w> 4454
悲 伤</w> 4453
要 么</w> 4452
转 化</w> 4451
九 龙</w> 4449
裁 决</w> 4446
不 满</w> 4443
愚 蠢</w> 4443
金融 危机</w> 4442
拉丁 美洲</w> 4441
动 词</w> 4439
一 级</w> 4438
礼 貌</w> 4438
说 服</w> 4438
穷 人</w> 4438
建设 性</w> 4438
动 脉</w> 4436
越 南</w> 4436
渐 渐</w> 4436
剥 夺</w> 4435
季 节</w> 4434
6 5</w> 4433
清 洗</w> 4432
澳 门</w> 4431
电 影 4426
强 化</w> 4425
坐 下</w> 4422
几 种</w> 4419
清 除</w> 4419
业 绩</w> 4416
酒 吧</w> 4413
沉 默</w> 4409
隐 藏</w> 4407
有 意</w> 4405
有效 性</w> 4405
白 宫</w> 4402
百 姓</w> 4401
案 文</w> 4401
干 什么</w> 4400
生 命 4398
高 速</w> 4398
原 始</w> 4395
清 理</w> 4393
原 谅</w> 4392
迄 今</w> 4391
讨 论 4390
早 就</w> 4390
概 算</w> 4388
姐 姐</w> 4387
认 知</w> 4387
你 好</w> 4384
鼓 舞</w> 4383
变 动</w> 4382
就 此</w> 4381
优 质</w> 4380
有 所 4379
封 信</w> 4379
想 想</w> 4377
发 育</w> 4376
一 所</w> 4373
变 量</w> 4372
确 信</w> 4372
关 税</w> 4370
语 文</w> 4370
案 例</w> 4369
哥 伦 4368
蛋白 质</w> 4368
耐 心</w> 4367
新西 兰</w> 4366
本 港</w> 4365
分 开</w> 4363
一 方</w> 4361
发 放</w> 4360
树 木</w> 4358
回 事</w> 4357
平 方 4356
放 射 4356
英 格兰</w> 4353
维 也 4347
个 体</w> 4347
签 名</w> 4347
等 级</w> 4340
昂 贵</w> 4339
当 代</w> 4336
救 援</w> 4336
维也 纳</w> 4336
四 十 4335
般 的</w> 4335
资 源 4334
塑 料</w> 4334
此 事</w> 4327
人 口 4326
离 子</w> 4326
跳 舞</w> 4325
永 久</w> 4324
传 染 4324
看 作</w> 4322
一 无 4320
等 于</w> 4320
祝 福</w> 4319
呈 现</w> 4318
便 是</w> 4314
薪 金</w> 4311
大 会 4310
带 到</w> 4307
不 在 4306
切 实</w> 4305
不 变</w> 4302
十 字 4302
军 官</w> 4298
震 惊</w> 4297
利 比 4296
双 手</w> 4295
宗 旨</w> 4294
局 部</w> 4294
着 手</w> 4294
布 鲁 4293
工 商 4293
复 合</w> 4292
民 事 4285
多样 性</w> 4284
制 成</w> 4280
卫生 组织</w> 4280
检 讨</w> 4279
毕业 生</w> 4278
队 员</w> 4276
5 8</w> 4276
同 步</w> 4275
去 世</w> 4272
平 面</w> 4270
五 十</w> 4268
报 价</w> 4268
题 目</w> 4268
一 类</w> 4267
惊 人</w> 4266
庞 大</w> 4265
软 件 4265
简 要</w> 4265
一 台</w> 4263
用 作</w> 4262
流 量</w> 4261
死 亡 4261
布 隆 4260
指 南</w> 4260
电 脑 4257
t er 4255
交易 所</w> 4253
199 8</w> 4252
o c 4251
校 长</w> 4251
安 慰</w> 4244
晚 餐</w> 4244
黄 金</w> 4242
o m</w> 4242
i d 4237
影 响 4236
高 校</w> 4232
此 前</w> 4232
发 动</w> 4229
面 向</w> 4227
反 对 4227
南 方</w> 4226
股 价</w> 4226
经济 学</w> 4226
加 拉 4225
作 战</w> 4224
退 出</w> 4224
格 鲁 4223
界 面</w> 4223
眼 前</w> 4222
附 属</w> 4222
咖 啡 4222
利比 里亚</w> 4220
影响 力</w> 4219
具 体 4218
视 察</w> 4217
好 象</w> 4216
简 化</w> 4216
M a 4214
刑事 责任</w> 4214
真 诚</w> 4213
总 会</w> 4213
这 张</w> 4213
公 式</w> 4213
通货 膨胀</w> 4212
问 道</w> 4210
实 力</w> 4210
瑞 典</w> 4209
总 值</w> 4204
通 胀</w> 4204
干 燥</w> 4201
何 时</w> 4200
商 务 4200
东 部</w> 4199
走 出</w> 4199
政 权</w> 4195
穆 斯 4192
健 全</w> 4190
e t</w> 4190
恰 当</w> 4188
权 人</w> 4187
长 期 4187
雇 用</w> 4183
极 了</w> 4182
间 接</w> 4180
天然 气</w> 4180
哈 利</w> 4179
处 境</w> 4178
积 累</w> 4178
阿 根 4176
乌 克兰</w> 4176
共 识</w> 4175
故 意</w> 4174
指 挥</w> 4174
生 涯</w> 4171
5 7</w> 4169
干 涉</w> 4168
名 叫</w> 4167
柬 埔 4166
三 种</w> 4165
书 籍</w> 4162
专 利 4162
糖 尿 4160
出版 物</w> 4160
电 台</w> 4159
航空 公司</w> 4158
依 法 4157
文 献</w> 4151
暗 示</w> 4151
参 与 4149
手 册</w> 4147
灭 绝</w> 4147
承 包 4145
街 上</w> 4144
夜 晚</w> 4143
阁 下</w> 4141
伯 爵</w> 4140
看 待</w> 4140
法 人</w> 4140
广 播 4139
标 题</w> 4139
怀 孕</w> 4139
不 让</w> 4138
意 志</w> 4137
伴 随</w> 4137
欢 乐</w> 4134
2 0%</w> 4133
周 五</w> 4132
布隆 迪</w> 4132
分 散</w> 4131
出 租 4130
可 靠 4128
这 会</w> 4127
会 见</w> 4126
之 所以</w> 4123
扫 描</w> 4120
说 出</w> 4119
强 迫</w> 4119
容 忍</w> 4118
附 加</w> 4117
一 同</w> 4116
常 驻</w> 4116
多样 化</w> 4116
外 汇</w> 4114
院 校</w> 4114
理 学</w> 4113
星期 六</w> 4113
密 切 4112
此 项</w> 4112
近 期</w> 4111
忽 略</w> 4110
媒 介</w> 4109
机 械 4105
赛 季</w> 4103
下 滑</w> 4102
拿 出</w> 4102
八 年</w> 4101
认 证</w> 4097
焦 点</w> 4096
口 语</w> 4095
成 效</w> 4092
复 杂 4091
鉴 定</w> 4087
等 到</w> 4086
含 义</w> 4086
一 大</w> 4085
强 制</w> 4085
马 克</w> 4083
联 保</w> 4082
提 请</w> 4081
投 标</w> 4080
纽 约 4080
护 士</w> 4078
穆斯 林</w> 4078
更 换</w> 4077
8 00</w> 4077
政 府 4075
学 习 4071
塞 族</w> 4069
着 重</w> 4068
欧 元</w> 4067
路 径</w> 4063
下 次</w> 4062
制 止</w> 4062
正 当</w> 4061
就 算</w> 4060
安全 性</w> 4060
行政 长官</w> 4056
很 小</w> 4055
i a</w> 4054
第六 十 4054
柬埔 寨</w> 4053
明 书</w> 4051
_ _ 4051
阿根 廷</w> 4049
可靠 性</w> 4049
自 行</w> 4046
产 物</w> 4046
所 在 4045
讲 述</w> 4045
一 组</w> 4044
约 定</w> 4044
乐 队</w> 4044
崩 溃</w> 4041
部 位</w> 4040
分 割</w> 4040
商 品 4037
表 达 4036
同 情</w> 4036
祈 祷</w> 4036
选 项</w> 4033
氧 化</w> 4025
度 假</w> 4023
落 后</w> 4023
尼 西亚</w> 4021
设 有</w> 4021
汉 语</w> 4019
进 攻</w> 4018
读 书</w> 4018
格鲁 吉 4018
模 块</w> 4017
丹 麦</w> 4016
旅 行 4014
保 安</w> 4013
吃 惊</w> 4012
普 遍 4011
使 命</w> 4010
糖尿 病</w> 4010
加勒 比</w> 4008
对 外 4007
索 赔</w> 4007
墙 上</w> 4007
国 有 4005
点 钟</w> 4005
尼 日 4003
只 好</w> 4002
大 国</w> 4001
充 足</w> 4001
电 压</w> 3996
口 头</w> 3996
噪 音</w> 3995
地 下 3994
天 文 3993
表 情</w> 3991
岛 屿</w> 3989
全 文</w> 3989
美 联 3988
叙 述</w> 3988
日 前</w> 3987
透明 度</w> 3985
小 学</w> 3984
天 堂</w> 3984
符 号</w> 3984
管理 人员</w> 3984
主 教</w> 3983
限 度</w> 3983
开 会</w> 3978
歌 曲</w> 3976
全 力</w> 3976
明 智</w> 3975
欺 骗</w> 3974
事 态</w> 3973
东 京</w> 3973
上 次</w> 3973
沉 重</w> 3973
祖 国</w> 3972
征 收</w> 3971
沮 丧</w> 3970
土 著 3969
对 面</w> 3969
康 复</w> 3968
业 主</w> 3966
把 握</w> 3966
执 照</w> 3965
安 置</w> 3965
从 中</w> 3962
通 告</w> 3962
姆 斯</w> 3961
突 破</w> 3960
炸 弹</w> 3960
格鲁吉 亚</w> 3960
目 的 3959
死亡 率</w> 3959
联 邦 3958
碰 到</w> 3958
迈 克尔</w> 3958
样 本</w> 3957
经济 体</w> 3957
马 克 3955
英 国人</w> 3954
民 间</w> 3953
真 相</w> 3951
解 放 3951
物 资</w> 3951
船 长</w> 3949
困 扰</w> 3949
新 年</w> 3948
误 差</w> 3948
字 母</w> 3943
回 归</w> 3943
葡萄 酒</w> 3942
正 好</w> 3939
放 缓</w> 3933
贵 方</w> 3933
选 出</w> 3932
成 人</w> 3931
乐 趣</w> 3930
遗 传</w> 3929
区 分</w> 3924
会 议 3922
国 防 3920
时 机</w> 3920
标 准 3919
一 贯</w> 3917
腐 败</w> 3917
控制 系统</w> 3917
自 杀</w> 3916
微 软</w> 3916
孤 独</w> 3914
对 联</w> 3912
科 技 3912
授 予</w> 3908
血 压</w> 3906
安 德 3905
代理 人</w> 3905
现 实 3902
这 点</w> 3900
个 性</w> 3898
严 重 3898
海 洋 3897
所 得 3896
夏 季</w> 3896
寻 常</w> 3895
进 口 3894
斯 坦 3894
链 接</w> 3894
行 星</w> 3893
没 收</w> 3891
之 际</w> 3890
每 一</w> 3890
举 措</w> 3883
侵 略</w> 3882
牙 齿</w> 3882
汽 车 3881
骄 傲</w> 3881
泡 沫</w> 3880
六 月</w> 3878
两 国</w> 3878
均 衡</w> 3877
运 营</w> 3874
玻 璃 3872
严 肃</w> 3872
室 内</w> 3872
件 事</w> 3871
一 层</w> 3870
顺 序</w> 3870
高 速 3865
注 重</w> 3864
卡 车</w> 3862
调 用</w> 3861
风 暴</w> 3858
斯 科</w> 3858
不 上</w> 3857
权 限</w> 3856
急 性</w> 3855
短 缺</w> 3854
审 核</w> 3853
邻 国</w> 3853
校 园</w> 3852
文 件 3851
另 有</w> 3851
研究 者</w> 3850
克 斯坦</w> 3849
招 聘</w> 3847
实 用 3846
牌 照</w> 3845
半 年</w> 3844
公 司 3842
缅 甸</w> 3841
周 二</w> 3840
更 是</w> 3836
缴 纳</w> 3834
谷 歌</w> 3833
审 批</w> 3833
那 条</w> 3832
亲 自</w> 3831
死 去</w> 3829
因 子</w> 3827
传 真</w> 3827
无 效</w> 3826
火 箭</w> 3822
修 理</w> 3819
考 验</w> 3818
零 售 3817
博 客</w> 3816
5 9</w> 3816
不 同 3814
难 题</w> 3813
伴 侣</w> 3813
不 太 3811
树 林</w> 3808
鼻 子</w> 3808
A n 3807
工作 者</w> 3807
填 写</w> 3806
重 组</w> 3806
沙 漠</w> 3806
迟 到</w> 3806
做 些</w> 3805
为 例</w> 3805
子 里</w> 3804
很 长</w> 3804
早 已</w> 3804
非 线性</w> 3803
犹 太 3802
可 行性</w> 3800
全 新</w> 3800
印度 尼西亚</w> 3800
群 岛</w> 3799
u t 3799
无 关</w> 3798
村 庄</w> 3798
报 酬</w> 3797
一 番</w> 3796
N A</w> 3796
噪 声</w> 3795
页 面</w> 3793
调 动</w> 3792
查 明</w> 3790
相 处</w> 3790
挪 威</w> 3790
关 节</w> 3787
相 机</w> 3785
荣 誉</w> 3785
来 临</w> 3784
份 额</w> 3784
i m 3784
年 纪</w> 3781
器 官</w> 3780
持 续 3780
自然 灾害</w> 3780
散 步</w> 3776
驾 驶 3776
动 物 3775
198 9</w> 3774
西班 牙 3774
不 断 3773
运 送</w> 3773
阿拉 伯 3773
马 来 3772
玫 瑰</w> 3772
开 关</w> 3771
一 批</w> 3770
竞 赛</w> 3770
无论 如何</w> 3770
小 男孩</w> 3769
浪 漫</w> 3768
一 笔</w> 3767
1 000</w> 3764
超 级</w> 3763
自动 化</w> 3763
大 气</w> 3759
妇 人</w> 3759
奥 斯 3759
进 化</w> 3758
大 多</w> 3758
无 限</w> 3758
挑 选</w> 3757
一 度</w> 3756
无 人</w> 3756
程 序 3754
实 用</w> 3753
幻 想</w> 3751
整 合</w> 3751
河 流</w> 3749
筹 措</w> 3743
人 为</w> 3742
星期 二</w> 3741
深 度</w> 3740
创 意</w> 3740
营 业 3740
次 级</w> 3739
飞 行 3739
用 水</w> 3737
烦 恼</w> 3737
失 业 3736
颁 布</w> 3735
共产 党</w> 3734
国 有</w> 3731
质 疑</w> 3731
斯 特 3729
走 过</w> 3729
副 本</w> 3729
综 述</w> 3729
先 前</w> 3728
心 脏 3727
申 报</w> 3726
玉 米</w> 3724
亚 太 3723
雇 佣</w> 3723
计划 生育</w> 3723
塞 尔 3722
菲 律 3722
不 该</w> 3721
苏 联</w> 3720
十 五 3718
食 用</w> 3717
道 歉</w> 3717
线 路</w> 3717
纠 正</w> 3717
价值 观</w> 3717
储 蓄</w> 3715
原 子</w> 3714
隧 道</w> 3712
刑 法</w> 3710
峰 会</w> 3710
香港 特别行政区</w> 3710
节 点</w> 3709
大 大 3708
小 小 3708
航 行</w> 3707
奇 迹</w> 3704
亨 利</w> 3704
载 有</w> 3703
术 语</w> 3702
D P</w> 3700
日 常 3698
编 码</w> 3698
市场 经济</w> 3698
命 名</w> 3692
公共 汽车</w> 3691
增长 率</w> 3686
数 字 3685
放 到</w> 3684
重 新 3683
码 头</w> 3682
众 人</w> 3682
M ar 3679
意 图</w> 3678
指 望</w> 3678
中 断</w> 3676
注 射</w> 3674
陈 述</w> 3674
蛋 糕</w> 3674
芝 加 3674
竞争 对手</w> 3674
收 取</w> 3671
7 00</w> 3671
r a 3671
商业 银行</w> 3670
反 馈</w> 3669
讨论 会</w> 3667
工业 化</w> 3665
直 升 3664
共和 党</w> 3662
这 笔</w> 3660
家 中</w> 3659
二 氧化 3659
口 袋</w> 3657
比 率</w> 3656
此 种</w> 3656
T h 3651
裁 定</w> 3651
按 钮</w> 3650
致 命</w> 3648
m an</w> 3647
独 自</w> 3643
节 能</w> 3643
范 畴</w> 3641
尼 尔</w> 3640
虚 拟</w> 3637
乐 意</w> 3636
非 洲 3635
从 来 3633
水 资源</w> 3632
污 水</w> 3632
摧 毁</w> 3632
狮 子</w> 3631
悲 剧</w> 3631
文 中</w> 3628
小小 的</w> 3627
研 发</w> 3626
迫 切</w> 3626
一 头</w> 3624
家 园</w> 3624
R e 3622
弟 弟</w> 3620
各种 各样</w> 3620
所 属</w> 3619
地 质</w> 3618
科学 技术</w> 3614
权 威</w> 3612
过 分</w> 3612
食 品 3611
一 眼</w> 3610
神 圣</w> 3610
加 州</w> 3609
毁 灭</w> 3607
电 力 3606
初 期</w> 3606
设计 师</w> 3606
接 口</w> 3604
停 火</w> 3604
6 4</w> 3604
杰 出</w> 3603
除 外</w> 3602
应 急</w> 3602
生产 力</w> 3602
借 口</w> 3600
移 徙</w> 3597
6 6</w> 3597
专门 机构</w> 3597
菲律 宾</w> 3597
得 知</w> 3596
预 报</w> 3596
随 机</w> 3596
- --</w> 3596
电 信</w> 3595
均 匀</w> 3595
序 列</w> 3595
本 届</w> 3594
不 清</w> 3593
温 和</w> 3593
严 厉</w> 3593
招 标</w> 3592
布 什 3591
观 测</w> 3591
气 象</w> 3589
两 名</w> 3588
构 成 3588
即 可</w> 3585
占 有</w> 3584
n i 3584
四 月</w> 3583
维 尔</w> 3583
尊 严</w> 3583
起 草</w> 3582
利 息</w> 3582
策 划</w> 3581
财政 部</w> 3581
三 分之一</w> 3580
所 作</w> 3577
太阳 能</w> 3577
股 权</w> 3575
阶 层</w> 3573
早 餐</w> 3573
法 令</w> 3572
年 内</w> 3572
种族 歧视</w> 3572
从来 不</w> 3572
边 境</w> 3571
收 获</w> 3571
防 护</w> 3571
每 当</w> 3570
种族 主义</w> 3568
富 裕</w> 3566
利 比亚</w> 3565
苦 难</w> 3565
林 顿</w> 3564
占 据</w> 3564
租 金</w> 3564
四 周</w> 3562
诗 人</w> 3562
1 50</w> 3562
业 务 3559
直 至</w> 3559
轻 易</w> 3556
航 班</w> 3555
身份 证</w> 3555
绝 望</w> 3554
两 家</w> 3554
无 数</w> 3552
运 转</w> 3552
受 益</w> 3550
引 进</w> 3549
确 性</w> 3549
之 类</w> 3548
短 暂</w> 3545
首 要</w> 3544
军 人</w> 3542
土著 人</w> 3542
圣 经</w> 3537
空 气 3535
预 定</w> 3534
使 人</w> 3533
语 法</w> 3532
错 过</w> 3531
口 气</w> 3530
遇 见</w> 3530
相 结合</w> 3530
开 采</w> 3527
疗 法</w> 3527
赤 字</w> 3527
弥 补</w> 3526
宣 称</w> 3524
揭 示</w> 3523
首 相</w> 3523
演 奏</w> 3523
三 月</w> 3519
将 近</w> 3517
下 文</w> 3517
马 丁</w> 3516
再 见</w> 3516
海 军</w> 3515
捐 赠</w> 3515
用 以</w> 3514
同 一个</w> 3513
船 上</w> 3513
上 网</w> 3511
零 售</w> 3511
毕 竟</w> 3509
展 现</w> 3509
目的 地</w> 3508
改 正</w> 3507
协调 员</w> 3507
高 中</w> 3505
热 带</w> 3505
典 礼</w> 3503
根 源</w> 3500
必 要性</w> 3498
an d 3497
西 洋</w> 3496
圣 诞</w> 3496
动 力学</w> 3496
颗 粒</w> 3492
威 特</w> 3491
波 兰</w> 3489
电 讯</w> 3489
广 告 3487
外 汇 3487
消 极</w> 3486
公 斤</w> 3485
死 刑</w> 3484
石 油 3484
确 切</w> 3484
星期 天</w> 3484
大 战</w> 3482
宗 教 3482
屋 顶</w> 3482
雷 达</w> 3481
帝 国</w> 3481
克 莱 3480
激 情</w> 3480
注 入</w> 3479
琼 斯</w> 3478
星期 四</w> 3477
场 地</w> 3476
压 缩</w> 3475
199 9</w> 3475
一 向</w> 3474
听 取</w> 3473
限 期</w> 3472
录 音</w> 3471
强 劲</w> 3469
零 件</w> 3468
中国 人民 3467
人 均</w> 3466
所 有权</w> 3466
偶 尔</w> 3466
缔 结</w> 3465
疲 劳</w> 3464
人民代表 大会 3464
人民代表大会 常务委员会</w> 3464
薪 水</w> 3463
保 密</w> 3463
虐 待</w> 3463
国 籍</w> 3459
en t</w> 3459
市 长</w> 3458
全 都</w> 3457
9 00</w> 3457
拖 延</w> 3456
烟 草</w> 3455
c e</w> 3454
无 法 3451
教 徒</w> 3451
护 照</w> 3450
寒 冷</w> 3450
教 室</w> 3450
自 豪</w> 3449
千 万</w> 3449
强 制 3449
物 流</w> 3448
银 行业</w> 3448
激 素</w> 3448
保 守</w> 3447
月 球</w> 3446
资 本 3444
五 月</w> 3443
谘 询</w> 3443
一 点 3441
迎 接</w> 3440
大 门</w> 3439
残 疾</w> 3439
图 案</w> 3439
海 水</w> 3438
访 者</w> 3437
东 方</w> 3436
S h 3430
国际 贸易</w> 3430
屋 子</w> 3429
集 合</w> 3427
三 维</w> 3427
澄 清</w> 3427
i g 3424
播 放</w> 3424
频 繁</w> 3420
认 定</w> 3418
一 事</w> 3416
鸡 蛋</w> 3416
能 源 3416
爱 好</w> 3415
in d 3415
午 餐</w> 3414
马来 西亚</w> 3414
增 大</w> 3412
煤 炭</w> 3411
企业 家</w> 3411
这 事</w> 3409
场 景</w> 3409
目 前 3407
叙 利亚</w> 3406
领 先</w> 3406
总 经理</w> 3405
小 企业</w> 3405
而 来</w> 3403
外交 部</w> 3402
正 面</w> 3400
几 次</w> 3396
主义 者</w> 3396
不 太</w> 3395
交 付</w> 3394
依 赖 3394
时间 表</w> 3393
不 去</w> 3392
同 期</w> 3392
挖 掘</w> 3392
焊 接</w> 3391
饥 饿</w> 3390
6 8</w> 3390
竟 然</w> 3389
纠 纷</w> 3389
惯 例</w> 3386
采取 措施</w> 3385
P D 3384
目前 为止</w> 3384
成 千 3383
查 阅</w> 3382
v er 3382
政 局</w> 3381
消 防 3380
三 天</w> 3380
贫 困 3380
in g 3380
水 中</w> 3379
暴 露</w> 3379
心脏 病</w> 3379
加 热</w> 3377
灰 色</w> 3377
7 2</w> 3377
集 中 3376
旅游 业</w> 3376
全球 性</w> 3375
吩 咐</w> 3373
一般 性</w> 3373
热 烈</w> 3372
6 3</w> 3372
节 约</w> 3369
a p 3368
舞 蹈</w> 3367
防 御</w> 3367
星期 三</w> 3366
上 万</w> 3364
延 伸</w> 3364
质 素</w> 3361
20 10</w> 3361
当 天</w> 3360
注 视</w> 3359
专 用</w> 3359
工程 处</w> 3357
周 三</w> 3356
前 后</w> 3356
斯 蒂 3355
桌 上</w> 3355
一 刻</w> 3353
证 件</w> 3353
反 而</w> 3352
解决 问题</w> 3352
最 早</w> 3351
两 国 3350
辞 职</w> 3350
北 方</w> 3348
势 力</w> 3348
功 率</w> 3347
经营 者</w> 3347
苏 格兰</w> 3346
支 配</w> 3346
简 称</w> 3345
董 事 3344
个人 资料</w> 3344
球 场</w> 3343
概 述</w> 3341
制造 业</w> 3340
约 翰 3339
传 送</w> 3339
眼 镜</w> 3338
u p</w> 3338
纺 织 3337
双 重</w> 3336
渔 业</w> 3336
激 发</w> 3335
境 外</w> 3335
基督 教</w> 3335
分 摊</w> 3334
解 放</w> 3333
参 考 3333
高 尔 3332
点 击</w> 3332
援 助 3332
本 署</w> 3330
塞尔 维亚</w> 3329
原 文</w> 3327
发 现 3327
s on</w> 3327
动 荡</w> 3326
处 置</w> 3326
电 站</w> 3326
产 出</w> 3326
成 年</w> 3326
未 有</w> 3325
随 意</w> 3325
a b 3325
奋 斗</w> 3325
科 威特</w> 3324
摩 西</w> 3323
教 科 3323
符 合 3323
实 时</w> 3321
社 交</w> 3319
衬 衫</w> 3319
数 学 3318
小 麦</w> 3318
筹 资</w> 3318
主 流</w> 3316
2 9 3316
汽 油</w> 3316
世 上</w> 3316
修 建</w> 3314
华尔 街</w> 3314
市 区</w> 3313
登 记 3311
生 人</w> 3310
变 换</w> 3310
晚 饭</w> 3310
发 性</w> 3309
惊 奇</w> 3309
递 交</w> 3308
一 时</w> 3307
国 别</w> 3305
绝 不</w> 3305
下 雨</w> 3305
B C</w> 3304
热 爱</w> 3302
周 四</w> 3298
无线 电</w> 3298
复 兴</w> 3296
干 旱</w> 3294
随 便</w> 3294
焦 虑</w> 3294
提 供 3293
现 时</w> 3292
岗 位</w> 3291
永 恒</w> 3290
杀 害</w> 3290
分 之 3289
商 定</w> 3287
专 题</w> 3286
偶 然</w> 3286
拟 定</w> 3286
看 过</w> 3285
六 个</w> 3285
生 病</w> 3283
指挥 官</w> 3282
反 复</w> 3281
受 理</w> 3280
区 域 3279
欲 望</w> 3278
贝 尔</w> 3276
洪 水</w> 3276
反 应 3273
第二 章</w> 3273
一 幅</w> 3272
奥 地利</w> 3272
外 表</w> 3272
战 略 3271
参与 者</w> 3271
芝加 哥</w> 3271
削 弱</w> 3270
入 侵</w> 3269
年 级</w> 3268
不可 避免</w> 3267
不 然</w> 3264
改 为</w> 3264
规划 署</w> 3264
美国 政府</w> 3263
党 派</w> 3261
劳动 者</w> 3261
沃 尔 3260
它 会</w> 3260
大 西洋</w> 3258
伤 心</w> 3258
慢 性</w> 3258
定 价</w> 3256
审 理</w> 3256
规 格</w> 3254
细 则</w> 3254
抵 抗</w> 3254
远 程</w> 3253
深 深</w> 3250
武 力</w> 3250
看 不见</w> 3249
法 例</w> 3248
幽 默</w> 3246
感 冒</w> 3245
带 给</w> 3245
对 应</w> 3244
温 柔</w> 3244
领 取</w> 3244
营 业</w> 3241
停 留</w> 3240
折 扣</w> 3240
眼 泪</w> 3238
电视 台</w> 3238
大 街</w> 3236
肥 胖</w> 3236
动 员</w> 3235
漫 长</w> 3235
a r</w> 3235
支持 者</w> 3234
制 约</w> 3232
月 亮</w> 3231
病 例</w> 3231
传染 病</w> 3231
表 示 3229
u l 3229
资 企业</w> 3228
其 后</w> 3227
调 解</w> 3227
公 认</w> 3227
热 量</w> 3226
思 路</w> 3226
界 定</w> 3226
忧 虑</w> 3226
开 设</w> 3224
6 1</w> 3224
成千 上万</w> 3224
复 合 3223
所得 税</w> 3222
名 为</w> 3219
无 线</w> 3217
七 月</w> 3217
脾 气</w> 3217
联合 王国</w> 3216
大 厅</w> 3214
第三 个</w> 3214
何 种</w> 3212
检 疫</w> 3210
当 事</w> 3209
地 铁</w> 3209
罗 伯特</w> 3209
检察 官</w> 3209
箱 子</w> 3208
流 行 3207
数 码</w> 3207
人 事</w> 3206
A R 3206
6 2</w> 3206
采取 行动</w> 3206
学 术 3205
布什 总统</w> 3205
一 门</w> 3204
规 章</w> 3202
高 层</w> 3201
冷 静</w> 3200
剂 量</w> 3200
向 上</w> 3198
军 备</w> 3198
光 明</w> 3197
大 海</w> 3197
试 着</w> 3197
危 险 3195
大 胆</w> 3192
海 事</w> 3192
库 存</w> 3192
日常 生活</w> 3192
德 里</w> 3191
供 给</w> 3191
ar d</w> 3189
订 购</w> 3188
里 克</w> 3186
城 里</w> 3185
用 语</w> 3183
行 事</w> 3182
要 说</w> 3182
爵 士</w> 3181
木 材</w> 3180
0 5</w> 3180
化学 品</w> 3179
几 分钟</w> 3176
前 途</w> 3176
合 众 3176
7 3</w> 3175
发 给</w> 3174
之 地</w> 3173
诸 多</w> 3173
执行 官</w> 3173
学 到</w> 3172
不 时</w> 3171
树 脂</w> 3170
参 议员</w> 3170
白 天</w> 3169
恶 劣</w> 3169
宠 物</w> 3168
汇 报</w> 3168
相 关 3167
广 阔</w> 3167
战 胜</w> 3167
尼日 利亚</w> 3167
海 底</w> 3165
没 错</w> 3163
绘 画</w> 3163
美联 储</w> 3162
克 林顿</w> 3160
钻 石</w> 3157
课 堂</w> 3157
模 仿</w> 3156
违 背</w> 3155
仓 库</w> 3155
九 月</w> 3154
B A</w> 3154
迁 移</w> 3153
无 可 3152
今 天 3151
探 测</w> 3150
珍 贵</w> 3149
高等 教育</w> 3148
第 八 3147
桥 梁</w> 3146
图 形</w> 3145
合众 国</w> 3143
容 量</w> 3142
而 易 3142
粒 子</w> 3142
以 至于</w> 3141
污染 物</w> 3141
电 器</w> 3140
要 点</w> 3140
智 力</w> 3139
流 入</w> 3139
深 处</w> 3139
底 部</w> 3138
拟 议</w> 3134
诞 生</w> 3134
金融 市场</w> 3133
不 肯</w> 3132
九 届</w> 3132
编 列</w> 3132
自 我 3131
停 下来</w> 3131
延 迟</w> 3131
I I</w> 3131
税 务 3129
有 者</w> 3128
198 0</w> 3128
插 入</w> 3127
纪 律</w> 3127
徒 刑</w> 3127
合法 权益</w> 3126
海 滩</w> 3124
指 令</w> 3124
宝 贝</w> 3123
讲 习</w> 3123
盈 利</w> 3122
马 拉</w> 3120
决 赛</w> 3120
次 数</w> 3119
紧 紧</w> 3119
手 臂</w> 3118
三 次</w> 3117
南 亚</w> 3116
引 渡</w> 3115
言 语</w> 3114
慷 慨</w> 3114
周 日</w> 3113
微 生物</w> 3112
构成 犯罪</w> 3111
解 雇</w> 3110
部 份</w> 3110
放 置</w> 3109
深 信</w> 3109
采 集</w> 3109
公安 机关</w> 3108
外 界</w> 3105
集 成</w> 3104
冷 战</w> 3104
第三 章</w> 3103
戏 剧</w> 3102
善 良</w> 3101
失 踪</w> 3101
洛 杉 3100
陌 生人</w> 3100
测 试 3099
破 裂</w> 3099
纷 纷</w> 3099
姐 妹</w> 3098
形 容</w> 3097
气 味</w> 3097
认 同</w> 3097
短 语</w> 3096
处 分</w> 3096
安 娜</w> 3096
摩 托 3095
都 市</w> 3094
此 后</w> 3094
拥 抱</w> 3093
身 体 3092
e v 3092
8 7</w> 3091
涵 盖</w> 3090
文 物</w> 3089
走 上</w> 3089
互 动</w> 3088
ati on 3088
一九 九 3088
不 定</w> 3087
电 源</w> 3087
皇 家</w> 3087
荣 幸</w> 3087
董事 长</w> 3087
排 名</w> 3086
莫 斯科</w> 3085
遥 远</w> 3084
芯 片</w> 3084
监 视</w> 3084
学 金</w> 3083
分 解</w> 3083
9 5</w> 3083
冬 季</w> 3082
5 0%</w> 3082
化 剂</w> 3081
维 生素</w> 3081
火 焰</w> 3080
火 灾</w> 3080
广 泛 3080
难 过</w> 3080
聊 天</w> 3079
尼 亚 3075
折 磨</w> 3074
犹太 人</w> 3074
决 不</w> 3072
追 踪</w> 3072
理 论 3072
镜 子</w> 3072
明 亮</w> 3071
莎 白</w> 3070
不 知 3068
紧 急 3068
笑 话</w> 3067
传 说</w> 3065
决 策 3064
篮 球</w> 3064
发现 自己</w> 3062
不 动</w> 3061
新 界</w> 3061
荣 耀</w> 3059
拜 访</w> 3058
加 沙</w> 3057
雷 曼</w> 3057
颁 发</w> 3056
披 露</w> 3056
包 裹</w> 3055
加 利 3054
天 上</w> 3053
干 事</w> 3052
后 悔</w> 3051
听 众</w> 3051
罗 马 3050
豁 免</w> 3050
大 鼠</w> 3048
朝 着</w> 3048
谢 您</w> 3048
如 说</w> 3048
产 业 3046
女 王</w> 3045
屠 杀</w> 3043
遗 传 3042
剩 余</w> 3042
战 士</w> 3040
两 只</w> 3039
音 机</w> 3036
楼 宇</w> 3036
宝 宝</w> 3036
通 知 3036
情 节</w> 3036
日 本 3034
金 牌</w> 3033
主 席 3033
生产 总值</w> 3033
第 一步</w> 3032
克 里 3030
运 气</w> 3030
契 约</w> 3028
进 度</w> 3027
生物 学</w> 3027
这 块</w> 3026
纳 税 3026
缩 小</w> 3025
睡 着</w> 3025
席 位</w> 3025
指 导 3023
志 愿 3023
士 学位</w> 3021
看 电视</w> 3019
强 有力</w> 3019
早 些时候</w> 3019
九 年</w> 3018
车 子</w> 3018
8 5</w> 3018
草 地</w> 3015
否 定</w> 3015
普 及</w> 3015
谋 求</w> 3015
酒 精</w> 3014
变 为</w> 3014
接 待</w> 3013
V D</w> 3013
宁 愿</w> 3012
使用 权</w> 3012
长 远</w> 3011
负 荷</w> 3010
流 动性</w> 3009
介 意</w> 3007
增 多</w> 3006
敌 对</w> 3006
不 良 3005
邪 恶</w> 3005
发 光</w> 3004
唱 歌</w> 3004
收 回</w> 3003
好 事</w> 3003
借 鉴</w> 3002
代表 性</w> 3001
信用 证</w> 3001
马 拉 3000
租 赁</w> 3000
宏 观</w> 2999
光 线</w> 2998
好 多</w> 2998
7 4</w> 2998
伸 出</w> 2998
嘉 莉</w> 2997
区 政府</w> 2997
会 上</w> 2996
章 程</w> 2996
今 年 2996
禁 毒</w> 2995
宴 会</w> 2995
6 7</w> 2995
大 自然</w> 2994
服 用</w> 2994
阴 影</w> 2994
办 公</w> 2993
马 斯</w> 2992
7 1</w> 2990
民 事</w> 2990
纲 要</w> 2990
盒 子</w> 2989
家 乡</w> 2988
跨 国</w> 2988
金 属 2987
行 走</w> 2985
矿 物</w> 2984
控制 器</w> 2984
政治 家</w> 2984
这 名</w> 2983
助 者</w> 2983
免 疫 2981
几 周</w> 2980
上 市 2978
脑 袋</w> 2975
主 办</w> 2974
迷 人</w> 2974
某 种 2974
上市 公司</w> 2973
7 6</w> 2972
习 惯 2972
小 女孩</w> 2971
税 务</w> 2971
人 能</w> 2970
再 度</w> 2970
女 孩子</w> 2970
操 纵</w> 2969
高 度 2967
所 用</w> 2967
回 复</w> 2967
互 利</w> 2967
是 非</w> 2965
祭 司</w> 2962
步 伐</w> 2962
得 不到</w> 2961
第四 章</w> 2961
再 说</w> 2960
行 人</w> 2958
吉 姆</w> 2958
出租 车</w> 2958
鞋 子</w> 2956
大 宗</w> 2955
此 刻</w> 2955
干 部</w> 2953
详 细 2953
节 奏</w> 2953
改 革 2953
以 免</w> 2952
不 像</w> 2951
深 化</w> 2950
转 型</w> 2949
组 织 2949
屋 里</w> 2948
---- ---- 2948
情 景</w> 2946
慈 善</w> 2945
久 性</w> 2942
选 择 2941
那 次</w> 2940
等 候</w> 2940
预 先</w> 2940
7 8</w> 2939
人 心</w> 2938
皇 帝</w> 2938
贸 发</w> 2938
力 度</w> 2937
严 格 2937
流 通</w> 2933
一 体</w> 2932
散 发</w> 2932
完 全 2931
检察 院</w> 2930
画 面</w> 2929
诗 歌</w> 2929
an k</w> 2929
圆 形</w> 2928
开 玩笑</w> 2928
股 票 2928
夫 妻</w> 2928
忠 诚</w> 2928
i s</w> 2928
生 殖</w> 2927
当 年</w> 2927
我 家</w> 2926
W e 2926
现 出</w> 2926
粮 农 2926
奖 金</w> 2926
撤 出</w> 2926
粮农 组织</w> 2926
英 寸</w> 2925
反 射</w> 2925
景 观</w> 2925
喜 悦</w> 2925
坚 强</w> 2925
大 力</w> 2924
威 廉</w> 2923
我 爱 2922
全国 人民代表大会</w> 2922
国民 经济</w> 2922
精 彩</w> 2921
清 醒</w> 2921
党 人</w> 2921
麦 克</w> 2920
后 勤</w> 2920
业 界</w> 2919
电话 号码</w> 2919
伊 丽 2918
时 常</w> 2917
秘书 处</w> 2917
198 8</w> 2917
依法 追究</w> 2917
碎 片</w> 2914
信息 系统</w> 2914
必 不可 2912
绝 大多数</w> 2911
五 十 2910
促 成</w> 2910
上 个月</w> 2909
感 动</w> 2907
预 算 2907
腐 蚀</w> 2907
an d</w> 2906
天 才</w> 2905
有 机 2904
没 事</w> 2904
罗 斯 2903
喝 酒</w> 2903
适 宜</w> 2902
偏 见</w> 2902
促 请</w> 2902
物 业</w> 2901
公 爵</w> 2901
忽 然</w> 2901
脉 冲</w> 2900
鱼 类</w> 2899
会 晤</w> 2899
进 而</w> 2898
而 成</w> 2897
尔 森</w> 2897
巴 布 2897
禽 流感</w> 2897
毫 不</w> 2897
易 于</w> 2896
乘 坐</w> 2896
马 车</w> 2894
北 美</w> 2894
盟 约</w> 2894
发 电</w> 2892
全 身</w> 2892
过 后</w> 2889
搜 寻</w> 2889
近 来</w> 2888
灵 活性</w> 2888
卡 尔</w> 2887
水 面</w> 2886
纯 粹</w> 2886
水 泥</w> 2885
老 婆</w> 2885
把 手</w> 2885
菜 单</w> 2883
密 封</w> 2882
风 雨</w> 2882
伊丽 莎白</w> 2882
之 为</w> 2881
拉 圭</w> 2881
十二 月</w> 2881
前 来</w> 2880
受 益 2880
规 例</w> 2880
建 成</w> 2878
引 人 2878
示 范</w> 2878
演 变</w> 2878
一 看</w> 2877
一 届</w> 2877
二 年</w> 2876
J o 2875
航 天 2874
法 治</w> 2872
著 作 2870
9 9</w> 2870
代 谢</w> 2868
史 蒂 2868
en t 2866
生 理</w> 2865
三 角 2865
缩 短</w> 2864
上 文</w> 2864
哥伦 比亚</w> 2864
高 温</w> 2863
昆 虫</w> 2861
无 辜</w> 2860
必不可 少</w> 2860
在 外</w> 2859
本 月</w> 2859
轻 微</w> 2859
零 零</w> 2858
麻 醉 2858
一 处</w> 2857
不 足 2857
负 有</w> 2857
本 次</w> 2856
瞬 间</w> 2855
倾 听</w> 2855
贩 运</w> 2855
减 肥</w> 2854
垂 直</w> 2853
大 选</w> 2852
比 克</w> 2852
8 8</w> 2852
厉 害</w> 2851
骨 折</w> 2848
1 4 2848
专 注</w> 2848
抛 弃</w> 2847
有 钱</w> 2846
债 权人</w> 2846
运 输 2845
艰 苦</w> 2843
弯 曲</w> 2842
谅 解</w> 2842
1 20</w> 2841
一 双</w> 2839
融 入</w> 2838
D VD</w> 2838
种族 隔离</w> 2838
葡萄 牙</w> 2838
电 缆</w> 2837
超 声</w> 2837
致 力</w> 2837
介 质</w> 2836
所 涉</w> 2835
配 备</w> 2834
佛 罗 2834
联合 会</w> 2834
灯 光</w> 2833
严 峻</w> 2832
一 行</w> 2830
纳 税</w> 2830
实 地</w> 2829
言 论</w> 2829
翅 膀</w> 2828
野 生 2827
影 像</w> 2826
直升 机</w> 2826
通知 书</w> 2826
升 高</w> 2825
不 懈</w> 2824
球 迷</w> 2824
醒 来</w> 2824
I S 2823
一 副</w> 2822
产 阶级</w> 2821
橡 胶</w> 2821
对 冲</w> 2819
矩 阵</w> 2819
重 大 2818
订 立</w> 2818
多 元 2817
申 诉</w> 2817
编 号</w> 2817
洛杉 矶</w> 2816
想 着</w> 2814
求 解</w> 2814
六 个月</w> 2813
少 量</w> 2813
跨 国 2812
贝 尔 2811
上 课</w> 2811
结 算</w> 2811
通 往</w> 2811
o p 2811
我爱 你</w> 2811
参 照</w> 2810
外 商 2810
威 尔</w> 2810
蔓 延</w> 2810
提 问</w> 2809
尔 顿</w> 2809
过 多</w> 2809
迈 克</w> 2809
紧 缩</w> 2808
文 职</w> 2807
确 定性</w> 2807
有 毒</w> 2806
楼 梯</w> 2806
控 件</w> 2805
信 件</w> 2805
大 地</w> 2802
志愿 者</w> 2802
数 百 2801
谋 杀</w> 2801
澳 门 2799
守 则</w> 2799
冷 却</w> 2799
2 5 2797
廉 价</w> 2797
卧 室</w> 2797
配 偶</w> 2796
术 后</w> 2796
所在 地</w> 2796
一 致 2795
西 非</w> 2795
晚 会</w> 2795
纳税 人</w> 2795
风 景</w> 2793
从 此</w> 2792
歌 手</w> 2791
游 行</w> 2791
对 称</w> 2790
辩 护</w> 2790
步 行</w> 2789
原 本</w> 2788
过 渡 2788
字 符</w> 2785
大 批</w> 2783
老 年</w> 2783
钢 琴</w> 2783
走 路</w> 2783
勘 探</w> 2783
伤 口</w> 2783
援助 团</w> 2783
同 等</w> 2780
提 倡</w> 2780
半 岛</w> 2779
再 生</w> 2778
截 止</w> 2778
管理 员</w> 2778
地 域</w> 2777
最 多</w> 2777
放 下</w> 2776
弗 兰 2774
试 试</w> 2774
两 周</w> 2774
远 处</w> 2772
虚 假</w> 2772
高速 公路</w> 2772
以 致</w> 2771
拓 展</w> 2771
辈 子</w> 2770
垃 圾 2769
C or 2767
语 音</w> 2767
9 4</w> 2767
预 订</w> 2766
音乐 会</w> 2764
中 部</w> 2763
创造 性</w> 2763
争 吵</w> 2761
误 解</w> 2760
监 禁</w> 2760
图 书</w> 2758
女 朋友</w> 2758
it y</w> 2758
胳 膊</w> 2755
钢 铁</w> 2754
优 良</w> 2754
伤 亡</w> 2754
无 力</w> 2752
使 馆</w> 2752
结果 显示</w> 2752
注 定</w> 2751
元 首</w> 2751
议 案</w> 2751
热 点</w> 2750
底 下</w> 2750
备 忘 2749
卖 方</w> 2749
备忘 录</w> 2749
所 示</w> 2747
存 放</w> 2747
部 落</w> 2746
凯 恩</w> 2745
参 阅</w> 2744
语 言 2744
气 象 2743
做 成</w> 2742
收 缩</w> 2742
奥林匹 克</w> 2741
讲 座</w> 2740
农 业 2740
入 口</w> 2739
殖民 地</w> 2739
区 内</w> 2738
a k 2738
工 艺 2737
民 用</w> 2736
I M 2736
奠 定</w> 2736
预防 性</w> 2736
奶 奶</w> 2735
计 量</w> 2733
开 口</w> 2732
保护 区</w> 2732
见 证</w> 2731
c h</w> 2731
图 表</w> 2730
展 望</w> 2730
善 于</w> 2730
体 会</w> 2729
称 之为</w> 2729
叔 叔</w> 2729
L e 2727
巴 士</w> 2726
买 方</w> 2725
备 案</w> 2725
搭 配</w> 2724
你 方</w> 2723
发 誓</w> 2722
传 达</w> 2722
阐 明</w> 2721
拥 挤</w> 2720
a s</w> 2720
训 练 2719
介 入</w> 2718
祷 告</w> 2718
不 适</w> 2715
星 星</w> 2714
数 以 2714
优 雅</w> 2714
o v 2714
抽 烟</w> 2713
外 出</w> 2713
承包 商</w> 2713
国家 有关</w> 2712
这 使</w> 2711
带 领</w> 2711
回 合</w> 2710
温 室</w> 2709
青 春</w> 2709
选 定</w> 2708
特 权</w> 2707
对 照</w> 2706
不 能 2706
创 业</w> 2706
不在 乎</w> 2706
内 涵</w> 2704
最 低 2704
写 信</w> 2704
人 来</w> 2703
莫 桑 2703
几 十年</w> 2703
3 0%</w> 2702
PD F</w> 2701
r y</w> 2700
毫 不 2700
一 点儿</w> 2699
东 道 2699
莫桑 比克</w> 2699
中 等</w> 2698
国 防</w> 2698
延 续</w> 2698
做 事</w> 2697
D NA</w> 2696
M ic 2696
来 讲</w> 2696
脖 子</w> 2696
9 6</w> 2695
政府 部门</w> 2694
保 养</w> 2693
囚 犯</w> 2693
动物 园</w> 2693
日 报</w> 2692
9 2</w> 2692
美 妙</w> 2691
摄 影</w> 2691
一 顿</w> 2689
中 美洲</w> 2688
打 印</w> 2688
后 代</w> 2687
不 准</w> 2686
高 达</w> 2686
逃 避</w> 2686
o f 2685
处 以</w> 2684
反 倾 2684
速 率</w> 2684
外 来</w> 2684
丢 失</w> 2684
赞 美</w> 2683
人民 检察院</w> 2683
列 车</w> 2682
天文 台</w> 2682
人 格</w> 2681
3 0 2680
坚 信</w> 2680
潮 流</w> 2679
合作 伙伴</w> 2679
检 索</w> 2678
on e</w> 2678
质 量 2677
肩 膀</w> 2677
卓 越</w> 2677
异 性</w> 2677
街 头</w> 2677
传 媒</w> 2677
农 产品</w> 2677
天 赋</w> 2676
写 道</w> 2676
集 会</w> 2675
无 聊</w> 2675
十 二</w> 2675
哭 泣</w> 2675
这 类</w> 2674
法律 法规</w> 2672
也 就是说</w> 2671
优 先 2669
妥 协</w> 2669
地 毯</w> 2668
一 架</w> 2666
复 议</w> 2666
假 定</w> 2666
索 引</w> 2664
这 话</w> 2662
上 下</w> 2662
期 徒刑</w> 2662
剧 院</w> 2662
集 体 2661
水 域</w> 2661
I P 2660
封 闭</w> 2659
月 底</w> 2658
不 及</w> 2658
长期 以来</w> 2658
光 学</w> 2657
比 利 2657
列 为</w> 2656
陆 地</w> 2656
紧 迫</w> 2656
开 放 2653
升 值</w> 2652
刊 登</w> 2651
签 字</w> 2649
塔 吉 2648
村 民</w> 2648
一点 点</w> 2648
一 会</w> 2647
过 境</w> 2646
源 自</w> 2646
战 场</w> 2646
外商 投资</w> 2645
一 千 2644
大 力 2644
必 将</w> 2644
旅 程</w> 2644
s h 2644
研究 生</w> 2644
c om</w> 2641
服 从</w> 2640
通 用 2640
玩 家</w> 2640
证券 公司</w> 2640
周 六</w> 2639
版 权</w> 2639
大 人</w> 2638
特 区</w> 2638
言 之</w> 2638
培 育</w> 2637
伙 人</w> 2637
性 恋</w> 2635
高 压</w> 2635
空 调</w> 2633
货币 政策</w> 2633
往 来</w> 2632
网 球</w> 2631
煤 矿</w> 2631
A S 2628
奴 隶</w> 2628
er s</w> 2628
不 着</w> 2627
水 分</w> 2627
说 来</w> 2627
厌 恶</w> 2627
8 6</w> 2626
查 尔斯</w> 2624
芬 兰</w> 2624
致 使</w> 2621
派 出</w> 2621
管理 者</w> 2621
得 成功</w> 2620
罕 见</w> 2620
中央 政府</w> 2619
失业 率</w> 2619
基 层</w> 2617
罢 工</w> 2616
奖 学金</w> 2616
修 正 2615
广 州</w> 2615
夜 间</w> 2615
亲 密</w> 2615
眼 中</w> 2614
纺织 品</w> 2613
二氧化 碳</w> 2612
称 赞</w> 2611
生产 商</w> 2611
不 妨</w> 2610
走 廊</w> 2610
天 生</w> 2609
平 时</w> 2608
示 威</w> 2608
舞 会</w> 2607
时 报</w> 2607
宣 告</w> 2607
十 月</w> 2607
恋 爱</w> 2606
干 达</w> 2605
适 用 2605
字 符 2605
尽 早</w> 2604
健 康 2604
4 0%</w> 2604
布 尔</w> 2603
7 9</w> 2603
限 额</w> 2602
本 着</w> 2601
一 款</w> 2601
大 学 2601
i t</w> 2601
M L</w> 2600
伊 尔</w> 2600
主席 团</w> 2600
大 气 2599
排 列</w> 2599
日 志</w> 2598
上 级</w> 2598
残 酷</w> 2598
平 安</w> 2597
u m 2597
冰 箱</w> 2596
过 滤</w> 2596
运动 会</w> 2596
击 败</w> 2595
花 钱</w> 2595
路 斯</w> 2595
乌 干达</w> 2595
共同 努力</w> 2595
价 钱</w> 2594
银行 家</w> 2593
法 则</w> 2592
最 快</w> 2592
总 之</w> 2591
到 期</w> 2591
切 尔 2590
努 力 2590
单 纯</w> 2589
极 度</w> 2588
行 驶</w> 2587
有 名</w> 2587
解 析</w> 2587
土 著</w> 2586
总 监</w> 2586
新 娘</w> 2586
神 奇</w> 2586
体 积</w> 2585
塞 浦 2585
射 击</w> 2585
溶 液</w> 2585
致 电</w> 2585
定 量</w> 2584
元 件</w> 2584
镜 头</w> 2583
内 存</w> 2581
施 加</w> 2581
斯 洛 2580
秋 天</w> 2580
i l</w> 2580
野生 动物</w> 2580
每 人</w> 2579
6 9</w> 2579
苹 果 2579
2 50</w> 2578
一 轮</w> 2577
A I 2577
酷 刑</w> 2575
看 不到</w> 2573
眼 光</w> 2573
本 发明</w> 2572
物 料</w> 2572
撤 离</w> 2572
操作 系统</w> 2572
初 级</w> 2571
起 床</w> 2570
急 剧</w> 2570
中 午</w> 2569
深 入 2568
托 人</w> 2567
基 准</w> 2567
ro up</w> 2567
小 孩子</w> 2566
废 除</w> 2566
二 月</w> 2565
u b 2565
前 所 2564
编 程</w> 2563
放射 性</w> 2563
获 胜</w> 2562
举 动</w> 2562
停 车 2560
赞 助</w> 2559
抵 制</w> 2558
会 面</w> 2556
9 3</w> 2556
生态 系统</w> 2556
狭 窄</w> 2555
话 语</w> 2555
赚 钱</w> 2555
姿 态</w> 2555
一 股</w> 2554
新 生</w> 2554
与 会 2553
没 法</w> 2553
大 城市</w> 2552
开 启</w> 2548
合 伙人</w> 2548
捐 助者</w> 2548
一 口</w> 2547
鸟 儿</w> 2547
经 委</w> 2544
固 定 2544
受 访者</w> 2544
o d 2544
a y</w> 2544
光 谱</w> 2543
出 境</w> 2543
部 长 2543
世界 杯</w> 2542
8 1</w> 2541
冲 动</w> 2540
服务 员</w> 2540
詹 姆斯</w> 2539
繁 殖</w> 2539
台 湾 2539
成 像</w> 2538
特 设</w> 2537
遣 返</w> 2537
a y 2536
几 何</w> 2535
会 同</w> 2535
外 观</w> 2535
塞浦 路斯</w> 2535
电 邮</w> 2534
负 债</w> 2534
描 绘</w> 2533
嫁 给</w> 2531
充 满 2531
猜 测</w> 2531
轿 车</w> 2530
摩 擦</w> 2529
打 扰</w> 2529
轴 承</w> 2529
申请 书</w> 2529
按 时</w> 2528
水 道</w> 2528
简 介</w> 2528
8 3</w> 2527
修正 案</w> 2527
布 局</w> 2523
中 小企业</w> 2523
美 利 2522
白 人</w> 2522
q u 2522
补 救</w> 2521
固 体</w> 2521
8 2</w> 2521
骨 头</w> 2519
笑 容</w> 2519
谎 言</w> 2519
在 一起</w> 2518
平 常</w> 2518
房 价</w> 2518
积极 参与</w> 2518
年 初</w> 2517
1 00 2517
心理 学</w> 2517
不 当</w> 2515
分 数</w> 2515
话 说</w> 2515
催 化剂</w> 2514
此 基础</w> 2513
A l 2513
威 尔 2513
电视 节目</w> 2513
主 导</w> 2512
宁 静</w> 2512
快 点</w> 2512
尴 尬</w> 2512
湿 地</w> 2511
景 象</w> 2511
分 成</w> 2510
违 法 2509
午 饭</w> 2509
周 知</w> 2508
无 所 2508
销 量</w> 2507
澳 洲</w> 2506
居 然</w> 2505
C E 2504
正 规</w> 2504
城 堡</w> 2503
G DP</w> 2502
迄 今 2502
诱 惑</w> 2502
某 事</w> 2501
小 伙 2500
调 控</w> 2500
塞 尔</w> 2499
相关 性</w> 2499
总 署</w> 2497
沿 海</w> 2497
影 子</w> 2496
基 因 2496
演 说</w> 2496
线 索</w> 2495
生态 环境</w> 2495
爱 人</w> 2494
高 级 2493
前 任</w> 2493
前 款</w> 2493
从 没</w> 2492
我 用</w> 2492
去 过</w> 2492
ati on</w> 2492
不 必要</w> 2491
犹 如</w> 2491
任 职</w> 2491
习 俗</w> 2491
宝 石</w> 2490
势 头</w> 2489
六 十 2489
社会 保障</w> 2489
星 球</w> 2488
思 想 2488
救 灾</w> 2488
利 用 2486
条 文</w> 2485
细 胞 2484
蒙 古</w> 2483
可 乐</w> 2481
交 货</w> 2481
长 者</w> 2480
起 初</w> 2479
电 厂</w> 2479
所 能</w> 2478
委 任</w> 2478
参 议院</w> 2477
复杂 性</w> 2477
长 久</w> 2476
建 模</w> 2475
夜 里</w> 2475
整 整</w> 2475
派 对</w> 2475
历史 性</w> 2474
半 个</w> 2472
亏 损</w> 2472
依赖 于</w> 2472
一 分钟</w> 2471
用 法</w> 2471
童 年</w> 2471
用 地</w> 2470
原 先</w> 2470
跨国 公司</w> 2470
留 给</w> 2469
E C</w> 2467
丹 尼尔</w> 2467
常 设</w> 2466
服务 业</w> 2466
多 项</w> 2465
即 时</w> 2465
辉 煌</w> 2464
裙 子</w> 2464
模 板</w> 2463
手 上</w> 2461
医 药</w> 2459
外交 部长</w> 2458
子 弹</w> 2457
2 5%</w> 2457
加利 福 2457
儿 童 2456
出 租</w> 2455
g e</w> 2455
不 容</w> 2454
执 政</w> 2454
就 业 2453
有 何</w> 2452
无 知</w> 2451
八 月</w> 2450
魔 法</w> 2450
七 个</w> 2450
一 切 2449
索 取</w> 2447
安 盟</w> 2446
在 场</w> 2444
A m 2444
第二 期</w> 2444
ac h 2444
加 深</w> 2443
就 让</w> 2443
布 置</w> 2442
有 意思</w> 2442
三 十</w> 2442
论 点</w> 2442
传 来</w> 2442
被 捕</w> 2442
原 材料</w> 2441
开 幕 2441
赶 上</w> 2441
选 用</w> 2440
冻 结</w> 2440
in a</w> 2439
大 幅度</w> 2438
跟 随</w> 2437
十 分 2437
工作 队</w> 2437
收 藏</w> 2436
电视 机</w> 2436
阿 布 2435
四 川</w> 2435
次 序</w> 2435
双 语</w> 2435
蜡 烛</w> 2435
永 不</w> 2434
众 所 2434
一 下 2432
非 统 2432
总 共</w> 2432
听 力</w> 2432
非统 组织</w> 2432
男 女 2431
轻 轻</w> 2430
山 上</w> 2430
碰 撞</w> 2430
院 长</w> 2430
本 土</w> 2429
草 原</w> 2429
好 了</w> 2428
绳 子</w> 2428
斯 顿</w> 2427
模 具</w> 2427
筛 选</w> 2427
加 利亚</w> 2426
封 锁</w> 2426
肯 尼亚</w> 2426
i e</w> 2426
逃 跑</w> 2426
优 美</w> 2425
评 审</w> 2425
军 方</w> 2425
豪 华</w> 2425
得 多</w> 2424
记 载</w> 2424
理 智</w> 2424
弱 点</w> 2424
机 票</w> 2422
可 不是</w> 2422
不 堪</w> 2422
牛 肉</w> 2422
考 生</w> 2422
一 倍</w> 2420
大 于</w> 2420
转 动</w> 2420
小 镇</w> 2420
当 地 2419
耦 合</w> 2418
吁 请</w> 2417
树 枝</w> 2416
简 短</w> 2416
大 师</w> 2414
胡 子</w> 2413
静 脉</w> 2413
第一 章</w> 2413
爷 爷</w> 2412
呼 吸 2412
评 级</w> 2411
两 倍</w> 2411
洁 净</w> 2411
绩 效</w> 2411
英 文 2410
二 十</w> 2410
恢 复 2410
嘲 笑</w> 2409
年 间</w> 2409
乃 是</w> 2409
尾 巴</w> 2408
税 率</w> 2408
称 作</w> 2407
假 日</w> 2407
危 及</w> 2407
新 建</w> 2406
小伙 子</w> 2406
四 分之一</w> 2405
玛 丽 2405
莱 坞</w> 2404
营 地</w> 2404
第三 次</w> 2401
众所 周知</w> 2401
结 局</w> 2399
极 限</w> 2399
日 益 2398
电 梯</w> 2398
记 忆 2398
伙 计</w> 2398
裁 判</w> 2398
陶 瓷</w> 2397
销 毁</w> 2396
这 样 2396
1 5%</w> 2396
t o</w> 2396
拉 里</w> 2395
珍 惜</w> 2395
签 发</w> 2395
名 额</w> 2394
摄 影 2394
交 叉</w> 2393
原 油</w> 2393
开 办</w> 2393
点 燃</w> 2393
词 语</w> 2393
岁 月</w> 2393
多元 化</w> 2393
管理 系统</w> 2392
志 愿</w> 2391
算 是</w> 2390
管理 层</w> 2390
不 明</w> 2389
摩托 车</w> 2389
学 期</w> 2388
患 有</w> 2388
火 山</w> 2387
决 定性</w> 2387
弟 兄</w> 2387
新 疆</w> 2386
两 岸</w> 2386
有 过</w> 2385
过 时</w> 2385
讯 息</w> 2385
报 复</w> 2384
责 备</w> 2383
头 痛</w> 2382
欧 安 2380
减 小</w> 2379
倾 斜</w> 2379
困 惑</w> 2379
先 后</w> 2378
人 工 2377
火 星</w> 2377
天 天</w> 2377
仍 旧</w> 2377
歌 唱</w> 2376
保 加利亚</w> 2376
纳 米</w> 2376
登 上</w> 2376
8 4</w> 2375
览 会</w> 2375
好 消息</w> 2374
气 温</w> 2374
推 销</w> 2374
硬 币</w> 2374
视 角</w> 2373
盘 子</w> 2373
C D</w> 2372
决 权</w> 2372
天 气 2372
长 得</w> 2372
可 不</w> 2371
不 符</w> 2371
下 周</w> 2371
犹 大</w> 2371
元 区</w> 2371
印 机</w> 2371
找 个</w> 2371
四 处</w> 2370
测 量 2370
欧 元区</w> 2370
科 研</w> 2369
超 市</w> 2366
枪 支</w> 2366
采 矿</w> 2366
树 立</w> 2365
古 怪</w> 2365
教 导</w> 2365
织 物</w> 2365
理 事</w> 2364
假 装</w> 2364
9 8</w> 2364
信息 技术</w> 2364
导 体</w> 2363
性 化</w> 2362
魔 鬼</w> 2361
崇 拜</w> 2360
侵 害</w> 2359
树 上</w> 2358
开 门</w> 2357
收 拾</w> 2357
导 演</w> 2357
原 有</w> 2356
比 如说</w> 2355
中 毒</w> 2354
稍 微</w> 2354
简 历</w> 2354
同 行</w> 2353
商 学院</w> 2353
跑 步</w> 2353
分之 二</w> 2353
薄 膜</w> 2352
C T</w> 2351
导 航</w> 2351
留 意</w> 2350
西班牙 语</w> 2350
走 私</w> 2349
推 翻</w> 2349
大 致</w> 2348
福 特</w> 2348
恤 金</w> 2348
前所 未有</w> 2348
九 十 2346
外 资</w> 2346
接 纳</w> 2345
多 人</w> 2343
常 委会</w> 2343
举 止</w> 2343
德 尔</w> 2342
不 确定性</w> 2342
遣 队</w> 2342
伪 造</w> 2342
裤 子</w> 2342
视 图</w> 2341
没 想到</w> 2341
阵 线</w> 2341
叶 子</w> 2340
丝 毫</w> 2340
处理 器</w> 2340
特 殊 2338
e y</w> 2338
好 看</w> 2337
想 像</w> 2336
东 欧</w> 2336
少 女</w> 2335
In ter 2335
身 材</w> 2334
0 1</w> 2332
8 9</w> 2332
占 用</w> 2332
嫌 疑 2332
好 莱坞</w> 2331
私 营 2331
园 里</w> 2331
平方 米</w> 2331
纳 米 2330
异 议</w> 2330
盆 地</w> 2330
会计 师</w> 2330
沉 积</w> 2329
匈 牙 2329
这 本</w> 2328
深 圳</w> 2328
太 好了</w> 2327
塑 料 2327
大 臣</w> 2326
雨 水</w> 2326
带 走</w> 2324
破 坏 2324
陪 审 2324
流 体</w> 2323
适 应 2323
画 家</w> 2323
开 来</w> 2322
信 赖</w> 2322
扫 雷</w> 2321
二 百 2321
手 工</w> 2320
同 志</w> 2320
作 文</w> 2320
篇 文章</w> 2320
欧安 会</w> 2320
学 历</w> 2318
出 血</w> 2318
买 家</w> 2317
约 束 2317
好 奇</w> 2317
骚 扰</w> 2317
布 斯</w> 2316
埃 塞 2316
穿 越</w> 2316
北 约</w> 2315
印 尼</w> 2315
腺 癌</w> 2314
重 要 2314
分 泌</w> 2314
以 防</w> 2313
为 重要</w> 2313
依 旧</w> 2313
抢 劫</w> 2313
广泛 应用</w> 2313
知 名</w> 2312
渗 透</w> 2312
休 闲</w> 2312
总 量</w> 2311
笔 记 2311
情 人</w> 2311
不 管 2309
征 服</w> 2309
野 生</w> 2308
戒 指</w> 2307
继 续 2306
断 裂</w> 2306
庇 护</w> 2306
预 言</w> 2305
爱 德 2304
迄今 为止</w> 2303
讽 刺</w> 2302
特 网</w> 2301
格 林</w> 2301
早 日</w> 2301
发 了</w> 2299
带 上</w> 2298
犹 豫</w> 2297
头 部</w> 2297
棕 色</w> 2297
可 否</w> 2296
挣 扎</w> 2296
去 除</w> 2295
平 稳</w> 2295
购 物 2295
更 具</w> 2294
冰 淇 2294
事务 所</w> 2294
高 盛</w> 2293
汇 票</w> 2293
比利 时</w> 2293
风 险 2292
消 化</w> 2292
9 1</w> 2292
逃 离</w> 2292
垄 断</w> 2291
射 线</w> 2290
增 幅</w> 2290
o g 2289
生 境</w> 2288
创 立</w> 2288
美利 坚 2288
标 识</w> 2287
转 身</w> 2286
合 伙</w> 2286
M or 2284
嘴 唇</w> 2284
最 少</w> 2281
人 大 2280
毒 性</w> 2280
贵 族</w> 2280
改革 开放</w> 2280
真 空</w> 2279
家 属</w> 2279
佣 金</w> 2279
天 线</w> 2278
矿 石</w> 2278
飞 船</w> 2277
期 货</w> 2277
与会 者</w> 2276
橄 榄 2275
收 音机</w> 2274
宿 舍</w> 2274
流 域</w> 2273
销 商</w> 2273
印 第 2273
世 人</w> 2273
擅 长</w> 2273
足 球 2272
景 色</w> 2272
先 知</w> 2272
蒸 汽</w> 2272
产品 质量</w> 2272
预 约</w> 2271
置 于</w> 2271
0 8</w> 2270
纤 维 2270
身 子</w> 2269
临 床 2269
内 战</w> 2268
身 后</w> 2267
开 幕</w> 2267
托 管</w> 2267
中国 共产党</w> 2267
换 句 2266
制 服</w> 2266
配 件</w> 2266
单 击</w> 2266
塑 造</w> 2266
兔 子</w> 2266
通 报</w> 2265
让 步</w> 2265
人 选</w> 2264
高 质量</w> 2264
克 逊</w> 2262
解 散</w> 2262
虚 拟 2262
旅 费</w> 2261
美利坚 合众国</w> 2261
特 有</w> 2260
益 处</w> 2260
日 后</w> 2259
书 写</w> 2259
齿 轮</w> 2259
帝 汶</w> 2259
不 开</w> 2258
流 失</w> 2258
高 管</w> 2258
198 7</w> 2258
埃塞 俄 2258
麦 凯恩</w> 2257
C A 2257
低 成本</w> 2257
一 小 2256
此 举</w> 2256
十 一月</w> 2256
崇 高</w> 2256
比 较 2255
联 赛</w> 2255
东 省</w> 2255
期 内</w> 2255
营 运</w> 2255
实 践 2254
养 老 2254
相互 作用</w> 2254
柏 林</w> 2253
并 发 2253
还 给</w> 2253
督 察</w> 2253
除 此 2252
注 目</w> 2252
受 过</w> 2252
姿 势</w> 2252
C O 2251
同 胞</w> 2251
继 承 2250
走 开</w> 2250
粮 食 2250
上 方</w> 2249
目 睹</w> 2249
冰淇 淋</w> 2249
一 枚</w> 2248
实 习</w> 2248
放 入</w> 2248
一 封</w> 2247
营 商</w> 2247
信 誉</w> 2246
东 帝汶</w> 2245
统 一 2244
途 中</w> 2244
第五 章</w> 2244
显 示 2243
全 面 2243
巨 人</w> 2243
飞行 员</w> 2243
光 纤</w> 2242
名 人</w> 2242
突 尼斯</w> 2242
th e</w> 2242
并发 症</w> 2241
单 身</w> 2240
放 心</w> 2240
快 要</w> 2240
猴 子</w> 2240
伊斯 兰 2240
十 字</w> 2239
放 大</w> 2239
非 政府</w> 2238
厚 度</w> 2237
教科 文 2237
数 十 2236
发 布 2235
犯 下</w> 2235
0 7</w> 2233
深 远</w> 2233
俄 国</w> 2233
减 缓</w> 2233
连 接 2232
掩 盖</w> 2232
键 盘</w> 2231
本 级</w> 2230
海 盗</w> 2230
视 野</w> 2230
摩 洛 2230
示 例</w> 2230
三 分之二</w> 2230
第一 条</w> 2229
协 同</w> 2228
彩 色</w> 2228
配 方</w> 2227
首 歌</w> 2227
世界 大战</w> 2226
纸 张</w> 2225
教科文 组织</w> 2225
多 样</w> 2224
指 明</w> 2224
文 学 2222
经 纪 2222
卡 拉</w> 2221
摩洛 哥</w> 2221
失 效</w> 2220
全国 人民代表大会常务委员会</w> 2220
对外 贸易</w> 2220
红 外</w> 2219
神 话</w> 2219
罪 恶</w> 2218
多 种 2217
关 系 2217
几 内 2217
P h 2217
换句 话说</w> 2217
扭 转</w> 2216
住 宿</w> 2216
一 再</w> 2215
配 额</w> 2215
局 局长</w> 2215
院 子</w> 2215
油 田</w> 2214
频 道</w> 2214
林 业</w> 2213
传 统 2213
测 器</w> 2212
A C</w> 2212
第 六</w> 2212
遏 制</w> 2211
嘉 宾</w> 2210
诊 所</w> 2210
住 所</w> 2210
毛 病</w> 2209
出 门</w> 2209
情 愿</w> 2209
第一 百 2209
发 票</w> 2207
便 于</w> 2207
概 括</w> 2207
星期 日</w> 2207
中 止</w> 2206
艾 伦</w> 2205
埃塞俄 比亚</w> 2205
更 高</w> 2203
9 7</w> 2203
阿 塞 2202
美 味</w> 2202
萧 条</w> 2202
跨 越</w> 2202
难 度</w> 2201
坚 持 2201
人 节</w> 2200
置 信</w> 2200
放 进</w> 2199
增 添</w> 2199
女 生</w> 2198
忠 实</w> 2198
区域 性</w> 2198
相 连</w> 2197
很 棒</w> 2197
漠 化</w> 2197
匈牙 利</w> 2197
打 断</w> 2196
征 聘</w> 2195
厕 所</w> 2195
联邦 政府</w> 2195
行 动 2193
小 鼠</w> 2193
最 具</w> 2192
耕 地</w> 2192
替 换</w> 2192
不 已</w> 2191
主 持 2191
空 缺</w> 2191
无 比</w> 2190
关 上</w> 2190
字 典</w> 2190
犯 人</w> 2190
火 炬</w> 2189
了 不起</w> 2189
得 分</w> 2188
萨 尔 2188
地 中 2187
交 际</w> 2186
改 组</w> 2186
准 时</w> 2185
直 线</w> 2185
伙 伴 2185
打 发</w> 2184
葡 萄</w> 2184
面 上</w> 2183
幼 儿</w> 2183
论 证</w> 2182
大 道</w> 2181
网 格</w> 2181
退 化</w> 2181
f f 2180
面 孔</w> 2179
因 特网</w> 2178
哪 怕</w> 2178
上 海 2177
凡 是</w> 2177
过 得</w> 2177
I V</w> 2177
偶 像</w> 2177
百 万 2175
布 拉 2175
米 尔</w> 2175
巴 尼亚</w> 2175
磨 损</w> 2175
一 整天</w> 2174
大 纲</w> 2174
大 笑</w> 2173
沙 发</w> 2173
金 色</w> 2171
盖 茨</w> 2171
取 出</w> 2171
当 成</w> 2170
新 华 2170
0 6</w> 2170
悲 惨</w> 2170
泄 漏</w> 2170
电子 商务</w> 2169
非 凡</w> 2168
有 期徒刑</w> 2167
预 料</w> 2167
全 民</w> 2167
参 加 2167
发 酵</w> 2166
角 落</w> 2165
用 户 2164
感 性</w> 2164
一 艘</w> 2163
程 式</w> 2163
天 性</w> 2163
u d 2163
嫉 妒</w> 2163
东道 国</w> 2163
从 句</w> 2162
苍 白</w> 2162
强 壮</w> 2162
坟 墓</w> 2162
累 积</w> 2161
换 成</w> 2161
闻 名</w> 2160
法 郎</w> 2160
仇 恨</w> 2160
厂 商</w> 2159
发 作</w> 2159
列 举</w> 2158
益 于</w> 2158
中国人民 银行</w> 2158
七 日</w> 2157
潮 湿</w> 2157
柔 软</w> 2157
一 首</w> 2156
水 质</w> 2156
学 员</w> 2156
兑 换</w> 2156
鲜 花</w> 2156
第三 方</w> 2156
es t 2156
资本 主义</w> 2156
一 路</w> 2155
乌 拉圭</w> 2155
各 界</w> 2154
手 法</w> 2154
矿 产 2154
唱 片</w> 2153
著 作</w> 2152
在 此 2151
亚 美 2150
默 认</w> 2149
丑 闻</w> 2149
供 水</w> 2148
航 天</w> 2148
印 发</w> 2148
标准 化</w> 2148
已 知</w> 2147
孤 立</w> 2147
格 局</w> 2146
伦 理</w> 2146
s e</w> 2146
当 初</w> 2145
单 个</w> 2145
创 伤</w> 2145
测 验</w> 2144
录 像</w> 2144
填 补</w> 2143
瑞 拉</w> 2142
借 助</w> 2142
本 能</w> 2140
杀 人</w> 2140
方 位</w> 2139
8 0%</w> 2139
再 生 2139
嘴 里</w> 2139
挫 折</w> 2139
大 事</w> 2138
同 性恋</w> 2138
准 许</w> 2137
乐 器</w> 2136
外 套</w> 2136
理 查 2136
尺 度</w> 2136
抽 象</w> 2135
受 损</w> 2135
连 同</w> 2134
问 问</w> 2133
废 水</w> 2133
新 增</w> 2132
杯 子</w> 2131
停车 场</w> 2131
分 担</w> 2130
第四 次</w> 2130
起 飞</w> 2129
地 狱</w> 2129
显 而易 2129
钱 包</w> 2129
绘 制</w> 2129
经济 衰退</w> 2129
手 表</w> 2128
开 罗</w> 2128
祖 先</w> 2128
显而易 见</w> 2128
静 态</w> 2127
缘 故</w> 2127
i d</w> 2127
上 校</w> 2126
山 谷</w> 2126
香 烟</w> 2126
Ad d</w> 2126
残 忍</w> 2125
特 遣队</w> 2124
好 运</w> 2124
市 中心</w> 2124
B ank</w> 2124
u s</w> 2124
肚 子</w> 2124
人 性</w> 2122
宽 容</w> 2122
空 白</w> 2121
摄 像 2121
州 长</w> 2121
近 日</w> 2121
载 体</w> 2121
预 见</w> 2120
最 有</w> 2120
液 压</w> 2120
裁 员</w> 2120
字符 串</w> 2120
不 锈 2119
会 费</w> 2119
两 大</w> 2119
暴 风雨</w> 2119
微 小</w> 2118
邮 政局</w> 2118
句 话</w> 2118
无 意</w> 2117
艰 巨</w> 2117
报 名</w> 2116
停 车</w> 2116
巡 逻</w> 2116
避 开</w> 2116
u c 2116
约翰 逊</w> 2115
富 人</w> 2114
不 成</w> 2114
老 虎</w> 2114
瓶 子</w> 2114
学 费</w> 2113
巨 头</w> 2113
越 过</w> 2113
灵 感</w> 2113
技术 人员</w> 2113
晶 体</w> 2112
打 扮</w> 2111
词 典</w> 2111
净 化</w> 2111
免 受</w> 2111
这 片</w> 2110
积 金</w> 2109
悠 久</w> 2109
克 隆</w> 2108
远 镜</w> 2108
维 斯</w> 2108
船 员</w> 2108
s i 2108
百分 点</w> 2108
起 源</w> 2107
路 易 2107
第三 条</w> 2107
推 理</w> 2106
核 实</w> 2105
e b 2105
设 在</w> 2104
出 国</w> 2104
望 远镜</w> 2104
可 惜</w> 2103
不 止</w> 2103
样 式</w> 2103
并 购</w> 2103
痕 迹</w> 2102
聘 用</w> 2102
卡 片</w> 2101
思 议</w> 2101
义 务 2100
佛罗 里 2100
不 应</w> 2099
雅 各</w> 2099
期 刊</w> 2098
阿塞 拜 2098
不 予</w> 2097
开 列</w> 2097
来 信</w> 2097
分 手</w> 2097
伙伴 关系</w> 2097
多 地</w> 2096
7 0%</w> 2096
事 儿</w> 2095
山 区</w> 2095
摩 根 2095
绑 架</w> 2095
选 举 2094
出 台</w> 2094
负 面</w> 2093
间 隔</w> 2093
获 悉</w> 2091
天 晚上</w> 2091
门 徒</w> 2091
延 期</w> 2091
男 朋友</w> 2091
阿塞拜 疆</w> 2091
应 变</w> 2090
总 局</w> 2089
预 备</w> 2089
干 活</w> 2088
手 套</w> 2088
合 理 2088
资 金 2088
顺 便</w> 2088
墙 壁</w> 2088
不可 思议</w> 2088
行 程</w> 2087
移 交</w> 2087
国 主义</w> 2086
兴 建</w> 2085
这 边</w> 2084
希 尔</w> 2084
好 几个</w> 2084
轮 胎</w> 2083
事 业 2083
身 心</w> 2083
健 身</w> 2083
十 八 2082
丹 利</w> 2082
第 九条</w> 2082
a t</w> 2082
领导 者</w> 2082
科学 研究</w> 2082
0 4</w> 2081
邮 局</w> 2081
民 政</w> 2081
5 000</w> 2081
匆 匆</w> 2081
开 头</w> 2080
王 后</w> 2080
顶 部</w> 2080
定 于</w> 2079
低 估</w> 2079
认 出</w> 2079
男 士</w> 2079
缔 约</w> 2079
198 5</w> 2079
东 盟</w> 2078
定 居</w> 2078
e p 2078
供应 链</w> 2078
裂 缝</w> 2077
证 明书</w> 2077
郊 区</w> 2077
有效 期</w> 2077
来 文</w> 2076
随 之</w> 2076
包 围</w> 2076
涉 嫌</w> 2076
自由 化</w> 2076
脚 步</w> 2075
矿产 资源</w> 2075
内 向</w> 2074
地 表</w> 2074
眼 里</w> 2074
撰 写</w> 2074
灿 烂</w> 2074
中 说</w> 2073
道 德 2073
海 湾</w> 2073
宏 观 2073
规 约</w> 2073
禁 运</w> 2072
映 射</w> 2072
第六 条</w> 2072
多 余</w> 2071
真 实 2071
杰 夫</w> 2071
商 场</w> 2071
电 气</w> 2070
站 点</w> 2070
款 人</w> 2070
充分 利用</w> 2070
热 线</w> 2069
肌 肤</w> 2069
实 话</w> 2069
声 誉</w> 2069
革 新</w> 2069
le y</w> 2069
多 大</w> 2068
各 个 2067
花 园里</w> 2067
山 顶</w> 2067
配 套</w> 2066
回 避</w> 2066
祖 父</w> 2066
亦 可</w> 2065
管 如此</w> 2065
兴 起</w> 2065
尽 管如此</w> 2065
留 下来</w> 2065
总 体 2064
心 态</w> 2064
破 碎</w> 2064
亚美 尼亚</w> 2064
干 嘛</w> 2063
被 动</w> 2063
扭 曲</w> 2062
净 额</w> 2062
坚 固</w> 2062
阿尔 及 2062
投 票 2061
物 价</w> 2061
战 术</w> 2061
客 厅</w> 2061
武装 部队</w> 2061
同 伴</w> 2060
子 孙</w> 2060
家 禽</w> 2060
家 务</w> 2060
罢 了</w> 2060
诚 信</w> 2059
助 手</w> 2059
一 辈子</w> 2058
说 谎</w> 2058
膝 盖</w> 2058
时 会</w> 2057
缓 和</w> 2057
毫 米</w> 2057
一下 子</w> 2056
有 待</w> 2055
法 定 2055
熊 猫</w> 2055
民 国</w> 2055
恐 慌</w> 2055
飓 风</w> 2055
ol d 2055
奉 献</w> 2054
柜 台</w> 2053
答 道</w> 2053
借 贷</w> 2053
半 小时</w> 2052
击 者</w> 2052
合 同 2051
上 年</w> 2050
启 示</w> 2049
士 丹利</w> 2049
发 表 2049
珠 宝</w> 2048
礼 品</w> 2048
几 点</w> 2048
深 受</w> 2048
政 客</w> 2048
书 面 2047
0 9</w> 2047
初 始</w> 2047
驻 地</w> 2047
队 长</w> 2047
欺 诈</w> 2047
侵 蚀</w> 2046
亲 戚</w> 2046
第二 条</w> 2046
智 利</w> 2045
做 过</w> 2045
保 管</w> 2045
分 支</w> 2045
狂 热</w> 2045
摩根 士丹利</w> 2045
保 守 2044
终 身</w> 2044
福 音</w> 2043
详 尽</w> 2043
毒 素</w> 2043
经 由</w> 2042
赌 博</w> 2042
孟 加拉 2042
优 惠 2041
改 良</w> 2041
不 顾</w> 2040
性 感</w> 2040
果 实</w> 2040
右 边</w> 2040
富 翁</w> 2039
电 网</w> 2039
苏 珊</w> 2039
浏 览 2039
杰 克逊</w> 2038
利 物 2038
酸 盐</w> 2038
成 形</w> 2037
裁 减</w> 2037
刊 物</w> 2037
塔 尔</w> 2036
委 内 2036
排 斥</w> 2035
农 夫</w> 2035
原 则 2034
视 力</w> 2034
连 续 2034
瓦 多</w> 2033
两 条</w> 2032
危 地 2032
磁 场</w> 2030
并 用</w> 2030
两 项</w> 2030
争 夺</w> 2029
地中 海</w> 2029
的 是</w> 2028
化 石</w> 2028
劳 工 2028
采 纳</w> 2028
Inter n 2028
见 过</w> 2026
祖 母</w> 2026
a d</w> 2026
选 票</w> 2025
口 味</w> 2025
发 觉</w> 2024
百分 比</w> 2024
零售 商</w> 2024
新 生 2023
毁 坏</w> 2023
酌 情</w> 2023
赶 到</w> 2022
既 有</w> 2022
束 缚</w> 2021
商务 部</w> 2021
拆 除</w> 2019
强制 性</w> 2018
八 届</w> 2017
褐 色</w> 2017
198 6</w> 2017
表达 式</w> 2017
大 夫</w> 2016
项 目 2016
提 出 2016
治 愈</w> 2016
la n 2016
外 线</w> 2015
乙 烯</w> 2015
票 据</w> 2015
相 对 2014
I T</w> 2014
发 电机</w> 2013
贩 卖</w> 2013
创造 力</w> 2013
器 件</w> 2012
阿尔 巴尼亚</w> 2012
萨尔 瓦多</w> 2012
存 储 2011
第五 条</w> 2010
指 向</w> 2009
售 价</w> 2008
最 长</w> 2007
委内 瑞拉</w> 2007
驱 动 2006
休 假</w> 2006
邻 近</w> 2006
车 上</w> 2005
十 个</w> 2005
下 班</w> 2004
二 十年</w> 2004
册 子</w> 2004
减 弱</w> 2004
倘 若</w> 2003
高尔 夫 2003
延 误</w> 2002
迈 出</w> 2002
想 不到</w> 2001
生 日 2000
无 情</w> 2000
宾 馆</w> 2000
雅 典</w> 2000
名 声</w> 1999
电 极</w> 1999
玩 耍</w> 1999
分析 方法</w> 1999
余 额</w> 1998
无 须</w> 1997
空 间 1997
木 头</w> 1997
驱 逐</w> 1997
经济 效益</w> 1997
in e</w> 1997
多 元</w> 1996
十五 日</w> 1996
照 料</w> 1995
变 暖</w> 1995
妥 善</w> 1995
造 型</w> 1994
马克 思 1994
显 微 1993
诱 导</w> 1993
叶 片</w> 1992
动 画</w> 1992
马 路</w> 1991
激 活</w> 1991
外 语</w> 1990
推 测</w> 1990
一 十</w> 1989
终 结</w> 1989
尼 加拉 1988
有 罪</w> 1988
清 晨</w> 1988
厌 倦</w> 1988
生 动</w> 1987
无 害</w> 1987
水 管</w> 1987
负 载</w> 1987
全 是</w> 1987
斯 基</w> 1986
主管 机关</w> 1986
所 致</w> 1985
勃 勃</w> 1985
发言 者</w> 1985
看 成</w> 1984
演 示</w> 1984
螺 旋</w> 1984
发展 趋势</w> 1984
危地 马拉</w> 1984
没 能</w> 1983
计算 方法</w> 1983
地 向</w> 1982
注 释</w> 1982
缴 付</w> 1982
信息 化</w> 1982
这 套</w> 1980
开 枪</w> 1980
信 封</w> 1980
降 临</w> 1980
照 明</w> 1979
公 开 1979
公 民 1979
抵 消</w> 1979
灾 区</w> 1979
i k 1979
尼加拉 瓜</w> 1979
水 手</w> 1978
一 堆</w> 1977
东 亚</w> 1977
门 外</w> 1977
不锈 钢</w> 1977
但 愿</w> 1976
经济 危机</w> 1976
人大 常委会</w> 1976
上 司</w> 1975
预 警</w> 1975
念 头</w> 1975
出 差</w> 1974
祝 愿</w> 1974
娱 乐 1974
研究 成果</w> 1974
铭 记</w> 1973
一 次 1973
身 旁</w> 1973
产 地</w> 1973
最高 法院</w> 1973
中 欧</w> 1972
经 验 1972
四 日</w> 1972
与 否</w> 1971
礼 拜</w> 1971
化 妆 1970
问 候</w> 1970
低 温</w> 1970
外 科</w> 1970
难以 置信</w> 1970
和 服</w> 1969
筹 集</w> 1969
ic h 1969
经纪 人</w> 1969
浪 费 1967
A T 1967
熟 练</w> 1967
反 抗</w> 1966
I t</w> 1966
段 落</w> 1966
利物 浦</w> 1966
格 达</w> 1965
惊 喜</w> 1965
民 警</w> 1965
民族 自治</w> 1965
见 解</w> 1964
关 怀</w> 1964
病 变</w> 1964
通 讯 1964
旗 下</w> 1964
高 科技</w> 1963
物 理 1963
微 波</w> 1963
这 台</w> 1962
回 国</w> 1962
勉 强</w> 1962
el l</w> 1962
C om 1961
上 限</w> 1961
称 呼</w> 1961
件 人</w> 1961
吸 附</w> 1960
三 日</w> 1960
高 新 1959
亲 切</w> 1959
哈 里</w> 1959
哈 拉</w> 1959
时 说</w> 1958
防 范</w> 1958
扣 除</w> 1958
不 好 1957
宇 航 1957
地 方 1957
培 训 1957
泳 池</w> 1957
责任 人员</w> 1957
战 斗 1956
判 处</w> 1956
毁 灭 1956
中 将</w> 1955
来 源于</w> 1955
近 东</w> 1955
警 报</w> 1955
胜 任</w> 1955
一 员</w> 1954
家 宝</w> 1954
小 偷</w> 1954
高 血压</w> 1953
植 物 1953
涂 料</w> 1953
电 报</w> 1953
教 材</w> 1953
v e</w> 1953
勤 奋</w> 1953
行 为 1952
压 迫</w> 1952
擅 自</w> 1952
花 朵</w> 1951
几 率</w> 1951
新华 社</w> 1951
不 易</w> 1950
离 职</w> 1950
数学 模型</w> 1950
老 是</w> 1949
固 有</w> 1949
扎 伊尔</w> 1949
胜 过</w> 1949
打 败</w> 1947
普 查</w> 1947
积 分</w> 1946
秒 钟</w> 1946
空 军</w> 1945
这 辆</w> 1945
复合 材料</w> 1945
克 萨 1944
导 向</w> 1944
界 限</w> 1944
型 号</w> 1944
货 车</w> 1943
发 病</w> 1943
珍 妮</w> 1943
溶 剂</w> 1943
必 要 1942
贯 彻</w> 1942
饮 酒</w> 1942
丽 丝</w> 1941
定 制</w> 1941
外 长</w> 1941
修 饰</w> 1940
巨 额</w> 1940
财 物</w> 1939
前 走</w> 1939
警 察 1939
选择 性</w> 1939
德 拉</w> 1938
燃 油</w> 1938
第一 天</w> 1938
不同 于</w> 1938
土 地 1937
界 线</w> 1937
尽 全力</w> 1937
干 细胞</w> 1936
以 为 1936
太 大</w> 1936
组 建</w> 1936
备 份</w> 1936
著作 权</w> 1936
亚 历 1935
经 贸</w> 1935
下 调</w> 1935
婚 姻 1935
美 德</w> 1935
崭 新</w> 1935
血 清</w> 1934
现 任</w> 1934
We b</w> 1934
一致 性</w> 1934
意 识 1933
法 国人</w> 1933
牲 畜</w> 1933
推 导</w> 1932
有 效率</w> 1931
U ni 1931
爱 好 1930
医 师</w> 1929
A P 1929
国有 企业</w> 1929
Jo h 1929
不 通</w> 1928
S p 1928
制 剂</w> 1928
二 次</w> 1928
海 域</w> 1927
好 人</w> 1927
西 藏 1926
违 约</w> 1926
人 文</w> 1926
精 英</w> 1926
高 出</w> 1925
切 除</w> 1925
充 实</w> 1925
1 2 1925
升 起</w> 1924
阿尔及 利亚</w> 1924
一 流</w> 1923
加 密</w> 1923
查 理</w> 1923
紫 色</w> 1923
第四 条</w> 1923
人 间</w> 1922
永 久性</w> 1922
辅 导</w> 1922
神经 网络</w> 1922
事务 处</w> 1922
震 动</w> 1921
想 念</w> 1921
起 点</w> 1921
十 五</w> 1921
爆 炸 1921
左 边</w> 1920
演 习</w> 1919
忙 碌</w> 1919
申请 表</w> 1919
面 部</w> 1918
地 理 1918
评 定</w> 1918
贬 值</w> 1918
ar t 1918
国 债</w> 1917
后 期</w> 1917
骑 士</w> 1917
中 是</w> 1916
金 山</w> 1916
出 示</w> 1916
邮 寄</w> 1916
密 集</w> 1915
气 息</w> 1915
覆 盖 1915
青 蛙</w> 1915
世界 卫生组织</w> 1915
达 尔 1913
有 序</w> 1913
人 际 1912
米 兰</w> 1912
开 辟</w> 1912
发 明 1912
控 告</w> 1912
公 平 1912
献 给</w> 1912
瑟 琳</w> 1912
全国 性</w> 1912
及 格</w> 1911
解 答</w> 1911
动 摇</w> 1911
岛 上</w> 1911
丧 生</w> 1911
恶 心</w> 1911
一 是</w> 1910
威 士 1910
鉴 别</w> 1910
胎 儿</w> 1909
某种 程度</w> 1909
输 送</w> 1908
斯 科 1908
平 原</w> 1908
0 2</w> 1908
警 惕</w> 1908
油 气</w> 1907
税 款</w> 1907
侮 辱</w> 1907
启 用</w> 1906
比 起</w> 1906
私 人 1906
离 去</w> 1906
舌 头</w> 1905
听 从</w> 1905
隐 私</w> 1905
短 信</w> 1904
经 贸 1904
乏 味</w> 1904
怎么 回事</w> 1904
累 计</w> 1903
装 箱</w> 1903
禁 令</w> 1903
未 知</w> 1902
榜 样</w> 1902
an c 1902
A r 1901
赶 快</w> 1901
钓 鱼</w> 1901
格 兰 1900
分 布 1900
上 空</w> 1899
好 转</w> 1899
9 0%</w> 1899
毁灭 性</w> 1899
尼 泊 1898
正 直</w> 1898
无 条件</w> 1897
挽 救</w> 1897
公 报</w> 1896
糖 果</w> 1896
一 来</w> 1895
海 边</w> 1895
招 呼</w> 1895
加 重</w> 1894
火 车站</w> 1894
召 集</w> 1894
情 节 1894
核 算</w> 1894
飙 升</w> 1894
中 文 1893
反 恐</w> 1893
搜 集</w> 1893
斯 达 1892
1 10</w> 1892
礼 服</w> 1891
倡 导</w> 1891
P L 1890
审 美</w> 1890
强 奸</w> 1890
销售 额</w> 1890
弗兰 克</w> 1890
听 听</w> 1889
行政 处分</w> 1889
专门 知识</w> 1889
不 服</w> 1888
评 论 1888
准 确性</w> 1887
几 百 1887
华 丽</w> 1887
第 一位</w> 1887
一 丝</w> 1886
模 拟 1886
约束 力</w> 1886
那 座</w> 1885
重 返</w> 1885
通 向</w> 1885
持续 性</w> 1885
东 南亚</w> 1884
繁 忙</w> 1884
小 册子</w> 1884
本 合同</w> 1883
197 8</w> 1883
起 身</w> 1881
深 切</w> 1881
路 面</w> 1881
切尔 西</w> 1881
不 曾</w> 1880
合 资</w> 1880
儿 女</w> 1879
意 味</w> 1879
阴 谋</w> 1879
恐怖 分子</w> 1879
向 下</w> 1878
考 核</w> 1878
期 满</w> 1877
打 扫</w> 1877
淀 粉</w> 1877
专 辑</w> 1877
凯 瑟琳</w> 1876
里 兰 1876
养 成</w> 1876
装 配</w> 1876
扶 持</w> 1876
效 能</w> 1875
该 死</w> 1875
抑 郁</w> 1875
成 型</w> 1875
今天 下午</w> 1875
厨 师</w> 1874
当 日</w> 1873
不 足以</w> 1872
警 官</w> 1872
有限 元</w> 1872
费 率</w> 1871
间 谍</w> 1871
自 私</w> 1870
马 尔 1869
棉 花</w> 1869
纺 织</w> 1869
鸟 类</w> 1869
羽 毛</w> 1868
引人 注目</w> 1868
本 项</w> 1867
眼 下</w> 1867
统 治 1867
职业 生涯</w> 1867
大 使馆</w> 1866
死 者</w> 1866
温 家宝</w> 1866
罗马 尼亚</w> 1866
澳门 特别行政区</w> 1865
麦 克 1864
浪费 时间</w> 1864
字 体</w> 1863
三 角</w> 1863
场 上</w> 1863
W ind 1862
a m</w> 1862
查 找</w> 1861
综合 性</w> 1861
会议 室</w> 1861
主 角</w> 1860
0 3</w> 1860
统 筹</w> 1860
娃 娃</w> 1860
狐 狸</w> 1860
行 径</w> 1859
淋 巴 1859
研究 员</w> 1859
爱 沙 1858
并 处</w> 1858
哲 学家</w> 1857
满 意 1857
棒 球</w> 1857
第四十 九届</w> 1857
按 摩</w> 1856
不 算</w> 1856
防 守</w> 1856
运 人</w> 1856
租 用</w> 1856
咳 嗽</w> 1856
孟加拉 国</w> 1856
反 弹</w> 1855
蜜 蜂</w> 1855
概 率</w> 1855
ha t</w> 1855
交 道</w> 1854
书 店</w> 1854
高 峰</w> 1854
存 活</w> 1854
养 护</w> 1854
In c</w> 1854
淘 汰</w> 1853
国 旗</w> 1851
直 觉</w> 1851
营 造</w> 1851
货 运</w> 1850
数 年</w> 1850
窗 外</w> 1850
文件 夹</w> 1850
西 斯</w> 1849
比 重</w> 1849
菲 尔德</w> 1849
氛 围</w> 1849
感 知</w> 1848
庄 严</w> 1848
爱沙 尼亚</w> 1848
海 里</w> 1847
吉 尔 1847
波 特</w> 1847
野 蛮</w> 1847
分 化</w> 1847
约 旦</w> 1846
知 情</w> 1846
平 行</w> 1846
接 管</w> 1846
调 度</w> 1846
蒙 特 1845
解决 办法</w> 1845
一 棵</w> 1844
大 不 1844
变 异</w> 1844
猛 烈</w> 1844
终 端</w> 1844
自然 资源</w> 1844
切 实 1843
一般 来说</w> 1843
浏览 器</w> 1843
亚 洲 1842
未 曾</w> 1842
几 位</w> 1842
萨 拉 1842
连 串</w> 1842
欢 呼</w> 1842
傻 瓜</w> 1842
凯 特</w> 1841
2 3 1841
调 试</w> 1841
咨 询 1841
非常 高兴</w> 1840
部长 级</w> 1840
辛 苦</w> 1839
宽 度</w> 1839
与 众 1839
力 气</w> 1839
阀 门</w> 1839
烹 饪</w> 1839
10 . 1839
在 我 1838
直 径</w> 1838
语 气</w> 1838
泄 露</w> 1838
经 常 1837
饲 料</w> 1837
意识 形态</w> 1837
容 许</w> 1836
沙 滩</w> 1836
宽 恕</w> 1835
器 材</w> 1835
出 具</w> 1835
议 事</w> 1835
崛 起</w> 1835
日 记</w> 1834
香 味</w> 1834
多 长时间</w> 1833
尼 克</w> 1833
动 用</w> 1833
利 斯</w> 1833
回 头</w> 1833
身 分</w> 1832
P S</w> 1832
A M 1832
大 豆</w> 1831
层 空间</w> 1831
好 吃</w> 1831
私 有 1831
外 层空间</w> 1831
贿 赂</w> 1831
与众 不同</w> 1831
实 物</w> 1830
指 派</w> 1830
历 程</w> 1830
津 巴布 1829
微 型</w> 1829
脚 本</w> 1829
深 感</w> 1829
通 风</w> 1829
快 速 1829
塔吉 克斯坦</w> 1829
滑 雪</w> 1828
管理 工作</w> 1828
生 于</w> 1827
中 药</w> 1827
大 象</w> 1827
良 心</w> 1827
告 别</w> 1827
绅 士</w> 1827
联 想</w> 1825
副 作用</w> 1825
泥 土</w> 1825
除此 之外</w> 1825
E x 1824
主持 人</w> 1824
填 充</w> 1823
感 到 1823
演 讲 1823
第 七条</w> 1823
奶 酪</w> 1823
津巴布 韦</w> 1823
有 望</w> 1822
容 纳</w> 1822
难 得</w> 1822
深 深 1822
第 八条</w> 1822
而 出</w> 1821
笔 者</w> 1821
获 益</w> 1821
巧 妙</w> 1821
校 正</w> 1821
简 报</w> 1821
乃 至</w> 1821
这 篇</w> 1820
天 下</w> 1820
户 外</w> 1819
G roup</w> 1819
支 架</w> 1819
宗教 信仰</w> 1819
树 叶</w> 1818
近 几 1817
估 算</w> 1817
聚 合物</w> 1816
E n 1816
何 处</w> 1816
小 船</w> 1816
停 下</w> 1816
构 想</w> 1816
呼 叫</w> 1816
高新 技术</w> 1816
小 心 1815
民 营</w> 1815
鼠 标</w> 1814
承 办</w> 1814
竭 力</w> 1814
核 能</w> 1814
ation al</w> 1814
林 肯</w> 1813
情节 严重</w> 1813
享 用</w> 1812
不 合</w> 1811
十 三</w> 1811
郁 症</w> 1811
很 强</w> 1811
抬 头</w> 1811
显 现</w> 1810
值 得 1810
现 已</w> 1810
帐 篷</w> 1810
空气 污染</w> 1810
多 方面</w> 1809
美 的</w> 1809
精 密</w> 1808
脚 下</w> 1808
艺术 品</w> 1808
为 本</w> 1807
补 助</w> 1806
供 电</w> 1806
资 深</w> 1806
密切 相关</w> 1806
车 间</w> 1805
轻 轻 1805
运 费</w> 1805
麦 当 1804
小 事</w> 1804
羊 毛</w> 1804
e w 1804
舆 论</w> 1804
激 起</w> 1803
开 出</w> 1802
爱 心</w> 1801
房 委会</w> 1801
多 媒体</w> 1800
固 醇</w> 1800
废 料</w> 1799
B S</w> 1799
B ro 1799
外 资企业</w> 1798
Wind ow 1798
十 六 1797
递 给</w> 1797
杆 菌</w> 1797
es s</w> 1797
保 障 1796
切 割</w> 1796
译 成</w> 1796
水 下</w> 1795
二 者</w> 1795
世界 贸易 1795
参加 者</w> 1795
哈 萨 1794
o u</w> 1794
民主 化</w> 1794
印第 安 1793
交 互</w> 1792
遥 感</w> 1792
实 证</w> 1792
凭 借</w> 1792
电影 院</w> 1792
演 化</w> 1791
第十 九条</w> 1791
完 毕</w> 1790
2 4 1790
友 好 1790
赐 给</w> 1790
哈 根</w> 1789
降 落</w> 1789
鲜 明</w> 1789
经济 社会</w> 1789
用 力</w> 1788
同 类</w> 1788
商 标 1788
再生 能源</w> 1788
赛 事</w> 1787
不 许</w> 1787
柴 油</w> 1787
智 能 1786
乐 于</w> 1786
赔 偿 1786
搜 索 1786
女 友</w> 1786
棘 手</w> 1786
陌 生</w> 1786
以 求</w> 1785
未 成年人</w> 1785
复 活</w> 1785
精 心</w> 1785
模 糊 1785
尼泊 尔</w> 1785
身 为</w> 1784
奥 委会</w> 1784
位 移</w> 1784
乙 方</w> 1784
经 受</w> 1783
悬 挂</w> 1783
都 是</w> 1782
轮 廓</w> 1782
定 罪</w> 1782
约 瑟</w> 1781
美 军</w> 1781
气 管</w> 1781
务 实</w> 1781
悲 哀</w> 1781
第十 四条</w> 1781
生 存 1780
电子 地图</w> 1780
全 年</w> 1779
肉 类</w> 1778
1 30</w> 1778
序 言</w> 1778
e g 1778
多 尔</w> 1777
前 者</w> 1776
贪 婪</w> 1776
惟 一</w> 1776
最 优</w> 1775
医 学 1775
尽 头</w> 1775
长 的</w> 1775
光 芒</w> 1774
清 算</w> 1774
完 整 1773
理查 德</w> 1773
亲 属</w> 1772
届 满</w> 1772
灌 溉</w> 1772
C ar 1771
排 队</w> 1771
山 羊</w> 1771
A N 1771
秘 鲁</w> 1771
刑 罚</w> 1770
装 运</w> 1770
湾 仔</w> 1769
卖 掉</w> 1769
支 柱</w> 1769
病 理</w> 1768
f or 1768
生产 者</w> 1768
没 关系</w> 1767
精 灵</w> 1766
汉 堡</w> 1766
摩 根</w> 1766
情 人节</w> 1766
卖 出</w> 1766
握 手</w> 1765
甜 蜜</w> 1765
有 助</w> 1764
离 子 1764
众 议院</w> 1764
寂 寞</w> 1764
消 毒</w> 1763
变 化 1763
慈 善 1763
反对 派</w> 1763
注 明</w> 1762
全 家</w> 1762
b er 1762
港 币</w> 1762
商 会</w> 1762
尼亚 州</w> 1762
兼 职</w> 1761
水 量</w> 1760
巴 格达</w> 1760
声 波</w> 1760
案 子</w> 1760
首 领</w> 1760
聘 请</w> 1760
客户 端</w> 1760
诚 意</w> 1759
很 久 1759
投资 银行</w> 1759
说 明书</w> 1758
量 化</w> 1758
硬 化</w> 1758
胀 率</w> 1758
第六 章</w> 1758
C o</w> 1757
来 回</w> 1757
族 裔</w> 1757
右 手</w> 1757
屋 子里</w> 1757
利 班</w> 1756
挑 战 1756
多 名</w> 1755
塔 利班</w> 1755
雷 斯</w> 1755
携 手</w> 1755
治 安</w> 1755
决策 者</w> 1755
股 本</w> 1754
佛 教</w> 1754
撤 回</w> 1754
克 制</w> 1753
大 雨</w> 1753
开 拓</w> 1752
人 类 1751
网 址</w> 1750
意 料</w> 1750
门 前</w> 1750
过 高</w> 1750
小 型 1749
登 录</w> 1749
伯 格</w> 1748
美 食</w> 1748
一 小</w> 1747
之 情</w> 1747
线 程</w> 1747
高 高 1747
信 中</w> 1747
相 符</w> 1747
坦 克</w> 1747
路 边</w> 1747
i m</w> 1747
蝴 蝶</w> 1747
奥林匹 克 1747
模 特</w> 1746
撒 谎</w> 1745
打 死</w> 1745
照 亮</w> 1744
d on</w> 1744
男 孩子</w> 1743
合法 性</w> 1743
情 报 1742
染 色 1742
盼 望</w> 1742
日 程</w> 1741
不 禁</w> 1741
主 机</w> 1741
请 参阅</w> 1741
内 阁</w> 1741
老 化</w> 1741
冰 岛</w> 1741
匆 忙</w> 1741
不 远</w> 1740
常 规 1740
雕 刻</w> 1740
全国 人大常委会</w> 1740
解放 军</w> 1740
吉 尔</w> 1739
2 7 1739
捍 卫</w> 1739
胡 锦 1738
记 录 1738
金融 体系</w> 1738
从 业 1737
海 峡</w> 1737
地 形</w> 1737
出 自</w> 1737
闪 电</w> 1737
社会 福利</w> 1737
孕 妇</w> 1736
身体 健康</w> 1736
S O 1735
扰 乱</w> 1735
发 售</w> 1734
巨 大 1734
必 定</w> 1733
F ed</w> 1733
布莱 尔</w> 1733
借 给</w> 1732
公共 卫生</w> 1732
Ch ina</w> 1732
海 伦</w> 1731
适 度</w> 1731
上 下文</w> 1730
笑 声</w> 1730
减 低</w> 1730
护 人</w> 1729
入 睡</w> 1729
个 子</w> 1729
几内 亚</w> 1729
一 夜</w> 1728
尼 古 1728
八 个</w> 1728
单 方面</w> 1728
198 4</w> 1728
G oo 1727
切 断</w> 1727
黑 夜</w> 1727
急 需</w> 1727
卫生 署</w> 1727
受害 人</w> 1727
胡锦 涛</w> 1727
环 保 1726
简 便</w> 1726
厘 米</w> 1726
尔 特</w> 1725
微 观</w> 1725
外 空</w> 1725
g an</w> 1725
希 拉里</w> 1724
照 射</w> 1724
哥 本 1724
司 长</w> 1724
敏 捷</w> 1724
日 至</w> 1723
在 意</w> 1723
光 滑</w> 1723
宣 传 1723
退 休 1723
分 支 1723
第十 条</w> 1723
捕 获</w> 1722
充 当</w> 1722
i c</w> 1722
地下 水</w> 1722
消 化 1721
饱 和</w> 1721
心理 学家</w> 1721
爱 国</w> 1720
脸 色</w> 1720
淹 没</w> 1720
办 事</w> 1719
总 务</w> 1719
搅 拌</w> 1719
展 出</w> 1719
母 语</w> 1719
剧 烈</w> 1719
营业 执照</w> 1719
会 员 1718
减 灾</w> 1718
I N 1718
保 卫</w> 1717
公 顷</w> 1717
届 时</w> 1717
诉 讼 1717
阻 力</w> 1716
台 阶</w> 1716
接 种</w> 1716
三 国</w> 1716
免 除</w> 1716
反倾 销</w> 1716
广 东</w> 1715
二 人</w> 1715
创 始 1715
半 数</w> 1713
达 州</w> 1713
雷 特</w> 1713
哺 乳 1713
谷 物</w> 1713
显微 镜</w> 1713
稍 后</w> 1712
人 造</w> 1712
恒 星</w> 1712
分 辨 1712
商 界</w> 1712
中 间 1711
水 流</w> 1711
暖 和</w> 1711
附 上</w> 1711
机 组</w> 1710
预 示</w> 1710
微 妙</w> 1710
洗 衣 1710
过渡 时期</w> 1710
一 年 1709
高 昂</w> 1709
夏 威 1709
一 连串</w> 1708
交 换 1708
近 代</w> 1708
矿 业</w> 1708
疟 疾</w> 1708
明 显 1707
没 人</w> 1707
A s 1707
成 本 1707
奇 妙</w> 1707
友 善</w> 1707
克 拉</w> 1706
象 是</w> 1706
防 扩散</w> 1706
先 决 1706
发 音</w> 1706
打 交道</w> 1706
排 放 1705
比 喻</w> 1705
收 养</w> 1705
高 效率</w> 1704
哥本 哈根</w> 1704
加 载</w> 1703
厂 家</w> 1703
拼 命</w> 1703
破坏 性</w> 1703
T O</w> 1702
格 拉</w> 1702
抚 养</w> 1702
6 0%</w> 1702
总 的 1701
在 职</w> 1700
横 向</w> 1700
雅 虎</w> 1700
会 话</w> 1700
搜 查</w> 1700
先决 条件</w> 1700
提 琴</w> 1699
装 修</w> 1699
盲 目</w> 1699
安 妮</w> 1698
甲 方</w> 1697
收 益 1697
楼 上</w> 1697
各 人</w> 1696
万 一</w> 1696
想 象 1696
付 给</w> 1696
马克思 主义</w> 1696
病 情</w> 1695
贪 污</w> 1695
常 会</w> 1694
深深 地</w> 1694
人 身</w> 1693
下 车</w> 1693
受 害</w> 1693
增 值</w> 1693
第十 一条</w> 1693
融 化</w> 1692
埃 尔</w> 1692
S c 1691
轨 迹</w> 1691
触 发</w> 1691
场 面</w> 1691
浴 室</w> 1691
款 额</w> 1691
多 多</w> 1690
就 象</w> 1690
时 髦</w> 1689
据 称</w> 1688
活 泼</w> 1688
旧 金山</w> 1688
遵 照</w> 1688
领 带</w> 1688
我 刚</w> 1687
向 导</w> 1687
州 市</w> 1687
成 品</w> 1687
泪 水</w> 1687
第十 三条</w> 1687
小 鸟</w> 1686
传 染</w> 1686
或 缺</w> 1685
手 提 1684
遗 嘱</w> 1684
致 辞</w> 1684
怜 悯</w> 1684
想象 力</w> 1683
怀 着</w> 1682
忠 告</w> 1682
失 误</w> 1682
交通 工具</w> 1682
轻轻 地</w> 1682
赶 紧</w> 1681
at e</w> 1681
开 端</w> 1680
柔 和</w> 1680
初 次</w> 1680
写 下</w> 1680
律 法</w> 1679
尤 为</w> 1679
皇 后</w> 1679
IM F</w> 1679
C on 1678
空 运</w> 1678
基 本法</w> 1677
借 款</w> 1677
t er</w> 1676
世界贸易 组织</w> 1676
金 银</w> 1675
海 关 1675
临 近</w> 1675
驾 车</w> 1675
维 多 1674
油 漆</w> 1674
航空 器</w> 1674
普遍 性</w> 1674
可 笑</w> 1673
达 成 1673
同 意 1673
会 为</w> 1673
暴 力 1673
日 内</w> 1672
外 科 1672
罪 名</w> 1672
泰 勒</w> 1671
赫 斯</w> 1671
观 者</w> 1671
格 丽 1671
诺 言</w> 1671
分 组</w> 1671
猜 想</w> 1671
援 引</w> 1671
地 球 1670
低 收入</w> 1670
开幕 式</w> 1670
排 序</w> 1669
这 时候</w> 1669
别 忘 1669
难 受</w> 1669
y n 1669
分支 机构</w> 1669
山 脉</w> 1668
恶 意</w> 1668
西 岸</w> 1667
地 质 1667
士 比亚</w> 1666
拿 走</w> 1666
获 利</w> 1666
莎 士比亚</w> 1666
压 制</w> 1665
近 似</w> 1665
语 义</w> 1665
描 写</w> 1665
一 到</w> 1663
里 程 1663
小 狗</w> 1663
眼 神</w> 1663
葬 礼</w> 1663
别忘 了</w> 1663
R E 1662
点 头</w> 1662
悲 观</w> 1662
美 学</w> 1661
窗 子</w> 1661
吻 合</w> 1661
工商 行政</w> 1661
喜 剧</w> 1660
l y</w> 1660
聆 听</w> 1660
国家 机关</w> 1660
一 步 1659
土 豆</w> 1659
主 语</w> 1659
朝 鲜 1659
开 销</w> 1659
田 野</w> 1659
游 览</w> 1659
二 级</w> 1659
卷 入</w> 1659
清 新</w> 1658
运 营商</w> 1657
现 今</w> 1657
克 里斯</w> 1656
湖 泊</w> 1656
侵 权</w> 1656
强 硬</w> 1656
触 摸</w> 1656
i ti 1656
面 貌</w> 1655
此 处</w> 1655
港 元</w> 1655
试 验 1655
傲 慢</w> 1655
水 晶</w> 1654
希 腊 1654
访 问 1654
开 创</w> 1653
斯 加</w> 1653
数 百万</w> 1653
装 有</w> 1653
工作 量</w> 1653
人道 主义 1653
人道主义 法</w> 1653
逆 转</w> 1652
色 情</w> 1652
牢 固</w> 1652
高 大</w> 1651
卡 罗 1650
正 当 1650
磁 盘</w> 1650
淡 水</w> 1650
相 遇</w> 1650
荧 光</w> 1650
促 销</w> 1650
三 大</w> 1649
研究 进展</w> 1649
非常 感谢</w> 1649
同意 书</w> 1649
一 词</w> 1648
温 度 1648
电 动</w> 1648
四 十</w> 1647
裂 纹</w> 1647
恶 魔</w> 1647
审 计 1647
城市 化</w> 1647
所 有者</w> 1646
坐 标</w> 1646
长 长的</w> 1646
整 洁</w> 1646
加 紧</w> 1645
双 眼</w> 1645
催 化</w> 1645
敞 开</w> 1645
达成 协议</w> 1645
服 饰</w> 1644
核 定</w> 1644
大 衣</w> 1643
多 达</w> 1643
学 业</w> 1643
涂 层</w> 1643
临 到</w> 1643
晓 得</w> 1643
款 式</w> 1643
萎 缩</w> 1643
不可 或缺</w> 1643
ou n 1643
爱好 者</w> 1643
半 导体</w> 1642
一 新</w> 1642
不 吃</w> 1642
八 十 1642
审 视</w> 1642
征 求</w> 1642
发布 会</w> 1642
一 带</w> 1641
主 观</w> 1641
体 外</w> 1641
临 时 1641
受益 人</w> 1641
除 去</w> 1640
归 还</w> 1640
激 光 1640
子 公司</w> 1639
出 生 1639
变 迁</w> 1639
抬 起</w> 1639
第十 二条</w> 1639
准 备 1638
收 支</w> 1638
举 起</w> 1638
午 夜</w> 1638
饲 养</w> 1637
墨西 哥 1637
振 兴</w> 1636
十 届</w> 1636
便 会</w> 1636
戒 烟</w> 1636
锁 定</w> 1636
反应 堆</w> 1636
克 林</w> 1635
饼 干</w> 1635
村 子</w> 1635
水 准</w> 1634
老 朋友</w> 1634
法 老</w> 1634
订 阅</w> 1634
有 制</w> 1633
更 能</w> 1633
辆 车</w> 1633
活 动 1632
共 振</w> 1632
省 级</w> 1632
民 工</w> 1632
中 立</w> 1631
亲 吻</w> 1631
农 药</w> 1631
甚 么</w> 1631
第十 五条</w> 1631
之 旅</w> 1630
春 节</w> 1630
购 买 1630
屁 股</w> 1630
猩 猩</w> 1630
ver s 1630
本 条</w> 1629
之 路</w> 1629
主 导 1629
负 面 1629
市 值</w> 1629
曼 联</w> 1629
进 球</w> 1628
自 觉</w> 1628
抽 屉</w> 1628
相 等</w> 1628
胞 胎</w> 1628
无 视</w> 1627
城 乡</w> 1627
屋 宇</w> 1627
幼 儿 1627
歌 声</w> 1626
精 美</w> 1626
小 时候</w> 1626
掩 饰</w> 1626
沿 岸</w> 1626
体育 运动</w> 1626
Mor gan</w> 1626
专 家 1625
摇 头</w> 1624
口 译</w> 1624
遗 忘</w> 1624
静 下来</w> 1624
公共 服务</w> 1624
原则 上</w> 1624
未 必</w> 1623
时 分</w> 1623
作 出 1623
过 失</w> 1623
烟 雾</w> 1622
猎 人</w> 1622
多 万</w> 1621
二 是</w> 1621
奇 异</w> 1621
i r</w> 1621
互联 网 1621
病 率</w> 1620
杀 伤</w> 1620
特别行政 区政府</w> 1620
国 政府</w> 1619
高 潮</w> 1619
叫 声</w> 1619
关 掉</w> 1619
玛 格丽 1619
逾 期</w> 1619
选 取</w> 1618
总 能</w> 1618
抗 体</w> 1618
核 证</w> 1618
二零零 六年</w> 1618
精 致</w> 1617
古 典</w> 1617
腹 部</w> 1617
购 置</w> 1617
顶 级</w> 1616
出 资</w> 1616
还 好</w> 1616
第一 届</w> 1616
高度 重视</w> 1616
氧 气</w> 1615
器 具</w> 1615
地 步</w> 1615
低 迷</w> 1615
债 务 1615
征 税</w> 1615
润 滑 1614
批 评 1614
L a 1614
坚 实</w> 1614
__ __ 1614
波 器</w> 1613
感 谢您</w> 1613
压 缩 1613
过 量</w> 1613
oo k</w> 1613
一 瓶</w> 1612
不 介意</w> 1612
感 应</w> 1612
颤 抖</w> 1612
沙 特 1611
衍 生</w> 1611
爱 上</w> 1610
P C 1610
实 务</w> 1610
普 京</w> 1610
降 解</w> 1610
降 到</w> 1610
歇 尔</w> 1610
认 真 1610
胚 胎</w> 1609
减 免</w> 1609
饮 用</w> 1609
奶 油</w> 1609
指 着</w> 1608
参 赛</w> 1608
快 捷</w> 1608
日 渐</w> 1607
中 非</w> 1607
不 佳</w> 1607
源 代码</w> 1607
世 贸 1607
处 长</w> 1606
重 叠</w> 1606
H ar 1605
天 主教</w> 1605
逗 留</w> 1605
生产 率</w> 1605
光 辉</w> 1604
事 后</w> 1604
用 处</w> 1604
水 库</w> 1604
货 品</w> 1604
旅 途</w> 1604
运 算</w> 1604
稳 固</w> 1603
压 器</w> 1603
静 静 1603
民 用 1603
违法 行为</w> 1603
为 准</w> 1602
品 尝</w> 1602
纯 洁</w> 1602
B ar 1602
不 用 1601
正 要</w> 1601
上 衣</w> 1601
老 实</w> 1601
剥 削</w> 1601
仔 细 1601
雕 像</w> 1601
基督 徒</w> 1601
机 密</w> 1600
判 定</w> 1600
陪 伴</w> 1600
房 产</w> 1600
生产 线</w> 1600
虚 弱</w> 1599
启 发</w> 1598
缩 减</w> 1598
钢 铁 1598
偏 离</w> 1598
建设 项目</w> 1598
大 叫</w> 1597
I B 1597
粗 糙</w> 1597
万 物</w> 1596
保 育</w> 1596
疲 倦</w> 1596
对 话 1595
不 容 1595
灰 尘</w> 1595
精 简</w> 1595
笔 记</w> 1595
结 尾</w> 1595
I S</w> 1595
大 有</w> 1594
不 敢 1593
争 执</w> 1593
幸 福 1593
可 观</w> 1592
使 者</w> 1592
子 宫</w> 1592
前 方</w> 1592
懒 惰</w> 1592
C D 1591
法 制</w> 1591
留 言</w> 1591
动 植物</w> 1590
来 得</w> 1590
明 治</w> 1590
堵 塞</w> 1590
闪 烁</w> 1589
陪审 团</w> 1589
入 学</w> 1588
摄 入</w> 1588
随 身 1588
顺 着</w> 1588
数 月</w> 1587
小 屋</w> 1587
检 控</w> 1587
金 子</w> 1586
特 使</w> 1585
主管 人员</w> 1585
士 们</w> 1584
印 刷 1584
中 外 1583
抗 生素</w> 1583
每 位</w> 1582
十 九 1582
洞 穴</w> 1582
僵 局</w> 1582
综合 征</w> 1582
一 口气</w> 1581
恳 求</w> 1581
羡 慕</w> 1581
从 那 1580
牛 仔 1580
无 人 1580
车 队</w> 1580
M P 1580
教 皇</w> 1580
1 2. 1580
l o 1580
疲 软</w> 1580
东 北</w> 1579
感 恩 1579
理 工 1579
198 2</w> 1579
青 年人</w> 1578
衰 老</w> 1578
锅 炉</w> 1578
on g</w> 1578
西 欧</w> 1577
台 上</w> 1577
带 动</w> 1577
外 壳</w> 1576
果 汁</w> 1576
拍 卖 1576
然 不同</w> 1576
改 性</w> 1576
免 得</w> 1576
剧 本</w> 1576
海 面</w> 1575
十 足</w> 1575
成 因</w> 1575
审 判 1575
g le</w> 1575
想 过</w> 1574
电 阻</w> 1574
捷 克</w> 1574
优 于</w> 1574
境 界</w> 1574
当地 人</w> 1574
集 装箱</w> 1573
双 边 1573
打 造</w> 1573
亚太 经 1573
科 索 1572
托 马斯</w> 1572
敬 意</w> 1572
伯 拉 1571
中 介</w> 1571
不 下</w> 1571
五 日</w> 1571
被 判</w> 1571
中华人民 共和 1571
收益 率</w> 1571
面 板</w> 1570
发 射 1570
再 也 1570
连 结</w> 1570
钟 头</w> 1569
负 债 1569
西 北</w> 1568
M BA</w> 1568
莎 拉</w> 1568
神 情</w> 1568
简 洁</w> 1568
18 0</w> 1568
多 于</w> 1567
办 学</w> 1567
时 要</w> 1567
下 令</w> 1567
黑 山</w> 1567
中 心 1566
拿 来</w> 1566
首 长</w> 1566
不 论 1565
S u 1565
高 尚</w> 1565
决 不会</w> 1565
怪 物</w> 1565
一次 性</w> 1565
空 前</w> 1564
上 周五</w> 1564
放 宽</w> 1564
经 销商</w> 1563
背 叛</w> 1563
软 弱</w> 1563
归 纳</w> 1563
政 策 1563
显 出</w> 1562
巴 尔 1562
戏 剧 1562
总 有</w> 1561
路 口</w> 1561
一百 一十</w> 1561
拉 脱 1560
高 原</w> 1560
资 料 1560
科索 沃</w> 1560
商品 价格</w> 1559
活 性 1558
1 1. 1558
兄 弟 1558
19 49</w> 1558
就业 机会</w> 1558
疲 力 1557
表 扬</w> 1556
人 要</w> 1556
当 今 1556
备 用</w> 1556
草 坪</w> 1556
第二十 三条</w> 1556
国 情</w> 1555
巴 拿 1555
白 俄罗斯</w> 1555
欧洲 人</w> 1555
拉脱 维亚</w> 1555
该 部</w> 1554
陆 军</w> 1554
特 质</w> 1553
观 光</w> 1553
I C 1553
铸 造</w> 1553
圣诞 老人</w> 1553
洛 克</w> 1552
持 有人</w> 1552
还 原</w> 1552
-- --</w> 1552
加 纳</w> 1551
出 名</w> 1551
广 东省</w> 1551
隐 瞒</w> 1551
现 存</w> 1551
3 000</w> 1551
冷 漠</w> 1551
e ar 1551
环境 影响</w> 1551
地 层</w> 1550
口 腔</w> 1550
过 敏</w> 1550
弹 药</w> 1550
喂 养</w> 1550
完整 性</w> 1550
分辨 率</w> 1550
乐 园</w> 1549
节 约 1549
客 气</w> 1549
不太 可能</w> 1549
伊斯兰 教</w> 1549
在我 看来</w> 1549
以 至</w> 1548
时 钟</w> 1548
重 力</w> 1548
A L 1548
胸 部</w> 1548
迫 切 1548
陛 下</w> 1548
沙特 阿拉伯</w> 1548
按 揭</w> 1547
加 利</w> 1547
迷 惑</w> 1547
力 求</w> 1547
侵 略 1547
玛格丽 特</w> 1547
性 行为</w> 1546
脂 肪 1546
A c 1546
肝 脏</w> 1546
以 内</w> 1545
组 装</w> 1545
外 债</w> 1545
傍 晚</w> 1545
激 进</w> 1545
用 人 1544
击 中</w> 1544
导 游</w> 1544
奖 项</w> 1544
那 场</w> 1543
名 誉</w> 1543
第七 章</w> 1542
用人 单位</w> 1542
热 门</w> 1541
197 9</w> 1541
和 谐 1540
十 一届</w> 1540
难 忘</w> 1540
附 带</w> 1540
心 思</w> 1539
私 隐</w> 1539
夸 张</w> 1539
瘫 痪</w> 1539
那 件事</w> 1538
化 工</w> 1537
沥 青</w> 1537
价格 上涨</w> 1537
搜索 引擎</w> 1537
往 常</w> 1536
蚂 蚁</w> 1536
星 系</w> 1535
蒸 发</w> 1535
暴 雨</w> 1535
摊 款</w> 1535
漏 洞</w> 1535
出口 商</w> 1535
斯洛 伐 1535
包 装 1534
规 管</w> 1534
互 相 1534
马克 思</w> 1534
防 空</w> 1533
夏威 夷</w> 1533
大 火</w> 1532
广 义</w> 1532
党 员</w> 1532
麻 醉</w> 1532
AI G</w> 1532
注 射 1531
长 城</w> 1531
毛 额</w> 1530
消 防</w> 1530
店 里</w> 1530
X ML</w> 1530
三 明治</w> 1530
不 相 1529
骨 骼</w> 1529
阻 挡</w> 1529
E R 1529
诺 贝尔 1529
信 徒</w> 1529
相 爱</w> 1529
沙 田</w> 1529
只 得</w> 1529
形 容 1528
列 颠</w> 1528
居 民 1528
召 唤</w> 1528
全 局</w> 1528
运 河</w> 1528
仁 慈</w> 1528
氨 酸</w> 1528
男 生</w> 1528
爱德 华</w> 1528
者 说</w> 1527
传 奇</w> 1527
农 作物</w> 1527
第二十 五条</w> 1527
太 高</w> 1526
自 定义</w> 1526
高 中 1526
镇 压</w> 1526
创始 人</w> 1526
微 弱</w> 1525
或 者说</w> 1524
行 了</w> 1524
就 行了</w> 1524
充 沛</w> 1524
h t 1524
化妆 品</w> 1524
借 此</w> 1523
加 斯</w> 1522
轻 重</w> 1522
兑 现</w> 1522
缺 席</w> 1522
背 上</w> 1522
肉 体</w> 1522
峡 谷</w> 1522
有所 不同</w> 1522
捕 捉</w> 1521
第四十 八届</w> 1521
开发 区</w> 1521
常规 武器</w> 1521
多 重</w> 1520
香 蕉</w> 1520
逃 脱</w> 1520
不 利于</w> 1519
刚 好</w> 1519
承 包</w> 1519
打 印机</w> 1519
核 对</w> 1519
肮 脏</w> 1519
用 到</w> 1518
批 判</w> 1518
夺 取</w> 1518
服务 中心</w> 1518
感恩 节</w> 1518
在 乎</w> 1517
一 阵 1517
抑 郁症</w> 1517
增 至</w> 1517
民 航</w> 1517
语 句</w> 1517
珍 珠</w> 1517
专 心</w> 1517
亚 伯拉 1516
范 例</w> 1516
资源 管理</w> 1516
亚伯拉 罕</w> 1516
拉 斯 1515
追 逐</w> 1515
余 地</w> 1515
过 滤 1515
撞 击</w> 1515
坦 桑 1515
青 睐</w> 1515
涨 幅</w> 1515
民主 主义</w> 1515
加 固</w> 1514
南 极</w> 1514
更 糟</w> 1514
作 证</w> 1514
晚 些时候</w> 1514
忧 郁</w> 1514
写 出</w> 1514
外交 政策</w> 1514
这 才</w> 1513
下 个月</w> 1513
法 兰 1513
拿 破 1513
c on 1513
唤 醒</w> 1513
196 7</w> 1513
型 期</w> 1512
分 辨</w> 1512
少 于</w> 1512
和平 部队</w> 1512
海 豚</w> 1511
花 旗 1511
工 具 1511
发 型</w> 1511
皮 革</w> 1511
W or 1511
奉 行</w> 1511
呈 现出</w> 1511
躲 避</w> 1511
承 担 1510
六 方 1510
犹 太</w> 1510
议 定</w> 1510
令人 满意</w> 1510
加 剂</w> 1509
斯 州</w> 1509
行政 区域</w> 1509
一 共</w> 1508
西 南</w> 1508
转 型期</w> 1508
头 顶</w> 1508
钞 票</w> 1508
建筑 师</w> 1508
事务 局</w> 1508
附 加 1507
混 合物</w> 1506
全 港</w> 1506
自然 界</w> 1506
六方 会谈</w> 1506
流 血</w> 1505
人 有</w> 1505
物 理学</w> 1505
二 战</w> 1505
衷 心</w> 1505
u m</w> 1505
棵 树</w> 1505
新生 儿</w> 1505
买 下</w> 1504
吕 斯</w> 1504
袋 子</w> 1504
出 身</w> 1503
胰 岛 1503
染色 体</w> 1503
半 球</w> 1502
吸 毒</w> 1502
如 果 1502
如果 说</w> 1502
圆 满</w> 1501
代 人</w> 1501
马 吕斯</w> 1501
撒 哈拉</w> 1501
常 任 1501
第二十 六条</w> 1501
体育 馆</w> 1501
周 边</w> 1500
经 纪</w> 1500
面 具</w> 1500
勒 斯</w> 1500
来 往</w> 1500
利 亚 1500
获 准</w> 1500
脑 子里</w> 1500
分 公司</w> 1500
送 交</w> 1500
估 价</w> 1500
处 决</w> 1499
产 值</w> 1499
形容 词</w> 1499
大 麻</w> 1498
自 决</w> 1498
高 贵</w> 1498
车 祸</w> 1498
来 时</w> 1498
更 长</w> 1498
怀 特</w> 1498
里程 碑</w> 1498
一 页</w> 1497
可 疑</w> 1497
平 凡</w> 1497
结 实</w> 1497
草 拟</w> 1497
核 试验</w> 1497
始 于</w> 1497
载 荷</w> 1497
p p 1497
玛丽 亚</w> 1497
高尔夫 球</w> 1497
衣 物</w> 1496
河 水</w> 1496
媒 体 1496
拿破 仑</w> 1496
地 去</w> 1495
喇 嘛</w> 1495
第二十 条</w> 1495
充分 发挥</w> 1495
奥 尔 1494
结构 性</w> 1494
日 元</w> 1493
不 怕</w> 1493
这 人</w> 1493
口 号</w> 1493
珊 瑚</w> 1493
I D</w> 1493
招 待</w> 1493
专利 权</w> 1493
天 花 1492
X X 1492
ic e</w> 1492
海 啸</w> 1491
行政 处罚</w> 1491
行 列</w> 1490
而 定</w> 1490
上 演</w> 1490
视 线</w> 1490
接 收 1490
1 60</w> 1490
健康 状况</w> 1490
创 新 1489
不用 说</w> 1489
胶 囊</w> 1488
五 分钟</w> 1487
切 换</w> 1487
所 指</w> 1487
预 备 1487
全 力 1487
终 点</w> 1487
霉 素</w> 1487
飞 往</w> 1486
C N 1485
菲 尔</w> 1485
奇 特</w> 1485
很 漂亮</w> 1485
塞 人</w> 1484
秘 诀</w> 1484
克 莱</w> 1483
不 受</w> 1483
动 手</w> 1483
身 高</w> 1483
创 下</w> 1483
萝 卜</w> 1482
不 觉</w> 1481
体 力</w> 1481
手 下</w> 1481
热 心</w> 1481
马 德里</w> 1481
私有 化</w> 1481
新 鲜 1480
好 玩</w> 1480
现 金 1480
履 行 1480
坏 事</w> 1480
身 穿</w> 1479
康 乐</w> 1479
矿 山</w> 1479
染 料</w> 1479
女 童</w> 1479
学术 界</w> 1479
投 机</w> 1478
加 油</w> 1478
热 窝</w> 1478
阻 塞</w> 1478
W TO</w> 1478
警 卫</w> 1478
废 弃</w> 1478
宫 殿</w> 1478
坦桑 尼亚</w> 1478
该 行</w> 1477
做 生意</w> 1477
付 费</w> 1477
过 剩</w> 1477
一 百</w> 1476
看 似</w> 1476
旗 帜</w> 1476
表 现 1475
来 访</w> 1475
人际 关系</w> 1475
管 局</w> 1474
恐 龙</w> 1474
有 空</w> 1473
要 花</w> 1473
青 春 1473
和谐 社会</w> 1473
一 封信</w> 1472
不 大</w> 1472
海 港</w> 1472
海 运</w> 1472
红 十字</w> 1472
所 罗 1472
较 强</w> 1472
突 变</w> 1472
审 讯</w> 1472
装 满</w> 1472
a h 1472
北 欧</w> 1471
气 球</w> 1471
移 动 1471
吃 掉</w> 1471
饥 荒</w> 1471
此 地</w> 1470
小 子</w> 1470
乳 腺癌</w> 1470
Cor p</w> 1470
大 家庭</w> 1469
绝 不会</w> 1469
居 住 1469
天 地</w> 1469
壁 垒</w> 1469
杠 杆</w> 1469
积极 性</w> 1469
责任 感</w> 1469
板 块</w> 1468
相 比 1468
省 份</w> 1468
旅行 社</w> 1468
对 立</w> 1467
漫 步</w> 1467
出版 社</w> 1467
复 原</w> 1466
M an 1466
上 半年</w> 1466
精 明</w> 1466
格 外</w> 1466
尽 情</w> 1466
一无 二</w> 1466
亚 当</w> 1465
揭 露</w> 1465
农 田</w> 1465
替 代 1465
住 户</w> 1464
交 所</w> 1463
有 史 1463
下 述</w> 1463
定 律</w> 1463
杀 手</w> 1463
中央 银行</w> 1463
面 包 1462
海 滨</w> 1462
造 就</w> 1462
补 助 1462
P ro 1462
走 近</w> 1462
鲍 勃</w> 1462
B er 1462
斯洛伐 克</w> 1462
有史 以来</w> 1462
捕 鱼</w> 1461
方 人</w> 1461
消 逝</w> 1461
环境 污染</w> 1461
必 然 1460
说 完</w> 1460
悲 痛</w> 1460
兰 人</w> 1459
原 型</w> 1459
殖 民</w> 1459
电 磁 1459
重 于</w> 1459
独 一无二</w> 1459
亲 人</w> 1459
哈 兹</w> 1459
城市 规划</w> 1459
布 雷</w> 1458
自 在</w> 1458
保 证 1458
北 韩</w> 1458
敬 畏</w> 1458
账 单</w> 1458
出 手</w> 1457
限 内</w> 1457
抗 拒</w> 1456
受 体</w> 1456
展 览会</w> 1456
谚 语</w> 1456
显示 器</w> 1456
圣 灵</w> 1455
缺 失</w> 1455
修 补</w> 1455
聚 合</w> 1454
功 能 1454
流 传</w> 1454
收 据</w> 1454
争 辩</w> 1454
附 录</w> 1454
特 勒</w> 1453
正 常 1453
实 施 1453
第十 八条</w> 1453
摄像 机</w> 1453
月 初</w> 1452
不 合理</w> 1452
存 货</w> 1452
受 不了</w> 1452
务 必</w> 1452
头 来</w> 1452
发生 变化</w> 1452
史蒂 夫</w> 1452
大气 层</w> 1452
胰岛 素</w> 1452
特 尔</w> 1451
平 等 1451
邮 戳</w> 1451
讲 解</w> 1451
扶 贫</w> 1451
女 士们</w> 1451
片 刻</w> 1450
人 手</w> 1450
血 糖</w> 1450
信 号 1450
粗 鲁</w> 1450
欢 迎 1450
荒 谬</w> 1450
宽 松</w> 1449
惧 怕</w> 1449
关键 技术</w> 1449
合理 化</w> 1449
负面 影响</w> 1449
集 群</w> 1448
电 磁</w> 1448
非 法 1447
第二十 一条</w> 1447
十字 架</w> 1447
好 友</w> 1446
公 交 1446
晋 升</w> 1446
乡 下</w> 1446
精神 病</w> 1446
科 目</w> 1445
取 得成功</w> 1445
环 绕</w> 1445
股 东 1445
迭 代</w> 1445
第十 七条</w> 1445
意大 利 1445
本 性</w> 1444
功 夫</w> 1444
不 便</w> 1444
自 卫</w> 1444
吸 取</w> 1444
稳 定 1444
备 受</w> 1444
会 长</w> 1444
炎 热</w> 1444
有 点儿</w> 1443
特 兰 1443
期 限内</w> 1442
难 点</w> 1442
免 税</w> 1442
仇 敌</w> 1440
尖 叫</w> 1440
有限 责任</w> 1440
第二十 七条</w> 1440
中 产阶级</w> 1439
功 效</w> 1439
做 梦</w> 1439
猪 肉</w> 1439
招 募</w> 1439
化 验</w> 1438
每 桶</w> 1438
紧急 情况</w> 1438
克 鲁 1437
控 股</w> 1437
零 部件</w> 1437
模 样</w> 1437
传 动</w> 1437
继承 人</w> 1437
人 权 1436
红 十字 1436
急 于</w> 1436
句 型</w> 1436
抵 御</w> 1436
Ma c</w> 1436
宇航 员</w> 1436
Uni vers 1436
无 尽</w> 1435
举 例</w> 1435
公 营</w> 1435
规 矩</w> 1435
夸 大</w> 1435
i b 1435
骗 子</w> 1435
调查 结果</w> 1435
双 胞胎</w> 1434
市 政</w> 1434
厌 烦</w> 1434
喊 道</w> 1434
得 起</w> 1433
联 网</w> 1433
上 将</w> 1433
方 形</w> 1433
出 价</w> 1433
随 即</w> 1433
铁 矿石</w> 1433
超 级 1433
化学 物质</w> 1433
海 报</w> 1432
航 运</w> 1432
送 达</w> 1432
硕 士</w> 1432
煽 动</w> 1432
w w 1432
第十 六条</w> 1432
摆 在</w> 1431
r an 1431
贮 存</w> 1431
I C</w> 1431
概 况</w> 1431
水 稻</w> 1430
人 生 1430
时 限</w> 1430
诚 挚</w> 1430
窗 帘</w> 1430
暑 假</w> 1430
统计 数字</w> 1430
肺 癌</w> 1429
起 伏</w> 1429
整 齐</w> 1429
el l 1429
阿布 哈兹</w> 1429
工 序</w> 1428
恶 性 1428
鲨 鱼</w> 1428
高等 学校</w> 1428
数字 化</w> 1428
探 测器</w> 1427
体 操</w> 1427
天 内</w> 1427
不管 怎样</w> 1427
萨拉 热窝</w> 1427
那 人</w> 1426
混 淆</w> 1426
看 守</w> 1426
张 力</w> 1426
承 运人</w> 1426
受 到 1426
A C 1426
贺 卡</w> 1426
技术 性</w> 1426
执行 长</w> 1426
中 风</w> 1425
大 片</w> 1425
对 性</w> 1425
马 其 1425
十 一</w> 1425
千 万 1425
相 似 1425
战 后</w> 1425
忙 于</w> 1425
一无 所知</w> 1425
统治 者</w> 1425
明 确 1424
色 素</w> 1424
中 世纪</w> 1423
面 粉</w> 1423
添 加剂</w> 1423
怎 样 1423
局 限</w> 1423
10 9</w> 1423
得 意</w> 1422
十 分钟</w> 1422
长 达</w> 1422
B e 1422
旷 野</w> 1422
生 育 1421
格 尔</w> 1421
量 子</w> 1421
构 架</w> 1421
铅 笔</w> 1421
货币 基金</w> 1421
游 泳池</w> 1420
健 身 1420
善 意</w> 1420
海洋 法</w> 1420
域 名</w> 1419
1 40</w> 1419
Window s</w> 1419
市 政府</w> 1418
说 起</w> 1418
粉 碎</w> 1418
塑 性</w> 1418
蜘 蛛</w> 1418
H IV</w> 1417
封 面</w> 1417
战 役</w> 1417
也 门</w> 1417
挤 压</w> 1417
研究 院</w> 1417
嘴 巴</w> 1416
怎样 才能</w> 1416
进 食</w> 1415
维 和</w> 1415
上 星期</w> 1415
吸 入</w> 1415
改 动</w> 1415
食品 安全</w> 1415
本 章</w> 1414
妇 女 1414
倒 闭</w> 1414
瞄 准</w> 1414
疲 惫</w> 1414
次 世界大战</w> 1413
内 政</w> 1413
平 息</w> 1413
时 速</w> 1412
公 务</w> 1412
离 散</w> 1412
漫 画</w> 1412
不好 意思</w> 1412
日 历</w> 1411
边 上</w> 1411
革 命 1411
第 九 1411
可 口 1410
书 中</w> 1410
美 女</w> 1410
说 是</w> 1410
O S</w> 1410
证券 交易</w> 1410
ww w</w> 1410
散 布</w> 1409
二十 一</w> 1409
大 米</w> 1408
爱 丽丝</w> 1408
热 器</w> 1408
车 厢</w> 1408
口 岸</w> 1408
示 威 1408
应 考</w> 1408
爵 夫人</w> 1408
这 门</w> 1407
工 商</w> 1407
登 陆</w> 1407
第一 百</w> 1407
基金 组织</w> 1407
特 里</w> 1406
某 一</w> 1406
能 为</w> 1405
浓 缩</w> 1405
尖 锐</w> 1405
贸易 法</w> 1405
营养 不良</w> 1405
起 着</w> 1404
法 学</w> 1404
过 早</w> 1404
推 销 1404
忧 伤</w> 1404
凭 证</w> 1404
ac k</w> 1404
这样 的话</w> 1404
网 膜</w> 1403
地 为</w> 1403
R es 1403
招 待 1403
不足 道</w> 1403
片 段</w> 1402
第二十 四条</w> 1402
谢 谢您</w> 1401
安 宁</w> 1401
妥 善 1401
掌 控</w> 1401
畸 形</w> 1401
安德 烈</w> 1401
相比 之下</w> 1401
经 社 1400
近 几年</w> 1400
攀 升</w> 1400
肤 色</w> 1400
卫生 部</w> 1400
一 身</w> 1399
手 枪</w> 1399
这 么 1399
上 好</w> 1399
位 数</w> 1399
拖 欠</w> 1399
否 决</w> 1399
恐 吓</w> 1399
早 上好</w> 1399
汇 编</w> 1399
不可 分割</w> 1399
多 边 1398
S ch 1398
火 山 1398
托 尼</w> 1398
P a 1398
蜂 蜜</w> 1398
缔 造</w> 1398
注册 商标</w> 1398
互联网 安全</w> 1398
牛仔 裤</w> 1398
图 标</w> 1397
驾驶 员</w> 1397
导 师</w> 1396
h k</w> 1396
合作 社</w> 1396
科 研 1395
反 驳</w> 1395
优 异</w> 1395
打 个</w> 1395
整 套</w> 1395
机 床</w> 1394
野 兽</w> 1394
巴 拉克</w> 1394
并 发</w> 1394
弹 簧</w> 1394
关键 字</w> 1394
探 究</w> 1393
礼 仪</w> 1393
几 家</w> 1393
存 者</w> 1393
世 间</w> 1393
奥斯 卡</w> 1393
之 道</w> 1392
国际 化</w> 1392
赛 特</w> 1391
店 铺</w> 1391
举 例 1391
求 职</w> 1391
料 到</w> 1391
长 途 1391
祈 求</w> 1391
斯 托 1390
成 份</w> 1390
考 虑 1390
帐 单</w> 1390
中 华</w> 1389
那 辆</w> 1389
这 幅</w> 1389
美 分</w> 1389
骑 马</w> 1389
进 修</w> 1388
黄 油</w> 1388
下 属</w> 1388
走 到</w> 1388
伸 展</w> 1388
奢 侈</w> 1388
缓 存</w> 1388
保 佑</w> 1387
停 顿</w> 1387
功 课</w> 1386
名 片</w> 1386
en d 1386
维多 利亚</w> 1386
甲 板</w> 1385
差 点</w> 1385
流 逝</w> 1385
紧 要</w> 1385
肯 尼 1385
医疗 保险</w> 1385
舞 弊</w> 1384
所 行</w> 1384
景 点</w> 1384
福 利 1384
期 权</w> 1384
陷 阱</w> 1384
整 顿</w> 1384
监 会</w> 1384
幸 存者</w> 1384
一大 堆</w> 1384
防 卫</w> 1383
ti on</w> 1383
周 期 1382
中 西部</w> 1382
吉 米</w> 1382
年 期</w> 1382
静 止</w> 1382
分 子 1382
雕 塑</w> 1382
业 余</w> 1381
瀑 布</w> 1381
植 被</w> 1380
电 线</w> 1380
纳 德</w> 1380
牙 医</w> 1380
中 东 1379
后 卫</w> 1379
排 出</w> 1379
联 系 1379
倒 塌</w> 1379
追 赶</w> 1379
聪 明 1379
天花 板</w> 1379
克 劳</w> 1378
那 本书</w> 1378
升 至</w> 1378
P C</w> 1378
伸 手</w> 1378
废 墟</w> 1378
专业 人士</w> 1378
经社 理事会</w> 1378
水 源</w> 1377
让 人</w> 1377
水 土 1376
评 判</w> 1376
航 线</w> 1376
迎 来</w> 1376
e x 1376
er v 1376
行动 计划</w> 1376
那 家</w> 1375
畅 销</w> 1375
亲 近</w> 1375
挑战 性</w> 1375
手 动</w> 1374
而 言之</w> 1374
书 院</w> 1374
发 挥 1374
北 极</w> 1374
民 兵</w> 1374
苦 恼</w> 1374
第二 届</w> 1374
共和 党人</w> 1374
巴 克</w> 1373
跳 跃</w> 1373
队 列</w> 1373
红十字 会</w> 1373
微 不足道</w> 1372
晚 期</w> 1372
两 边</w> 1372
国防 部</w> 1372
解 开</w> 1371
学 问</w> 1371
最 大 1371
越来 越 1371
体 面</w> 1370
名 册</w> 1370
标 明</w> 1370
逃 走</w> 1370
个人 电脑</w> 1370
三十 日</w> 1370
经常 性</w> 1370
人 质</w> 1369
已 婚</w> 1369
脑 子</w> 1369
断 定</w> 1369
构 件</w> 1369
风险 管理</w> 1369
人 身 1368
七 十 1368
理 事 1368
卖 淫</w> 1368
孤 儿</w> 1368
光 荣</w> 1367
中 亚</w> 1367
亚 特兰 1367
金 字 1367
海 中</w> 1367
这 所</w> 1367
接 获</w> 1367
偏 差</w> 1367
寄 给</w> 1367
告 人</w> 1367
管理 机构</w> 1367
南 省</w> 1366
曼 谷</w> 1366
陷 入 1366
农 村 1366
患 上</w> 1366
记忆 力</w> 1366
地 处</w> 1365
调 制</w> 1365
C S 1364
万 名</w> 1364
力 图</w> 1364
外 形</w> 1364
停 滞</w> 1364
乒 乓 1364
预算 外</w> 1364
给 定</w> 1363
冷 冻</w> 1363
监 测 1363
股票 市场</w> 1363
没 用</w> 1362
亚太 地区</w> 1362
大 为</w> 1361
万 亿美元</w> 1361
这 段</w> 1361
敏 感性</w> 1361
领 事</w> 1361
排 雷</w> 1360
动 议</w> 1360
意 志 1360
二十 世纪</w> 1360
class 3</w> 1360
公民 权利</w> 1360
班 上</w> 1359
知 名 1359
铁 路 1359
轰 炸</w> 1359
饮 食 1359
诅 咒</w> 1359
多 哈</w> 1358
发 病率</w> 1358
照 看</w> 1358
结 晶</w> 1358
萨 卡</w> 1358
历 来</w> 1358
敏 锐</w> 1358
胆 固醇</w> 1358
照 相机</w> 1357
印 制</w> 1357
终 生</w> 1357
国务 卿</w> 1357
数 码 1356
厄 瓜 1356
扩 充</w> 1356
反 过来</w> 1355
斯 里兰 1355
闪 光</w> 1355
极 力</w> 1355
遗 失</w> 1355
. .</w> 1355
从 小</w> 1354
高 地</w> 1354
强 盗</w> 1354
首 位</w> 1354
新 来</w> 1353
煤 气</w> 1353
邮 品</w> 1353
限 定</w> 1353
混 合 1352
解 释 1352
他 妈 1352
雷 尔</w> 1352
中 起</w> 1351
一 惊</w> 1351
极 好</w> 1351
通 行</w> 1351
黎 明</w> 1351
一 团</w> 1350
class 4</w> 1350
他妈 的</w> 1350
以 南</w> 1349
可 信</w> 1349
美 术 1349
玫 瑰 1349
品 味</w> 1349
两 地</w> 1349
兽 医</w> 1349
前 线</w> 1348
快速 增长</w> 1348
幼儿 园</w> 1348
解 脱</w> 1347
联 利</w> 1347
林 斯</w> 1347
美 洲 1347
默 默 1347
悄 悄</w> 1347
d e</w> 1347
布 兰 1346
太 小</w> 1346
低 声</w> 1346
哈 姆 1346
缓 冲 1346
消费 品</w> 1346
法律 责任</w> 1346
加 班</w> 1345
不 休</w> 1344
人 才 1344
思 念</w> 1344
雷 德</w> 1344
交通 事故</w> 1344
不 怎么</w> 1343
发 掘</w> 1343
滑 稽</w> 1343
债 权</w> 1343
L E 1343
驱动 器</w> 1343
对话 框</w> 1343
买 进</w> 1342
开 着</w> 1342
镇 上</w> 1342
天 津</w> 1342
公 署</w> 1342
斯里兰 卡</w> 1342
南 北</w> 1341
内 陆</w> 1341
思 索</w> 1341
控制 权</w> 1341
广播 公司</w> 1341
上 调</w> 1340
过 错</w> 1340
果 断</w> 1340
跑 道</w> 1340
英文 版</w> 1340
不 久 1339
金 币</w> 1339
起 码</w> 1339
订 货</w> 1339
忍 耐</w> 1339
团 长</w> 1339
鸽 子</w> 1339
篮 子</w> 1339
会员 卡</w> 1339
报 警</w> 1338
重 重</w> 1338
黎 加</w> 1338
休 息 1338
初 始 1338
跌 幅</w> 1338
适应 性</w> 1338
中 小型</w> 1337
高 水平</w> 1337
跟 进</w> 1337
忘 掉</w> 1337
197 0</w> 1337
哈萨 克斯坦</w> 1337
不 来</w> 1336
说 实话</w> 1336
市场 份额</w> 1336
小 国</w> 1335
哥 斯达 1335
附 表</w> 1335
i z 1335
侦 探</w> 1335
普通 人</w> 1335
Goo gle</w> 1335
C P 1334
查 验</w> 1334
波 士 1334
心 想</w> 1334
限 性</w> 1334
坏 消息</w> 1334
激 怒</w> 1334
咎 于</w> 1334
马其 顿</w> 1334
盗 版</w> 1333
说 些</w> 1333
神经 元</w> 1333
金字 塔</w> 1333
生 长 1332
增 速</w> 1332
涌 入</w> 1332
class 2</w> 1332
税务 局</w> 1332
排放 量</w> 1332
种 群</w> 1331
t on</w> 1331
加利福 尼亚</w> 1331
哥斯达 黎加</w> 1331
化 物</w> 1330
高 等</w> 1330
医 学院</w> 1330
归 咎于</w> 1330
河 边</w> 1330
反 思</w> 1329
明 日</w> 1329
说 得 1329
丰 厚</w> 1329
两 点</w> 1329
盈 余</w> 1329
各 有</w> 1328
南 京</w> 1328
难 民营</w> 1328
R ob 1328
世贸 组织</w> 1328
厄瓜 多尔</w> 1328
中 医</w> 1327
低 下</w> 1327
class 5</w> 1327
米 勒</w> 1326
无 家 1325
多 彩</w> 1325
流 利</w> 1325
热 带 1325
磁 带</w> 1325
矿 床</w> 1325
春 季</w> 1325
灾 难 1325
一 想</w> 1324
大 桥</w> 1324
转 递</w> 1324
高 涨</w> 1324
物 件</w> 1324
巴 比 1324
二 维</w> 1324
外 国 1324
港 岛</w> 1324
新闻 界</w> 1324
亚 太</w> 1323
大 赛</w> 1323
得 来</w> 1323
卡 特</w> 1323
取 向</w> 1323
景 气</w> 1323
走 来</w> 1323
寡 妇</w> 1323
粉 末</w> 1323
必要 条件</w> 1323
城 区</w> 1322
产 能</w> 1322
退 还</w> 1322
税 法</w> 1322
1. 5</w> 1322
S A 1321
人 中</w> 1321
地 基</w> 1321
图 画</w> 1321
充 电</w> 1321
手 势</w> 1320
五 百</w> 1320
新 颖</w> 1320
转 过</w> 1320
冰 冷</w> 1320
害 羞</w> 1320
集 邮</w> 1319
阿 森 1319
本 科</w> 1319
爱 因 1319
热 水</w> 1319
下 一代</w> 1319
侵 入</w> 1319
染 色</w> 1319
吉尔 吉 1319
爱因 斯坦</w> 1319
一 律</w> 1318
不 结 1318
动 车</w> 1318
梯 度</w> 1318
长 寿</w> 1318
送 往</w> 1318
K B</w> 1318
骚 乱</w> 1318
饮 用水</w> 1317
扣 押</w> 1317
尼 奥</w> 1316
装 饰 1316
奔 跑</w> 1316
亚历 山 1316
吉 他</w> 1315
压 抑</w> 1315
游 戏 1315
两 份</w> 1315
盟 友</w> 1315
辖 区</w> 1315
浑 身</w> 1315
堕 落</w> 1315
提供 者</w> 1315
自 制</w> 1314
避 孕 1314
瑟 夫</w> 1314
无家 可 1314
做 饭</w> 1313
器 械</w> 1313
起 步</w> 1313
吸 烟 1313
教 养</w> 1313
纳 斯</w> 1312
题 材</w> 1312
幽 默 1312
犯罪 行为</w> 1311
解 读</w> 1310
看 书</w> 1310
发 烧</w> 1310
相 位</w> 1310
潜 水</w> 1310
两 张</w> 1310
赞 比亚</w> 1310
第二十 九条</w> 1310
肯尼 迪</w> 1310
口 音</w> 1309
充 斥</w> 1309
划 定</w> 1309
境 地</w> 1309
欢 喜</w> 1309
嫌疑 人</w> 1309
方 可</w> 1308
秋 季</w> 1308
售 货 1308
置 疑</w> 1308
class 1</w> 1308
日 趋</w> 1307
新 人</w> 1307
D av 1307
老 太太</w> 1307
抽 出</w> 1307
罚 金</w> 1307
残 留</w> 1307
兼 容</w> 1307
丛 林</w> 1307
阿 让</w> 1305
孙 子</w> 1305
表 述</w> 1305
特 许</w> 1305
安 定</w> 1305
全 方位</w> 1305
六 十</w> 1305
拇 指</w> 1305
税务 机关</w> 1305
男女 平等</w> 1305
当 场</w> 1304
阻 挠</w> 1304
反 正</w> 1304
发 疯</w> 1304
大 众 1303
螺 旋 1303
虔 诚</w> 1303
武装 冲突</w> 1303
维 奇</w> 1302
建 构</w> 1302
切 尔</w> 1302
前 夕</w> 1302
队 友</w> 1302
早 点</w> 1302
开发 人员</w> 1302
殖民 化</w> 1302
精 通</w> 1301
遗 弃</w> 1301
喉 咙</w> 1301
伤 性</w> 1301
着 陆</w> 1301
第七 十 1301
拉 德</w> 1300
万 个</w> 1300
动 乱</w> 1300
口 中</w> 1300
分 工</w> 1300
管理 制度</w> 1300
麦当 劳</w> 1300
发挥 作用</w> 1300
加 倍</w> 1299
风 味</w> 1299
编 辑 1299
门 票</w> 1298
定 向</w> 1298
悉 尼</w> 1298
凶 手</w> 1298
产 妇</w> 1297
就 职</w> 1297
龙 头</w> 1297
创 纪录</w> 1297
寂 静</w> 1297
-------- -------- 1297
机 能</w> 1296
袜 子</w> 1296
为 人 1295
夺 得</w> 1295
Univers ity</w> 1295
该 文</w> 1294
滤 波器</w> 1294
于 本周</w> 1294
全 体 1294
带 回</w> 1294
沙 拉</w> 1294
求 职 1294
度 量</w> 1294
断 层</w> 1294
抨 击</w> 1294
IB M</w> 1294
一 并</w> 1293
排 水</w> 1293
山 坡</w> 1293
传 给</w> 1293
m ent</w> 1293
失 衡</w> 1293
关键 性</w> 1293
万 吨</w> 1292
愈 合</w> 1292
拆 卸</w> 1292
事业 单位</w> 1292
野 餐</w> 1291
极 少</w> 1291
坚 定 1291
跌 倒</w> 1291
呼 声</w> 1291
冉 阿让</w> 1291
牛 排</w> 1290
用 电</w> 1290
保 全</w> 1290
地 被</w> 1290
侦 察</w> 1290
10 1</w> 1290
不 难</w> 1289
无 私</w> 1289
而 行</w> 1289
比 利</w> 1289
处 方</w> 1289
野 外</w> 1289
互 助</w> 1289
第 八</w> 1289
暗 杀</w> 1289
复 习</w> 1288
适 于</w> 1288
抵 触</w> 1288
早 饭</w> 1288
加 仑</w> 1287
风 力</w> 1287
小 费</w> 1287
变 压器</w> 1287
章 节</w> 1287
中华 民族</w> 1287
聚 焦</w> 1286
我 该</w> 1286
核 心 1286
冷 淡</w> 1286
一切 都是</w> 1286
过滤 器</w> 1286
月 光</w> 1285
尼 克 1285
凝 胶</w> 1285
两 类</w> 1285
竞争 性</w> 1285
哺乳 动物</w> 1285
灾难 性</w> 1285
住 院</w> 1284
美国 国会</w> 1284
习惯 于</w> 1284
推销 员</w> 1284
斯 勒</w> 1283
换 取</w> 1283
更 深</w> 1283
太 过</w> 1282
抗 力</w> 1282
出 卖</w> 1282
留 学</w> 1282
局 限性</w> 1282
翼 翼</w> 1282
率 领</w> 1282
198 1</w> 1282
第二十 二条</w> 1282
16 . 1282
德 国人</w> 1281
克 拉克</w> 1281
一 趟</w> 1281
小 路</w> 1281
气 流</w> 1281
哈 佛 1281
委 托人</w> 1281
炫 耀</w> 1281
国际 货币 1281
国际 奥委会</w> 1281
10 5</w> 1281
Mic ha 1281
养老 金</w> 1281
国际货币 基金组织</w> 1281
时 装</w> 1280
幽 灵</w> 1280
养 殖</w> 1280
弃 权</w> 1280
碰 巧</w> 1280
悄 悄 1280
别 墅</w> 1279
肩 上</w> 1279
藏 族</w> 1279
六 日</w> 1279
苔 丝</w> 1279
酗 酒</w> 1279
每 隔</w> 1278
发 行 1278
i st 1278
债务 人</w> 1278
M c 1277
汉 姆</w> 1277
拼 写</w> 1277
工作 效率</w> 1277
薪 资</w> 1276
浪 潮</w> 1276
愉 悦</w> 1276
外汇 储备</w> 1276
莱 德</w> 1275
既 定</w> 1275
暴 行</w> 1275
辖 下</w> 1275
纪念 品</w> 1275
小心 翼翼</w> 1275
迪 克</w> 1274
双 向</w> 1274
隔 壁</w> 1274
糊 涂</w> 1274
拜 托</w> 1274
慈 爱</w> 1274
数据 处理</w> 1274
PL C</w> 1274
孤 单</w> 1273
女 神</w> 1273
a h</w> 1273
开发 商</w> 1273
i f 1272
行 道</w> 1271
歌 剧</w> 1271
而 生</w> 1271
新 一代</w> 1271
感 染 1271
光 临</w> 1270
蓝 图</w> 1270
格 林 1270
斜 坡</w> 1270
民族 主义</w> 1270
轮 流</w> 1269
贯 穿</w> 1269
心 意</w> 1269
廉 署</w> 1269
认 捐</w> 1269
销售 量</w> 1269
细 致</w> 1268
曝 光</w> 1268
统计 数据</w> 1268
100 %</w> 1268
同 盟</w> 1267
看 得 1267
车 道</w> 1267
音 频</w> 1267
盗 窃</w> 1267
备 选</w> 1267
角 落 1267
编 织</w> 1267
花旗 集团</w> 1267
批 发 1266
扔 掉</w> 1266
植 入</w> 1265
项 链</w> 1265
美 金</w> 1265
R O 1265
团 结 1265
格 斯</w> 1264
P et 1264
分 量</w> 1264
il l 1264
车 轮</w> 1263
重 型</w> 1263
凌 晨</w> 1263
节 食</w> 1263
劝 告</w> 1263
纽约 市</w> 1263
太 久</w> 1262
自 尊</w> 1262
高 山</w> 1262
地 盘</w> 1262
渗 透 1262
作 风</w> 1262
邮 箱</w> 1262
乙 醇</w> 1262
年 龄 1262
好 坏</w> 1261
出 路</w> 1261
单 调</w> 1261
壮 观</w> 1261
加 尔</w> 1260
科 尔</w> 1260
花 瓶</w> 1260
公 元</w> 1260
保险 费</w> 1260
甲 状 1259
毛 巾</w> 1259
而 后</w> 1259
F D 1259
临 界</w> 1259
相 片</w> 1259
沉 思</w> 1259
附 有</w> 1259
短 文</w> 1258
动 身</w> 1258
并 行</w> 1258
近 乎</w> 1258
创 办</w> 1258
讲 究</w> 1258
达 赖 1257
正 确性</w> 1257
做 个</w> 1257
联 体</w> 1257
镇 静</w> 1257
冲 洗</w> 1257
溯 到</w> 1257
二零零 四年</w> 1257
三角 洲</w> 1257
达赖 喇嘛</w> 1257
丽 莎</w> 1256
不 大 1256
用 餐</w> 1256
定 居 1256
试 点</w> 1256
两 侧</w> 1256
精 华</w> 1255
古 希腊</w> 1255
伦 斯</w> 1255
客 观 1255
百 年</w> 1254
心 跳</w> 1254
很 多年</w> 1254
堕 胎</w> 1254
迪 斯 1253
无 罪</w> 1253
精 力 1253
成 交</w> 1253
墨 水</w> 1253
无 礼</w> 1252
舰 队</w> 1252
幽默 感</w> 1252
看 望</w> 1251
k e</w> 1251
储 蓄 1251
预防 措施</w> 1251
麻醉 药品</w> 1251
工艺 品</w> 1251
光 泽</w> 1250
极 具</w> 1250
丰 田</w> 1250
参 见</w> 1250
酸 性</w> 1250
吃 晚饭</w> 1250
赖 斯</w> 1250
架 子</w> 1250
p er 1250
金融 服务</w> 1250
一 揽 1249
四 种</w> 1249
人 事 1249
滤 波</w> 1249
意 见 1249
靠 着</w> 1249
尘 土</w> 1249
class 6</w> 1249
一揽 子</w> 1249
肺 炎</w> 1248
毛 泽 1248
触 及</w> 1248
常任 理事</w> 1248
一 经</w> 1247
据 报</w> 1247
湿 度</w> 1247
人 大</w> 1247
顶 端</w> 1247
创 业 1247
奢 侈 1247
叛 乱</w> 1247
评论 家</w> 1247
所 处</w> 1246
钢 筋</w> 1246
耶 稣 1246
经 理 1245
起 源于</w> 1245
足 轻重</w> 1245
立 方 1245
潜 能</w> 1245
答 覆</w> 1245
杭 州</w> 1245
安全 区</w> 1245
我 必</w> 1244
水 里</w> 1244
应 为</w> 1244
民 意 1244
1 4. 1244
从 头 1243
开 业</w> 1243
紫 外线</w> 1243
急 忙</w> 1243
顾 及</w> 1243
议 者</w> 1243
第三十 条</w> 1243
总 干事</w> 1242
东 北 1242
地 道</w> 1242
信 函</w> 1242
例 行</w> 1242
放 大 1242
底 层</w> 1242
元 前</w> 1242
遵 从</w> 1242
侦 查</w> 1242
驳 回</w> 1242
投 降</w> 1241
M er 1241
严 密</w> 1241
站 立</w> 1241
ar d 1241
进 出</w> 1240
每 种</w> 1240
误 导</w> 1240
爆 破</w> 1240
微 风</w> 1240
外交 官</w> 1240
转 运</w> 1239
他 用</w> 1239
出 任</w> 1239
脑 部</w> 1239
政治 权利</w> 1239
重 构</w> 1238
洗 澡</w> 1238
打 字 1238
昨 天晚上</w> 1238
畏 惧</w> 1237
瓦 斯</w> 1237
职 人员</w> 1237
外 衣</w> 1237
估 值</w> 1237
建筑 工程</w> 1237
周 边 1236
野 心</w> 1236
河 里</w> 1236
条 纹</w> 1236
客 房</w> 1236
编 译</w> 1236
那 件</w> 1235
高 频</w> 1235
滚 动</w> 1235
发 抖</w> 1235
市 镇</w> 1235
职 守</w> 1235
理 所 1235
阵 地</w> 1235
恰 恰</w> 1235
审 慎</w> 1234
才 华</w> 1234
句 意</w> 1234
文化 遗产</w> 1234
分布 式</w> 1234
太 空 1233
性 命</w> 1233
古 迹</w> 1233
图 像 1233
坦 白</w> 1233
耗 费</w> 1233
证 明 1233
拍 照</w> 1233
踏 上</w> 1233
统计 调查</w> 1233
流 向</w> 1232
人 称</w> 1232
精 子</w> 1232
前 锋</w> 1232
普 尔</w> 1232
谣 言</w> 1232
财政 部长</w> 1232
re d 1232
地方 性</w> 1232
日 程 1231
一 朵</w> 1231
流 泪</w> 1231
高 档</w> 1231
精 细</w> 1231
公 然</w> 1231
i o</w> 1231
赛 车</w> 1230
受 托人</w> 1230
两 组</w> 1230
简 易</w> 1230
誓 言</w> 1230
纳米 比亚</w> 1230
负债 表</w> 1230
角落 里</w> 1230
动 人</w> 1229
丝 绸</w> 1229
观 赏</w> 1229
下 游</w> 1229
把 门</w> 1229
清 洁 1229
侧 面</w> 1229
197 3</w> 1229
不 移</w> 1228
制 性</w> 1228
获 得 1228
三 倍</w> 1228
余 下</w> 1228
公 益 1228
菲 利 1228
读 取</w> 1228
姚 明</w> 1228
关键 词</w> 1228
满意 度</w> 1228
投 保</w> 1227
人 次</w> 1227
萨 科 1227
应 予</w> 1227
卫 队</w> 1227
坚 硬</w> 1227
监 护人</w> 1227
前 期</w> 1226
信 道</w> 1226
R S 1226
公 屋</w> 1226
理 财</w> 1226
推 断</w> 1226
患 病</w> 1226
英语 口语</w> 1226
综合 症</w> 1226
Joh n</w> 1226
考虑 一下</w> 1226
学 生 1225
不 懂</w> 1224
人 道</w> 1224
常 识</w> 1224
签 约</w> 1224
u st 1224
往 返</w> 1224
民主 党人</w> 1224
波士 顿</w> 1224
阿 里 1223
用 性</w> 1223
小 姑娘</w> 1223
纵 向</w> 1223
始 终 1223
仅 为</w> 1223
一 家人</w> 1222
那 年</w> 1222
正 确 1222
固 体 1222
并 非 1222
兼 顾</w> 1222
走 势</w> 1221
连 锁</w> 1221
调 和</w> 1221
一 圈</w> 1220
露 天</w> 1220
车 票</w> 1220
联 大</w> 1220
下 方</w> 1220
优 越</w> 1220
武 器 1220
胜 地</w> 1220
促 进 1220
t h</w> 1220
威士 忌</w> 1220
静静 地</w> 1220
特 派 1219
华 人</w> 1219
炸 药</w> 1219
埋 葬</w> 1219
an g 1219
An d 1219
转 而</w> 1218
风 筝</w> 1218
几 十 1218
问 卷</w> 1218
雨 量</w> 1218
I P</w> 1218
溶 解</w> 1218
富 含</w> 1217
飞 翔</w> 1217
夹 克</w> 1217
贫困 地区</w> 1217
警察 局</w> 1217
组 分</w> 1216
数 千</w> 1216
敌 意</w> 1216
截 然不同</w> 1216
奶 粉</w> 1216
培训 班</w> 1216
主 办 1215
转 交</w> 1215
波 浪</w> 1215
联 检</w> 1215
好 极了</w> 1215
十 八</w> 1215
结 核</w> 1215
成 语</w> 1215
哈 马斯</w> 1215
送 来</w> 1215
e an</w> 1215
第二十 八条</w> 1215
香港 特别行政区政府</w> 1215
竞争 者</w> 1215
当 做</w> 1214
感 恩</w> 1214
U S 1214
疑 虑</w> 1214
化 疗</w> 1213
原 告</w> 1213
仪 表</w> 1213
要 不是</w> 1213
预 后</w> 1213
控 诉</w> 1213
深 圳 1213
恶 人</w> 1213
恶 性</w> 1213
独 联体</w> 1213
沉 积 1213
响 起</w> 1213
家庭 成员</w> 1213
安德 鲁</w> 1213
真 是 1212
转 基因</w> 1212
别 处</w> 1212
知 觉</w> 1212
店 员</w> 1212
不敢 相信</w> 1212
用 心</w> 1211
挑 衅</w> 1211
颁 奖 1211
现实 意义</w> 1211
大 韩 1210
新 郎</w> 1210
相 继</w> 1210
问 及</w> 1210
油 脂</w> 1210
街 区</w> 1210
社 团</w> 1210
黑 洞</w> 1210
证 词</w> 1210
黄 金 1209
岸 边</w> 1209
三 名</w> 1209
哈 佛</w> 1209
o w</w> 1209
现实 生活</w> 1209
这 起</w> 1208
执 业</w> 1208
台 北</w> 1208
巴 斯</w> 1208
全 人类</w> 1208
鲜 艳</w> 1208
减 税</w> 1208
薄 弱</w> 1208
专 责</w> 1208
境 况</w> 1208
效 用</w> 1207
F or 1207
愈 来 1207
屯 门</w> 1207
衰 竭</w> 1207
基督 山</w> 1207
路易 斯</w> 1207
大韩 民国</w> 1207
文 凭</w> 1206
有 益于</w> 1206
私 有</w> 1206
应 得</w> 1206
基 石</w> 1206
告 诫</w> 1206
另一 方</w> 1206
轮 船</w> 1205
用 不着</w> 1205
与 会</w> 1205
利 润 1205
去 掉</w> 1205
气 质</w> 1205
7 5%</w> 1205
B o 1205
跨 界</w> 1205
撤 退</w> 1205
颇 为</w> 1205
进 制</w> 1204
转 为</w> 1204
热 闹</w> 1204
好 些</w> 1204
居 室</w> 1204
洗 钱</w> 1204
栽 培</w> 1204
代表 大会</w> 1204
奢侈 品</w> 1204
大 意</w> 1203
不 快</w> 1203
金 斯</w> 1203
否 是</w> 1203
国 度</w> 1202
安 东 1202
定 理</w> 1202
f or</w> 1202
住 处</w> 1202
中 场</w> 1201
达 西</w> 1201
回 忆 1201
氨 基 1201
汇 款</w> 1201
分析 法</w> 1201
一小 部分</w> 1201
机 动</w> 1200
开 除</w> 1200
下 巴</w> 1200
是 否是</w> 1200
索 尼</w> 1200
几 句</w> 1200
商 量</w> 1200
代理 商</w> 1200
CE O</w> 1200
从业 人员</w> 1200
理事 国</w> 1200
香 水</w> 1199
芳 香</w> 1199
A D 1199
晚 间</w> 1199
氧化 物</w> 1199
大 都</w> 1198
无 常</w> 1198
方 言</w> 1198
疫 情</w> 1198
保护 环境</w> 1198
一个 个</w> 1198
共产 主义</w> 1198
这 支</w> 1197
宽 带</w> 1197
所 起</w> 1197
向 量</w> 1197
小 于</w> 1197
着 迷</w> 1197
不 感兴趣</w> 1196
用 药</w> 1196
线 条</w> 1196
看 一看</w> 1196
香 气</w> 1196
王 上</w> 1196
也 好</w> 1196
金融 时报</w> 1196
阿森 纳</w> 1196
不 合 1195
据 此</w> 1195
上 床</w> 1195
小 规模</w> 1195
年 老</w> 1195
I E 1195
担 当</w> 1195
密 钥</w> 1194
可 谓</w> 1194
混 蛋</w> 1194
前 列 1194
合 资企业</w> 1194
停 战</w> 1194
友 情</w> 1194
屈 服</w> 1194
抵 押 1194
桌 面</w> 1194
大 笔</w> 1193
体 上</w> 1193
身 处</w> 1193
插 件</w> 1193
牙 买 1193
求 助</w> 1193
奖 牌</w> 1193
集 成 1192
一 匹</w> 1192
大 理 1192
动 产</w> 1192
南 极 1192
利 维亚</w> 1192
间 隙</w> 1192
头 衔</w> 1192
o s</w> 1192
I T 1192
证明 文件</w> 1192
无 权</w> 1191
北 爱尔兰</w> 1191
商 讨</w> 1191
高尔 夫</w> 1191
机 体</w> 1190
事 事</w> 1190
总 督</w> 1190
点 心</w> 1190
妊 娠</w> 1190
男 友</w> 1190
皱 纹</w> 1190
ic k</w> 1190
复 活 1189
台 风</w> 1189
向 往</w> 1189
环 球</w> 1189
个 性化</w> 1189
深 层</w> 1189
u g 1189
刹 车</w> 1189
混 沌</w> 1188
特 区政府</w> 1188
勘 查</w> 1188
金融 业</w> 1188
牙买 加</w> 1188
选 中</w> 1187
迷 失</w> 1187
宣 扬</w> 1187
推 移</w> 1187
禁 区</w> 1187
概 要</w> 1187
13 . 1187
有 种</w> 1186
当 心</w> 1186
报 率</w> 1186
小 提琴</w> 1186
客户 服务</w> 1186
巴拿 马</w> 1186
视 网膜</w> 1185
公 用 1185
源 头</w> 1185
副 总裁</w> 1185
首 脑 1185
步 入</w> 1185
步 兵</w> 1185
第三十 四条</w> 1185
独立 性</w> 1185
不论 是</w> 1185
当今 世界</w> 1185
立 学校</w> 1184
三 位</w> 1184
疏 忽</w> 1184
绑 定</w> 1184
it h</w> 1184
一 块 1183
辛 格</w> 1183
水 处理</w> 1183
特 罗斯</w> 1183
已 久</w> 1183
戴 着</w> 1183
an g</w> 1183
布莱 克</w> 1183
D on</w> 1182
莱 特</w> 1182
互 信</w> 1182
荃 湾</w> 1182
基本 原理</w> 1182
威尔 士</w> 1182
计 画</w> 1181
不 信</w> 1181
指 纹</w> 1181
教 士</w> 1181
追 溯到</w> 1181
关键 问题</w> 1181
开发 利用</w> 1181
生 化</w> 1180
关 节 1180
执 法 1180
微 粒</w> 1180
油 价格</w> 1180
落 下</w> 1180
担 负</w> 1180
复 发</w> 1179
宾 语</w> 1179
利 昂</w> 1179
付 诸 1179
背 诵</w> 1179
失 控</w> 1179
乒乓 球</w> 1179
有 利 1178
真 菌</w> 1178
书 记</w> 1178
吊 销</w> 1178
离 不开</w> 1178
彩 虹</w> 1178
降 至</w> 1178
瑜 伽</w> 1178
反对 党</w> 1178
各 州</w> 1177
瑞 士 1177
小 小</w> 1177
情 侣</w> 1177
竞 技</w> 1177
肠 道</w> 1177
l d</w> 1177
198 3</w> 1177
民用 航空</w> 1177
短 期内</w> 1176
三 十年</w> 1176
落 到</w> 1176
陪 同</w> 1176
忍 不住</w> 1176
摄影 师</w> 1176
除 术</w> 1175
病 学</w> 1175
获 得成功</w> 1175
美 林</w> 1175
立 体</w> 1175
o t</w> 1175
曲 面</w> 1174
迷 信</w> 1174
消 耗 1174
如 实</w> 1174
合 组织</w> 1174
现 阶段</w> 1174
庄 稼</w> 1174
女 演员</w> 1174
迈 进</w> 1174
实用 性</w> 1174
流 产</w> 1173
性 生活</w> 1173
关 押</w> 1173
入 手</w> 1173
指 甲</w> 1173
路 程</w> 1173
装 船</w> 1173
荷 载</w> 1173
硬 盘</w> 1173
迫 害</w> 1173
监 管 1173
顽 固</w> 1173
保险 人</w> 1173
一 分</w> 1172
弗 吉 1172
内 衣</w> 1172
时 段</w> 1172
平 安 1172
追 溯</w> 1172
求 婚</w> 1172
司 令 1172
减 速</w> 1172
t r 1172
从 未 1171
中 旬</w> 1171
那 双</w> 1171
这 天</w> 1171
反 击</w> 1171
私 下</w> 1171
最 先</w> 1171
佩 克</w> 1171
壮 大</w> 1171
十二 个</w> 1171
医疗 卫生</w> 1171
一 笑</w> 1170
土 壤 1170
齐 全</w> 1170
火 鸡</w> 1170
勇 士</w> 1170
池 塘</w> 1170
笼 罩</w> 1170
非 殖民化</w> 1169
太 晚</w> 1169
露 面</w> 1169
需 求 1169
全 职</w> 1169
P r 1169
没 见</w> 1169
规 范 1169
售 出</w> 1169
音乐 家</w> 1169
家 用</w> 1168
残 余</w> 1168
A b 1168
航 海</w> 1168
传 到</w> 1168
快 餐</w> 1168
演 唱</w> 1168
透 社</w> 1168
经济 体制</w> 1168
严重 性</w> 1168
可口 可乐</w> 1168
示威 者</w> 1168
以 法</w> 1167
一 章</w> 1167
我 敢</w> 1167
交 流 1167
业 余 1167
重 庆</w> 1167
谈 会</w> 1167
放 电</w> 1167
变 性</w> 1167
专 题 1167
切实 可行</w> 1167
轮 机</w> 1166
不 宜</w> 1166
劳 务</w> 1166
遗 址</w> 1166
接 头</w> 1166
共 计</w> 1166
长 老</w> 1166
源 泉</w> 1166
趋 于</w> 1166
达 赖</w> 1165
四 川 1165
每 股</w> 1165
枕 头</w> 1165
沙 子</w> 1165
低 廉</w> 1165
外 贸</w> 1165
旋 律</w> 1165
谱 法</w> 1165
炎 症</w> 1165
10 2</w> 1165
时 空</w> 1164
格 里 1164
走 动</w> 1164
大 吃 1163
渔 船</w> 1163
第二 百</w> 1163
组织 者</w> 1163
笔记 本</w> 1163
Micha el</w> 1163
后 退</w> 1162
多 家</w> 1162
当 下</w> 1162
握 住</w> 1162
鼓 掌</w> 1162
既 往</w> 1162
体育 场</w> 1162
肥 皂</w> 1160
打 赌</w> 1160
实用 新型</w> 1160
提出 申请</w> 1160
陷入 困境</w> 1160
各 省</w> 1159
准 确 1159
适 量</w> 1159
刀 具</w> 1159
球 赛</w> 1159
针 对性</w> 1159
回 报率</w> 1159
液 相</w> 1159
m e</w> 1159
IP O</w> 1159
巴比 伦</w> 1159
费 力</w> 1158
地 参</w> 1158
古 典 1158
苍 蝇</w> 1158
冒 犯</w> 1158
冥 想</w> 1158
倾 倒</w> 1158
光 灯</w> 1157
亚 伦</w> 1157
特 征 1157
者 之间</w> 1157
标 本</w> 1157
退休 金</w> 1157
一 号</w> 1156
不 公</w> 1156
流 浪 1156
撒 上</w> 1156
巴 巴</w> 1156
第 七</w> 1156
烟 囱</w> 1155
水 池</w> 1155
北 极 1155
洗 手</w> 1155
冷 却 1155
欣 慰</w> 1155
预备 役</w> 1155
牛 仔</w> 1154
毛 衣</w> 1154
润 滑</w> 1154
蚊 子</w> 1154
上 任</w> 1154
关 岛</w> 1154
绿 化</w> 1154
帆 船</w> 1154
首 选</w> 1154
布 满</w> 1153
不 至于</w> 1153
尤 指</w> 1153
路 透社</w> 1153
分 娩</w> 1153
戏剧 性</w> 1153
从 根本 1152
文 艺 1152
温 馨</w> 1152
倒 霉</w> 1152
徘 徊</w> 1152
从根本 上</w> 1152
一 千</w> 1151
拉 伸</w> 1151
那 一刻</w> 1151
引 致</w> 1151
三 点</w> 1151
a f 1151
工作 岗位</w> 1151
流 出</w> 1150
扫 描 1150
o v</w> 1150
伪 装</w> 1150
顺 利 1150
房 租</w> 1150
瞩 目</w> 1150
光 彩</w> 1149
无 声</w> 1149
每 晚</w> 1149
导 出</w> 1149
丢 弃</w> 1149
呼 唤</w> 1149
大 埔</w> 1148
远 方</w> 1148
表 征</w> 1148
损 耗</w> 1148
典 范</w> 1148
十 日</w> 1148
饱 受</w> 1148
沙 漠化</w> 1148
单 车</w> 1148
回 返</w> 1148
警 队</w> 1148
n er</w> 1148
19 60</w> 1148
坚定 不移</w> 1148
德 斯</w> 1147
他 来</w> 1147
获 奖</w> 1147
营 企业</w> 1147
医疗 保健</w> 1147
理所 当然</w> 1147
转 子</w> 1146
全 美</w> 1146
园 艺</w> 1146
放 慢</w> 1146
参 赛 1146
威 廉 1146
对 准</w> 1145
国 会 1145
比 亚 1145
东 南</w> 1145
钉 子</w> 1145
工 件</w> 1145
心 目</w> 1145
说 不出</w> 1145
合 理性</w> 1145
分 类 1145
分 层</w> 1145
餐 桌</w> 1145
公交 车</w> 1145
未 决</w> 1144
统计 学</w> 1144
耶稣 基督</w> 1144
复活 节</w> 1144
中 指</w> 1143
黄 昏</w> 1143
多 斯</w> 1143
有 无</w> 1143
高 点</w> 1143
平 线</w> 1143
尽 量 1143
找 寻</w> 1143
e f 1143
工程 项目</w> 1143
二零零 五年</w> 1143
义务 教育</w> 1143
宏观 经济</w> 1143
建 议 1142
数 组</w> 1142
镇 定</w> 1142
发 件人</w> 1142
位 居</w> 1142
三 人</w> 1142
坦 率</w> 1142
诈 骗</w> 1142
对 照 1141
人 去</w> 1141
班 机</w> 1141
云 南</w> 1141
钱 财</w> 1141
申 明</w> 1141
你 家</w> 1141
政 变</w> 1141
大理 石</w> 1141
摇 晃</w> 1140
取 得 1140
茶 叶</w> 1140
恩 斯</w> 1140
最 坏</w> 1140
滑 坡</w> 1140
剪 切</w> 1140
色 谱</w> 1140
万 分</w> 1139
时 所</w> 1139
花 儿</w> 1139
注 销</w> 1139
平 板</w> 1139
把 头</w> 1139
鸡 肉</w> 1139
过 身</w> 1139
竭 尽全力</w> 1139
免 于</w> 1139
狠 狠</w> 1139
其 间</w> 1138
受 雇</w> 1138
饭 菜</w> 1138
筹 备 1138
肢 体</w> 1138
偷 走</w> 1138
ar t</w> 1138
关键 因素</w> 1138
大大 的</w> 1138
在此 之前</w> 1138
真是 太</w> 1138
阿 里</w> 1137
菲 特</w> 1137
墓 地</w> 1137
尘 埃</w> 1137
赛 跑</w> 1136
海 拔</w> 1136
开 立</w> 1136
公 元前</w> 1136
夏 日</w> 1136
国家 级</w> 1136
补助 金</w> 1136
美 景</w> 1135
皮 埃尔</w> 1135
成 功 1135
规 程</w> 1135
脑 海</w> 1135
历史 学家</w> 1135
旅行 者</w> 1135
罗斯 福</w> 1135
之 用</w> 1134
打 着</w> 1134
宁 可</w> 1134
免疫 系统</w> 1134
不久 前</w> 1134
克 劳 1133
无 穷 1133
五 十年</w> 1133
潜 艇</w> 1133
写 入</w> 1133
英国 政府</w> 1133
不 由 1132
空 闲</w> 1132
下 挫</w> 1132
罪 孽</w> 1132
着 急</w> 1132
水 位</w> 1131
同 情 1131
时 起</w> 1131
说 服 1131
谈 起</w> 1131
察 觉</w> 1131
民 间 1131
搁 置</w> 1131
一 一</w> 1130
次 于</w> 1130
约 瑟夫</w> 1130
关 门</w> 1130
承 付</w> 1130
美 容</w> 1130
并 重</w> 1130
指 针</w> 1130
定 为</w> 1130
考 试 1130
不能 不</w> 1130
在 世界 1129
拉 美</w> 1129
人 行道</w> 1129
跳 动</w> 1129
盛 大</w> 1129
第二 节</w> 1129
197 4</w> 1129
在世界 上</w> 1129
学 年</w> 1128
下 星期</w> 1128
雄 性</w> 1128
固 执</w> 1128
措 辞</w> 1128
阵 列</w> 1128
工作 日</w> 1128
第一 节</w> 1128
at h 1128
解 剖</w> 1127
智 商</w> 1127
总 有 1127
能 干</w> 1127
通 话</w> 1127
Y ou 1127
谋 杀 1127
溃 疡</w> 1127
欧洲 联盟</w> 1127
北京 市</w> 1127
文 盲</w> 1126
西 西 1126
下 放</w> 1126
路 由</w> 1126
被 告人</w> 1126
陷 于</w> 1126
不 小</w> 1125
更 正</w> 1125
图 象</w> 1125
回 顾 1125
暴 跌</w> 1125
197 6</w> 1125
美 观</w> 1124
雄 心 1124
嵌 入</w> 1124
纹 理</w> 1124
1 19</w> 1124
本 会</w> 1123
无 能 1123
西 装</w> 1123
状 语</w> 1123
静 电</w> 1123
1 500</w> 1123
迈 向</w> 1123
匮 乏</w> 1123
一 期</w> 1122
维 度</w> 1122
新 车</w> 1122
山 姆</w> 1122
如 欲</w> 1122
词 组</w> 1122
干 吗</w> 1121
可 取</w> 1121
时 代 1121
小 朋友</w> 1121
钢 笔</w> 1121
俄 罗斯 1121
亲 节</w> 1121
烧 伤</w> 1120
左 手</w> 1120
晚 宴</w> 1120
虚 伪</w> 1120
自然 保护区</w> 1120
交通 运输</w> 1120
学习 者</w> 1120
土地 利用</w> 1120
亚历山 大</w> 1120
说服 力</w> 1120
内 部 1119
波 长</w> 1119
心 血管</w> 1119
矿 产</w> 1119
奴 隶 1119
s e 1119
赚 取</w> 1119
总有 一天</w> 1119
本 行政区域</w> 1118
反 感</w> 1118
合 营</w> 1118
中 学生</w> 1117
边 界 1117
随 机 1117
丙 烯 1117
录 取</w> 1117
开发 者</w> 1117
地下 室</w> 1117
南极 洲</w> 1117
加 薪</w> 1116
紧 张 1116
社会 学</w> 1116
2. 5</w> 1116
佛罗里 达</w> 1116
加 油 1115
这 首</w> 1115
宇 宙 1115
放 开</w> 1115
任 用</w> 1115
课 税</w> 1115
载 入</w> 1115
i Ph 1115
农业 部</w> 1115
哈姆 雷特</w> 1115
完 备</w> 1114
过 期</w> 1114
草 莓</w> 1114
挣 钱</w> 1114
核 电站</w> 1114
顺 从</w> 1114
辨 认</w> 1114
旅游 者</w> 1114
五 天</w> 1113
学 说</w> 1113
高 性能</w> 1113
别 无 1113
就 读</w> 1113
N BA</w> 1113
粉 红色</w> 1113
自治 领</w> 1113
遗传 算法</w> 1113
不 理</w> 1112
老 妇人</w> 1112
号 召</w> 1112
公 牛</w> 1112
只 见</w> 1112
围 着</w> 1112
纪念 碑</w> 1112
转 过身</w> 1111
联 络 1111
张 开</w> 1111
批 出</w> 1111
稀 少</w> 1111
遍 布</w> 1111
贩 毒</w> 1111
国际 性</w> 1111
保险 业</w> 1111
天气 预报</w> 1111
行 榜</w> 1110
S T 1110
九 个</w> 1110
流 动 1110
G old 1110
防 水</w> 1110
伊 朗 1110
信 服</w> 1110
依 存</w> 1110
评 分</w> 1110
试 用</w> 1110
借 用</w> 1110
室 外</w> 1110
欧洲 央行</w> 1110
不知 不觉</w> 1110
购物 中心</w> 1110
国 境</w> 1109
歌 词</w> 1109
排 行榜</w> 1109
处 所</w> 1109
尔 曼</w> 1109
缺 损</w> 1109
洗 手 1109
举 报</w> 1109
耐 用</w> 1109
挑 剔</w> 1109
迁 徙</w> 1109
猎 物</w> 1109
第三 期</w> 1109
有 点 1108
服 役</w> 1108
钦 佩</w> 1108
蒂 娜</w> 1108
合 乎</w> 1108
I II</w> 1108
丢 掉</w> 1108
策 略 1108
多 米 1107
卢 萨卡</w> 1107
几 岁</w> 1107
N E 1107
威 力</w> 1107
焚 烧</w> 1107
一 手</w> 1106
拉 萨</w> 1106
英 勇</w> 1106
跟 上</w> 1106
驱 使</w> 1106
闪 闪 1106
戴 上</w> 1106
外 人</w> 1106
隐 喻</w> 1106
证 会</w> 1106
掌 管</w> 1106
窒 息</w> 1106
短 时间</w> 1105
不 复 1105
及 早</w> 1105
杰 明</w> 1105
正 交</w> 1105
并 会</w> 1105
整 体 1105
真 心</w> 1104
医 治</w> 1104
合 办</w> 1104
年 青</w> 1104
绵 羊</w> 1104
强 行</w> 1104
增长 速度</w> 1104
中 型</w> 1103
废 止</w> 1103
干 得</w> 1102
高 位</w> 1102
保 姆</w> 1102
世 纪 1102
考 古 1102
殴 打</w> 1102
发生 率</w> 1102
首脑 会议</w> 1102
布 里</w> 1101
许 多年</w> 1101
汉 字</w> 1101
油 墨</w> 1101
散 射</w> 1101
会 令</w> 1101
不 朽</w> 1100
无 用</w> 1100
更 生</w> 1100
好 奇 1100
兴 奋 1100
打 动</w> 1100
截 面</w> 1100
膳 食</w> 1100
第三十 五条</w> 1100
光 亮</w> 1099
太 快</w> 1099
水 上</w> 1099
沙 龙</w> 1099
指 称</w> 1099
丑 陋</w> 1099
3 50</w> 1099
支 派</w> 1099
衬 衣</w> 1099
公共 利益</w> 1099
.. .. 1099
印第安 人</w> 1099
干 脆</w> 1098
光 电</w> 1098
并 进</w> 1098
军 用</w> 1098
B r 1098
头 疼</w> 1098
偏 好</w> 1098
财务 状况</w> 1098
承担 责任</w> 1098
不 前</w> 1097
探 险</w> 1097
科 学院</w> 1097
总 和</w> 1097
卡 扎 1097
八 十</w> 1097
马 耳 1097
接 入</w> 1097
顺 差</w> 1097
ou r 1097
注册 资本</w> 1097
半 夜</w> 1096
自 发</w> 1096
福 克</w> 1096
粗 暴</w> 1096
播 种</w> 1096
耻 辱</w> 1096
瑞 克</w> 1095
这 部分</w> 1095
飞 快</w> 1095
地 里</w> 1095
香 料</w> 1095
鸭 子</w> 1095
辨 识</w> 1095
日益 增长</w> 1095
瓦 尔</w> 1094
家 居</w> 1094
好 几 1094
萨 拉</w> 1094
过 往</w> 1094
虚 构</w> 1094
t s</w> 1094
具体 情况</w> 1094
光 盘</w> 1093
手 腕</w> 1093
海 浪</w> 1093
塞 内 1093
上 游</w> 1093
速 器</w> 1093
验 收</w> 1093
共 处</w> 1093
溶 性</w> 1093
羞 愧</w> 1093
发展 局</w> 1093
一 顶</w> 1092
远 见</w> 1092
江 省</w> 1092
打 工</w> 1092
浮 动</w> 1092
通用 汽车</w> 1092
手 机 1091
新 世纪</w> 1091
弄 清楚</w> 1091
照 着</w> 1091
能 耗</w> 1091
戴 维</w> 1091
悬 崖</w> 1091
声 望</w> 1091
笔记 本 1091
好奇 心</w> 1091
中 性</w> 1090
有 理</w> 1090
这 颗</w> 1090
眼 球</w> 1090
美 术</w> 1090
打 量</w> 1090
传 导</w> 1090
公共 场所</w> 1090
笔记本 电脑</w> 1090
百 货 1089
花 旗</w> 1089
肾 脏</w> 1089
出 场</w> 1089
沙 特</w> 1089
二 日</w> 1089
通 信 1089
退 回</w> 1089
杂 货 1089
吵 架</w> 1089
家庭 作业</w> 1089
天文 学家</w> 1089
危险 性</w> 1089
学 士学位</w> 1088
抗 议者</w> 1088
为 力</w> 1088
意 想不到</w> 1088
辨 别</w> 1088
加勒 比 1088
学习 网</w> 1088
呼吸 道</w> 1088
主 宰</w> 1087
死 后</w> 1087
跟 前</w> 1087
东 北部</w> 1087
发 怒</w> 1087
物 质 1087
背 面</w> 1087
相 适应</w> 1087
修 女</w> 1087
回 落</w> 1087
盛 行</w> 1087
专 用 1087
吉尔吉 斯 1087
多 岁</w> 1086
新 近</w> 1086
班 级</w> 1086
切 除术</w> 1086
戴 尔</w> 1086
疏 散</w> 1086
断 言</w> 1086
奖 赏</w> 1086
喝 一杯</w> 1086
辩 解</w> 1086
对外 开放</w> 1086
新 一轮</w> 1085
风 景 1085
魔 力</w> 1085
栅 栏</w> 1085
听 证会</w> 1085
再 现</w> 1085
牧 场</w> 1085
语 境</w> 1085
矢 量</w> 1085
安全 带</w> 1085
表示 感谢</w> 1085
总的 来说</w> 1085
种 植 1084
肥 料</w> 1084
容 性</w> 1084
买 入</w> 1084
空 虚</w> 1084
纳 尔 1084
出 人 1084
疯 子</w> 1084
10 6</w> 1084
ro s 1084
网 路</w> 1083
书 本</w> 1083
卡 斯</w> 1083
想 一想</w> 1083
里 奥</w> 1083
物 价 1083
装 载</w> 1083
初始 化</w> 1083
消 遣</w> 1082
福 祉</w> 1082
美 好 1082
缓 冲</w> 1082
团 聚</w> 1082
恰 好</w> 1082
197 5</w> 1082
中央 人民政府</w> 1082
马耳 他</w> 1082
一 国</w> 1081
高 手</w> 1081
深 夜</w> 1081
灌 木</w> 1081
中 级</w> 1080
一 队</w> 1080
大 腿</w> 1080
轮 子</w> 1080
热 衷 1080
急 速</w> 1080
中 环</w> 1079
列 明</w> 1079
有 否</w> 1079
上 层</w> 1079
宣 誓</w> 1079
拳 击</w> 1079
灭 亡</w> 1079
偿 付</w> 1079
教科 书</w> 1079
优先 权</w> 1079
Intern ational</w> 1079
哈佛 大学</w> 1079
火 花</w> 1078
血 统</w> 1078
席 会议</w> 1078
播 出</w> 1078
荒 唐</w> 1078
根 除</w> 1077
不 平</w> 1077
差 额</w> 1077
深 厚</w> 1077
着 想</w> 1077
al l</w> 1077
中 美</w> 1076
米 歇尔</w> 1076
楼 下</w> 1076
电 能</w> 1076
所 有制</w> 1076
前 沿</w> 1076
黑 兰</w> 1076
回 信</w> 1076
非洲 统一 1076
无家可 归</w> 1076
非洲统一 组织</w> 1076
国 土</w> 1075
揭 开</w> 1075
绝 缘</w> 1075
钢 板</w> 1075
标 志 1075
三 届</w> 1075
惊 恐</w> 1075
i i</w> 1075
萃 取</w> 1075
濒 危</w> 1075
St an 1075
Ad ob 1075
语言 学</w> 1075
卡扎 菲</w> 1075
德 黑兰</w> 1074
本 杰明</w> 1074
C ol 1074
时 才</w> 1074
著 称</w> 1074
去 年 1074
额 度</w> 1074
培 养 1074
路 交通</w> 1074
计算 结果</w> 1074
无能 为力</w> 1074
生 殖 1073
化 成</w> 1073
大 坝</w> 1073
拓 扑</w> 1073
收 藏 1073
作 弊</w> 1073
难 者</w> 1073
外 籍</w> 1073
强 加</w> 1073
监 察 1073
行 业 1072
行 进</w> 1072
波 罗</w> 1072
制 卡</w> 1072
s ti 1072
司法 部</w> 1072
星 座</w> 1071
加 工 1071
车 里</w> 1071
心 爱</w> 1071
怎 能</w> 1071
10 3</w> 1071
申请 者</w> 1071
同情 心</w> 1071
塞内 加尔</w> 1071
的 士</w> 1070
塞 拉 1070
引 诱</w> 1070
J av 1070
出 错</w> 1070
移 除</w> 1070
另 行</w> 1070
室 内 1070
w h 1070
之 心</w> 1069
天 体</w> 1069
怀 里</w> 1069
er ic 1069
经理 人</w> 1069
五 岁</w> 1068
贝 利</w> 1068
付 钱</w> 1068
最 新 1068
美国 银行</w> 1068
保护 主义</w> 1068
报告 书</w> 1068
计 数</w> 1067
一 分 1067
病 因</w> 1067
背 部</w> 1067
直 观</w> 1067
合 成 1067
银 子</w> 1067
滋 味</w> 1067
知识 分子</w> 1067
周 到</w> 1066
布 拉</w> 1066
德 克萨 1066
多 层</w> 1066
表 中</w> 1066
高 处</w> 1066
正 视</w> 1066
前 行</w> 1066
平 坦</w> 1066
放 射</w> 1066
折 叠</w> 1066
1 11</w> 1066
饮 水</w> 1066
纠 缠</w> 1066
扇 门</w> 1066
连续 性</w> 1066
可 知</w> 1065
面 向 1065
怀 念</w> 1065
诠 释</w> 1065
class 7</w> 1065
服 装 1064
边 际</w> 1064
玻 利维亚</w> 1064
拘 捕</w> 1064
式 样</w> 1064
调 节 1064
登 机</w> 1064
1 2%</w> 1064
毯 子</w> 1064
德 语</w> 1063
得 出 1063
宽 阔</w> 1063
制 动</w> 1063
直 流</w> 1063
留 学生</w> 1063
仅 次于</w> 1063
w or 1063
社会 各界</w> 1063
很久 以前</w> 1063
五 分之一</w> 1062
三 项</w> 1062
会 否</w> 1062
年 份</w> 1062
路 里</w> 1062
硬 度</w> 1062
借 钱</w> 1062
羞 辱</w> 1062
金融 公司</w> 1062
责任 制</w> 1062
热衷 于</w> 1062
交 替</w> 1061
太 棒 1061
看 好</w> 1061
超 声波</w> 1061
青 年 1061
商 贸</w> 1061
筹 划</w> 1061
爵 士 1061
电力 系统</w> 1061
太棒 了</w> 1061
一 则</w> 1060
得 上</w> 1060
加 盟</w> 1060
卡 路里</w> 1060
感 官</w> 1060
前 去</w> 1060
标 赛</w> 1060
急 切</w> 1060
帝 国主义</w> 1060
钻 井</w> 1060
龄 化</w> 1060
激 动 1060
逻 辑 1060
布鲁 斯</w> 1060
之 物</w> 1059
五 千</w> 1059
特 纳</w> 1059
他 俩</w> 1059
P o 1059
永 生</w> 1059
锦 标赛</w> 1059
熄 灭</w> 1059
第三十 一条</w> 1059
得出 结论</w> 1059
上 天</w> 1058
攻 击 1058
偷 偷</w> 1058
柠 檬 1058
好 比</w> 1057
所 学</w> 1057
制 药</w> 1057
脱 落</w> 1057
粪 便</w> 1057
发展 前景</w> 1057
15 . 1057
海 军 1056
木 板</w> 1056
工 地</w> 1056
业 已</w> 1056
喜 好</w> 1056
情 绪 1056
犯 错</w> 1056
紊 乱</w> 1056
世界 纪录</w> 1056
坚持 不懈</w> 1056
吸烟 者</w> 1056
生 计</w> 1055
无 误</w> 1055
发 脾气</w> 1055
导 入</w> 1055
再 用</w> 1055
单 据</w> 1055
深 海</w> 1055
回 升</w> 1055
逼 近</w> 1055
填 妥</w> 1054
滑 动</w> 1054
敲 门</w> 1054
储 量</w> 1054
第三十 二条</w> 1054
法律 援助</w> 1054
总 算</w> 1053
巴 菲特</w> 1053
召 回</w> 1053
I D 1053
女 工</w> 1053
紧 密 1053
毁 掉</w> 1053
第一 批</w> 1053
并不 知道</w> 1053
亚太经 社会</w> 1053
群 落</w> 1052
四 大</w> 1052
不 尽</w> 1052
人 用</w> 1052
为 生</w> 1052
王 室</w> 1052
千 计</w> 1052
叹 息</w> 1052
阐 释</w> 1052
17 . 1052
固定 资产</w> 1052
城 镇 1051
稳 步</w> 1051
方 向 1051
妓 女</w> 1051
三角 形</w> 1051
招待 会</w> 1051
阿 姆 1050
交 战</w> 1050
卡 塔尔</w> 1050
冰 川</w> 1050
渐 进</w> 1050
分 段</w> 1050
强 力</w> 1050
强 烈 1050
乌 龟</w> 1050
悄悄 地</w> 1050
氨基 酸</w> 1050
不 耐 1049
后 方</w> 1049
C ap 1049
用 手</w> 1049
希 伯 1049
要 紧</w> 1049
前 言</w> 1049
区 间</w> 1049
慎 重</w> 1049
1 70</w> 1049
乌 兹 1049
第三十 六条</w> 1049
以 赴</w> 1048
布 里 1048
该 是</w> 1048
隔 绝</w> 1048
年 里</w> 1048
简 单 1048
录 像 1048
n e</w> 1048
10 8</w> 1048
次 要</w> 1047
海 地区</w> 1047
科 比</w> 1047
配 有</w> 1047
说 家</w> 1047
长 江</w> 1047
赞 助 1047
葡萄 糖</w> 1047
项目 管理</w> 1047
Com m 1047
体 制 1046
比 赛 1046
欧 美</w> 1046
时 效</w> 1046
老 龄化</w> 1046
要 死</w> 1046
罗 伯 1046
邮 政 1046
洋 葱</w> 1046
青 岛</w> 1046
国家 队</w> 1046
西藏 自治区</w> 1046
青春 期</w> 1046
体制 改革</w> 1046
财 力</w> 1045
网 友</w> 1045
天 真</w> 1045
基 建</w> 1045
迎 合</w> 1045
掌 声</w> 1045
不 经 1044
这 批</w> 1044
补 充 1044
巨 型</w> 1044
只 用</w> 1044
无 限期</w> 1043
水 体</w> 1043
瓶 颈</w> 1043
修 剪</w> 1043
R ich 1043
细 心</w> 1043
贵 国</w> 1043
诱 发</w> 1043
访 客</w> 1043
生产 工艺</w> 1043
全力 以赴</w> 1043
各 大</w> 1042
事 例</w> 1042
骨 髓</w> 1042
重 现</w> 1042
课 文</w> 1042
往 前走</w> 1042
领 空</w> 1042
第二 季度</w> 1042
周期 性</w> 1042
售货 员</w> 1042
亚 哥</w> 1041
可 视 1041
那 份</w> 1041
西 方人</w> 1041
十 四 1041
向 来</w> 1041
定 位 1041
粉 丝</w> 1041
专 项</w> 1041
独立 国</w> 1041
数以 千计</w> 1041
iPh one</w> 1041
朝 向</w> 1040
提 取 1040
为 难</w> 1040
吸 收 1040
萨 姆</w> 1040
孩 儿</w> 1040
第三十 八条</w> 1040
交易 员</w> 1040
利用 率</w> 1040
不 景气</w> 1039
体 温</w> 1039
新 任</w> 1039
转 会</w> 1039
再 有</w> 1039
公 义</w> 1039
领 土 1039
沼 泽</w> 1039
布 料</w> 1038
在 建</w> 1038
不 在</w> 1038
不 及格</w> 1038
主 妇</w> 1038
九 龙 1038
这 有</w> 1038
系 列 1038
收 敛</w> 1038
接 替</w> 1038
亲 眼 1038
遵 行</w> 1038
中华人民共和 国 1038
洛 斯</w> 1037
那 会</w> 1037
面 条</w> 1037
曲 折</w> 1037
老 爸</w> 1037
全 心 1037
矿 工</w> 1037
盲 人</w> 1037
失 调</w> 1037
欧洲 共同体</w> 1037
固体 废物</w> 1037
同 位 1036
衣 着</w> 1036
活 化</w> 1036
地 站</w> 1036
游 艇</w> 1036
神 父</w> 1036
诱 人</w> 1036
胁 迫</w> 1036
20 12</w> 1036
选 区</w> 1035
主 题 1035
莱 斯</w> 1035
铺 设</w> 1035
笼 子</w> 1035
第四 个</w> 1035
人 造 1034
红 柿</w> 1034
何 况</w> 1034
说 不定</w> 1034
另一 边</w> 1034
专业 化</w> 1034
平均 水平</w> 1034
布鲁 塞尔</w> 1034
乌兹 别 1034
引 领</w> 1033
相 邻</w> 1033
颈 部</w> 1033
果 然</w> 1033
攀 登</w> 1033
颜 料</w> 1033
郊 野</w> 1033
毫无 意义</w> 1033
付 诸</w> 1032
珊 瑚 1032
抢 救</w> 1032
国 内 1031
那 段</w> 1031
交 互 1031
时 性</w> 1031
数 千 1031
年 长</w> 1031
很 感兴趣</w> 1031
无 形</w> 1030
H T 1030
格 雷</w> 1030
地 段</w> 1030
小 儿</w> 1030
区 议会</w> 1030
式 化</w> 1030
证 交所</w> 1030
声 响</w> 1030
安全 感</w> 1030
司法 机关</w> 1030
深入 研究</w> 1030
最大 化</w> 1030
树 干</w> 1029
心 头</w> 1029
修 道 1029
现 年</w> 1029
河 道</w> 1029
唯 有</w> 1029
邓 小 1029
大 方</w> 1028
维 加斯</w> 1028
解 体</w> 1028
皮 特</w> 1028
成 都</w> 1028
元 朗</w> 1028
腹 泻</w> 1028
虫 剂</w> 1028
播 放 1028
汲 取</w> 1028
an ce</w> 1028
咖啡 因</w> 1028
去年 同期</w> 1028
阳 光 1027
M A</w> 1027
抽 样</w> 1027
把 戏</w> 1027
结 石</w> 1027
个 星期</w> 1027
公 用</w> 1027
章 制度</w> 1027
急 救</w> 1027
分 级</w> 1027
臀 部</w> 1027
光 子</w> 1026
大 通</w> 1026
西 红柿</w> 1026
复 审</w> 1026
做 点</w> 1026
视 作</w> 1026
入 狱</w> 1026
他 家</w> 1026
导 管</w> 1026
鲍 尔森</w> 1026
任 择</w> 1026
喝 水</w> 1026
第三 届</w> 1026
生命 力</w> 1026
真实 性</w> 1026
拉 特</w> 1025
用 量</w> 1025
该 处</w> 1025
R o 1025
酸 奶</w> 1025
1 25</w> 1025
沉 降</w> 1025
真 想</w> 1024
尔 蒙</w> 1024
固 然</w> 1024
油 画</w> 1024
追 随</w> 1024
简 述</w> 1024
肝 炎</w> 1024
围 巾</w> 1024
写 信 1024
i al</w> 1024
一 滴</w> 1023
行 情</w> 1023
那 块</w> 1023
有 事</w> 1023
开 花</w> 1023
磁 性</w> 1023
重 心</w> 1023
微 微</w> 1023
受 力</w> 1023
鬼 魂</w> 1023
首 个</w> 1023
管理 体系</w> 1023
需求 量</w> 1023
高 低</w> 1022
D e 1022
若 有</w> 1022
律 师 1022
不太 好</w> 1022
平 滑</w> 1021
灵 敏 1021
降 雨</w> 1021
大不 列颠</w> 1021
上 尉</w> 1020
端 口</w> 1020
剖 析</w> 1020
伯 利 1019
和 睦</w> 1019
特 里亚</w> 1019
报 刊</w> 1019
意 外 1019
防 火</w> 1019
先 是</w> 1019
退 役</w> 1019
规 章制度</w> 1019
理 应</w> 1019
写 给</w> 1019
昔 日</w> 1019
恼 火</w> 1019
新 书</w> 1018
所 提</w> 1018
阴 暗</w> 1018
超 重</w> 1018
犯 有</w> 1018
韧 性</w> 1018
趋 向</w> 1018
巴勒 斯坦 1018
il l</w> 1018
ur e</w> 1018
不知 所 1018
英 俊</w> 1017
D S 1017
意 向</w> 1017
发 电厂</w> 1017
平 衡 1017
亲 身</w> 1017
喝 咖啡</w> 1017
敢 于</w> 1017
亚 马 1016
维 修 1016
测 定 1016
身 着</w> 1016
店 主</w> 1016
泛 滥</w> 1016
孟 买</w> 1016
充满 活力</w> 1016
大 部份</w> 1015
万 英镑</w> 1015
性 状</w> 1015
蒙 德</w> 1015
遇 上</w> 1015
救 护 1015
荒 凉</w> 1015
火 柴</w> 1014
马 铃 1014
并 入</w> 1014
油 机</w> 1014
耗 尽</w> 1014
失 眠</w> 1014
议 论</w> 1014
露 西</w> 1013
转 达</w> 1013
字 样</w> 1013
度 假 1013
资 会</w> 1013
被 称作</w> 1013
ac e</w> 1013
投 行</w> 1012
交 响 1012
上 门</w> 1012
史 上</w> 1012
美 元 1012
宏 伟</w> 1012
依 次</w> 1012
果 子</w> 1012
鲸 鱼</w> 1012
早 起</w> 1012
私营 企业</w> 1012
文 斯</w> 1011
闻 到</w> 1011
收 割</w> 1011
数 个</w> 1011
先 驱</w> 1011
七 届</w> 1011
撤 消</w> 1011
汇 集</w> 1011
嫌疑 犯</w> 1011
一 侧</w> 1010
体 系 1010
柱 子</w> 1010
丝 特</w> 1010
南 瓜</w> 1010
上 车</w> 1010
轻 而易 1010
游 说</w> 1010
较 长</w> 1010
优 越 1010
戈 尔</w> 1010
扩 建</w> 1010
喇 叭</w> 1010
骆 驼</w> 1010
斡 旋</w> 1010
第一 款</w> 1010
并不 需要</w> 1010
行 长</w> 1009
雪 花</w> 1009
骑 车</w> 1009
i p 1009
精力 充沛</w> 1009
轻而易 举</w> 1009
人 员 1008
转 换成</w> 1008
欧 文</w> 1008
批 发</w> 1008
挫 败</w> 1008
抉 择</w> 1008
唐 太 1007
加 权</w> 1007
烟 草 1007
固 化</w> 1007
草 稿</w> 1007
落 入</w> 1007
助 长</w> 1007
稀 释</w> 1007
硕 士学位</w> 1007
放 学</w> 1006
定 语</w> 1006
连 贯</w> 1006
应 许</w> 1006
警 觉</w> 1006
晴 朗</w> 1006
衰 落</w> 1006
怨 恨</w> 1006
h t</w> 1006
面 对面</w> 1005
T r 1005
散 文</w> 1005
突 发</w> 1005
挡 住</w> 1005
荒 漠化</w> 1005
中外 合作</w> 1005
克 里</w> 1004
内 置</w> 1004
何 不</w> 1004
就 任</w> 1004
打 架</w> 1004
甜 美</w> 1004
顽 强</w> 1004
战斗 机</w> 1004
名 列</w> 1003
处 处</w> 1003
象 征 1003
城 墙</w> 1003
过 夜</w> 1003
阴 道</w> 1003
黑 客</w> 1003
脑 筋</w> 1003
才 智</w> 1003
滥 用 1003
派 别</w> 1003
颠 覆</w> 1003
第五 十</w> 1003
克 什 1002
高 端</w> 1002
先 例</w> 1002
曼 哈 1002
打 碎</w> 1002
劫 持</w> 1002
落 成</w> 1002
细 微</w> 1002
租 约</w> 1002
挂 钩</w> 1002
程序 员</w> 1002
高级 官员</w> 1002
亚特兰 大</w> 1002
中 日</w> 1001
各 族 1001
胃 口</w> 1001
M A 1001
极 端 1001
梦 见</w> 1001
沉 淀</w> 1001
庆 典</w> 1001
二零零 三年</w> 1001
联合国 儿童 1001
进口 商</w> 1001
所罗 门</w> 1001
联合国儿童 基金会</w> 1001
表 演 1000
弗 朗 1000
风 机</w> 1000
F in 1000
几 分</w> 1000
心 肌 1000
全 权</w> 1000
世 俗</w> 1000
第四 届</w> 1000
对照 组</w> 1000
富 尔</w> 999
C H 999
海 龟</w> 999
双 臂</w> 999
下 定 999
接 受 999
沉 浸</w> 999
棺 材</w> 999
下定 决心</w> 999
多 半</w> 998
这 款</w> 998
看 重</w> 998
建 立 998
误 会</w> 998
福 德</w> 998
目 击者</w> 998
坏 人</w> 998
掏 出</w> 998
耽 搁</w> 998
es s 998
一 旁</w> 997
无 助</w> 997
蒙 古 997
繁 重</w> 997
协 力</w> 997
存 入</w> 997
订 定</w> 997
喀 布尔</w> 997
色 调</w> 997
第一 季度</w> 997
详细 资料</w> 997
领土 完整</w> 997
密 集 996
一 时间</w> 996
体 型</w> 996
刚 度</w> 996
因 于</w> 996
入 息</w> 996
牧 业</w> 996
分 隔</w> 996
咖啡 馆</w> 996
一 角</w> 995
无 损</w> 995
水 污染</w> 995
与 其 995
听 觉</w> 995
连 锁 995
俄 亥 995
俄 语</w> 995
废 气</w> 995
第三十 三条</w> 995
使用 寿命</w> 995
十二 条</w> 995
求职 者</w> 995
S E 994
新 泽 994
高 空</w> 994
关 爱</w> 994
共 用</w> 994
失 败 994
塞拉 利昂</w> 994
大 奖</w> 993
爱 是</w> 993
海 平面</w> 993
母 鸡</w> 993
保证 金</w> 993
进 军</w> 992
金 星</w> 992
我 愿</w> 992
防 疫</w> 992
过 敏 992
绿 色 992
节 制</w> 992
腐 烂</w> 992
频 谱</w> 992
避 孕</w> 992
发展 观</w> 992
驾驶 执照</w> 992
各族 人民</w> 992
在 生活 991
大 体上</w> 991
各 处</w> 991
行 之 991
等 离子 991
缺 口</w> 991
摆 动</w> 991
全 能</w> 991
医 务</w> 991
移 居</w> 991
终 了</w> 991
滞 后</w> 991
矩 形</w> 991
圣诞 树</w> 991
根 深 990
灯 泡</w> 990
词 义</w> 990
兄弟 姐妹</w> 990
财 产 989
自 助</w> 989
该 区</w> 989
欧 佩克</w> 989
小 猫</w> 989
决 不能</w> 989
压 力 989
管 辖 989
出 入</w> 989
接 待 989
10 4</w> 989
第三十 九条</w> 989
新闻 稿</w> 989
注册 处</w> 989
投 放</w> 988
一 线</w> 988
卡 因</w> 988
内 心 988
缩 写</w> 988
拘 役</w> 988
极 其 988
图 纸</w> 988
标 人</w> 988
角 膜</w> 988
国际 公约</w> 988
社会 保险</w> 988
等离子 体</w> 988
金 正 987
手 头</w> 987
这 艘</w> 987
凉 爽</w> 987
G l 987
报 答</w> 987
更 强</w> 987
储 备 987
m a 987
怀 有</w> 987
绳 索</w> 987
马铃 薯</w> 987
管辖 权</w> 987
阿 美</w> 986
一 如 986
纳 粹</w> 986
相 近</w> 986
近 年</w> 986
限 制性</w> 986
卫 星 986
毅 力</w> 986
In d 986
化 妆</w> 985
一 栋</w> 985
无 关 985
魔 术</w> 985
小 学生</w> 985
打 字</w> 985
务 人员</w> 985
蓬 勃 985
奥林匹克 运动会</w> 985
日 出</w> 984
不 高</w> 984
用 具</w> 984
吸 血 984
顶 峰</w> 984
画 像</w> 984
期 盼</w> 984
柔 性</w> 984
寄 生 984
18 . 984
欧洲 委员会</w> 984
民事 责任</w> 984
绝 大部分</w> 983
迷 路</w> 983
彼 得 983
白 痴</w> 983
广 西</w> 983
直 播</w> 983
普 森</w> 983
洽 谈</w> 983
辣 椒</w> 983
采取 有效</w> 983
不耐 烦</w> 983
结 婚 982
皮 肤 982
莉 莉</w> 982
营 办</w> 982
e x</w> 982
乞 丐</w> 982
纪念 日</w> 982
体系 结构</w> 982
原 定</w> 981
立 特里亚</w> 981
荷 尔蒙</w> 981
厄 立特里亚</w> 981
矫 正</w> 981
佛罗里 达州</w> 981
四 肢</w> 980
热 水 980
时 装 980
分 销</w> 980
悬 浮</w> 980
奢 华</w> 980
不断 扩大</w> 980
环保 署</w> 980
之 夜</w> 979
造 林</w> 979
全 额</w> 979
犹 豫 979
拖 拉 979
理 想 979
吸血 鬼</w> 979
克 拉 978
真 话</w> 978
八 日</w> 978
F r 978
D i 978
为 首</w> 978
奥 会</w> 978
个 世纪</w> 978
记 者 978
留 心</w> 978
委 派</w> 978
减 排</w> 978
生育 率</w> 978
一如 既往</w> 978
阿 曼</w> 977
海 丝特</w> 977
说 不 977
常 见 977
会 以</w> 977
筹 款</w> 977
第一 件</w> 977
生产 性</w> 977
市场 竞争</w> 977
达尔 富尔</w> 977
加油 站</w> 977
真 寺</w> 976
看 不出</w> 976
法 典</w> 976
裁 缝</w> 976
a w 976
腰 带</w> 976
唤 起</w> 976
圈 子</w> 975
谦 虚</w> 975
凝 聚</w> 975
清 真寺</w> 975
破 灭</w> 975
材 质</w> 975
杀 虫剂</w> 975
罪 案</w> 975
往 事</w> 975
介 绍 975
赦 免</w> 975
继续 下去</w> 975
投 影</w> 974
一 试</w> 974
血 流</w> 974
前 一天</w> 974
工 党</w> 974
杂 交</w> 974
绘 图</w> 974
恐怖 袭击</w> 974
马拉 松</w> 974
举例 来说</w> 974
总 线</w> 973
转 变成</w> 973
南 太平洋</w> 973
车 库</w> 973
全 意</w> 973
像 素</w> 973
丰 盛</w> 973
单 元 973
武 士</w> 973
兵 力</w> 973
熟 知</w> 973
劝 说</w> 973
经营 范围</w> 973
兰 德</w> 972
时 有</w> 972
上 场</w> 972
提 早</w> 972
节 性</w> 972
矿 井</w> 972
技 艺</w> 972
国会 议员</w> 972
星 人</w> 971
人 文 971
波 罗 971
入 式</w> 971
巴 巴 971
洗 涤</w> 971
B P</w> 971
义 词</w> 971
蓄 意</w> 971
里 昂</w> 970
入 学 970
承 租 970
搭 档</w> 970
很 久</w> 970
污 泥</w> 970
另一 半</w> 970
华盛 顿 970
Am eric 970
全心 全意</w> 970
一 动</w> 969
不 解</w> 969
G re 969
山 地</w> 969
合 署</w> 969
漆 黑</w> 969
峰 值</w> 969
被 困</w> 969
末 端</w> 969
捐 献</w> 969
各 派</w> 968
不 决</w> 968
面 料</w> 968
称 号</w> 968
伊 利 968
潜 意识</w> 968
满 足 968
守 卫</w> 968
第四十 三条</w> 968
民族 区域</w> 968
中 来</w> 967
正 向</w> 967
蒂 固</w> 967
受 苦</w> 967
自 决权</w> 966
圣 洁</w> 966
需 品</w> 966
并 列</w> 966
译 者</w> 966
现 正</w> 966
敌 军</w> 966
采 样</w> 966
专 长</w> 966
狂 欢</w> 966
德 曼</w> 965
大 面积</w> 965
阳 台</w> 965
凝 固</w> 965
乳 房</w> 965
校 准</w> 965
设计 方案</w> 965
反倾 销 965
朝鲜 半岛</w> 965
生 机</w> 964
本 篇</w> 964
撒 下</w> 964
电 荷</w> 964
小 区</w> 964
托 克劳</w> 964
气 愤</w> 964
农 民工</w> 964
财政 年度</w> 964
不 带</w> 963
无 所谓</w> 963
居 留</w> 963
相 识</w> 963
记 下</w> 963
留 住</w> 963
治 疗 963
熟 练 963
民主 党派</w> 963
oc i 963
这样 一来</w> 963
可 不 962
加 拉</w> 962
飞 去</w> 962
此 人</w> 962
凯 蒂</w> 962
承 载</w> 962
作 响</w> 962
园 区</w> 962
激 增</w> 962
雌 性</w> 962
匿 名</w> 962
二十 四</w> 962
非洲 人</w> 962
根深 蒂固</w> 962
进 城</w> 961
可 信 961
金 矿</w> 961
海 岸 961
看 清</w> 961
完 工</w> 961
所 为</w> 961
地 平线</w> 961
法 测定</w> 961
怒 气</w> 961
调 研</w> 961
侧 重</w> 961
商 谈</w> 961
挥 霍</w> 961
渡 过</w> 961
写 成</w> 961
场 主</w> 961
剧 场</w> 961
第四十 一条</w> 961
威尔 逊</w> 961
许 许 960
行 者</w> 960
复 仇</w> 960
利 尔</w> 960
口 感</w> 960
戴 维斯</w> 960
响 声</w> 960
er e</w> 960
灵敏 度</w> 960
许许 多多</w> 960
病 房</w> 959
病 毒 959
稳 健</w> 959
极 化</w> 959
笨 拙</w> 959
战 时</w> 959
错 误 959
赌 场</w> 959
酵 母</w> 959
赠 送</w> 959
上海 市</w> 959
玫瑰 花</w> 959
或 作</w> 958
国 产</w> 958
风 俗</w> 958
贝 蒂</w> 958
封 建</w> 958
十 四</w> 958
七 十</w> 958
储 层</w> 958
巡 逻 958
蔑 视</w> 958
空 袭</w> 957
总 计</w> 957
南 克</w> 957
火 炉</w> 957
器 皿</w> 957
下 级</w> 957
尔 夫</w> 957
数 十年</w> 957
摆 放</w> 957
巴 里</w> 957
出 庭</w> 957
施 加 957
调 味 957
增 加 957
赶 走</w> 957
杀 人 957
螺 栓</w> 957
醒 过来</w> 957
强制 执行</w> 957
大吃 一惊</w> 957
T P</w> 956
侵略 者</w> 956
不 规则</w> 955
道 路交通</w> 955
心 上</w> 955
接 吻</w> 955
越 大</w> 955
打 仗</w> 955
归 来</w> 955
折 断</w> 955
强 国</w> 955
行之 有效</w> 955
一 排</w> 954
银 色</w> 954
回 想</w> 954
告 终</w> 954
有效 途径</w> 954
本 世纪</w> 953
正 试图</w> 953
社 交 953
军 火</w> 953
屏 障</w> 953
劳动 合同</w> 953
半 场</w> 952
投 机 952
不 需</w> 952
那 间</w> 952
有 线 952
飞 越</w> 952
完 好</w> 952
份 子</w> 952
共 存</w> 952
废 弃 952
憎 恨</w> 952
侍 者</w> 952
管理 条例</w> 952
中 途</w> 951
一 谈</w> 951
达 姆</w> 951
无 故</w> 951
表 面 951
地 问</w> 951
钢 管</w> 951
蒸 气</w> 951
羊 群</w> 951
党 的 951
K h 951
蓬勃 发展</w> 951
主 人 950
S ach 950
海 鲜</w> 950
死 神</w> 950
似 地</w> 950
打 听</w> 950
点 子</w> 950
怪 异</w> 950
脱 水</w> 950
堡 垒</w> 950
沉 闷</w> 950
档 案 950
中央 军事 950
心理 健康</w> 950
中央军事 委员会</w> 950
短 片</w> 949
可 口</w> 949
多 德</w> 949
该 市</w> 949
东 斯</w> 949
谈 及</w> 949
接 触 949
标 的</w> 949
越 是</w> 949
运 到</w> 949
隐 患</w> 949
氰 胺</w> 949
分 词</w> 949
工作 室</w> 949
证券 市场</w> 949
职业 病</w> 949
疲力 尽</w> 949
Stan ley</w> 949
救护 车</w> 949
振 奋</w> 948
知 晓</w> 948
间 断</w> 948
父 母亲</w> 948
坦 诚</w> 948
恋 人</w> 948
普遍 存在</w> 948
各个 方面</w> 948
毛泽 东</w> 948
一 棵树</w> 947
不 致</w> 947
多 伦 947
缩 水</w> 947
难 堪</w> 947
构 思</w> 947
甜 点</w> 947
篱 笆</w> 947
狡 猾</w> 947
转 到</w> 946
林 中</w> 946
缺 血</w> 946
侵 占</w> 946
2 20</w> 946
独 资</w> 946
献 身</w> 946
关节 炎</w> 946
克什 米尔</w> 946
风 度</w> 945
此 案</w> 945
工 夫</w> 945
顶 点</w> 945
常 数</w> 945
园 林</w> 945
坐 落</w> 945
归 属</w> 945
遣 散</w> 945
扼 杀</w> 945
砍 伐</w> 945
战略 性</w> 945
拉 尔</w> 944
准 入</w> 944
高 精度</w> 944
检 获</w> 944
旺 盛</w> 944
共同 利益</w> 944
交 织</w> 943
海 洛 943
原 始 943
脸 颊</w> 943
P E 943
遗 迹</w> 943
三 聚 943
外 币</w> 943
资 历</w> 943
教育 部</w> 943
斯蒂 芬</w> 943
中 英文</w> 942
可 用性</w> 942
面 谈</w> 942
发 热</w> 942
华 德</w> 942
照 样</w> 942
受 灾</w> 942
积 蓄</w> 942
角 度 942
疑 惑</w> 942
第 九</w> 942
电视 剧</w> 942
两国 人民</w> 942
一 心</w> 941
空 洞</w> 941
波 多 941
应 是</w> 941
佩 戴</w> 941
停 泊</w> 941
减 至</w> 941
步 枪</w> 941
暗 淡</w> 941
社会 科学</w> 941
市场 营销</w> 941
中 外</w> 940
肥 沃</w> 940
每 届</w> 940
西 尔</w> 940
故 障 940
反 叛</w> 940
格 雷 940
白 血 940
倒 下</w> 940
R I</w> 940
武 术</w> 940
奏 效</w> 940
闯 入</w> 940
10 7</w> 940
国家 标准</w> 940
香港 大学</w> 940
日本 政府</w> 940
布 罗 939
德 国 939
那 州</w> 939
贯 彻 939
美 貌</w> 939
侵 袭</w> 939
乐 团</w> 939
低 价</w> 939
威 尼斯</w> 939
论 者</w> 939
往 前</w> 939
不 成 938
C iti 938
贝 克</w> 938
为 时 938
清 偿</w> 938
软 骨</w> 938
分 校</w> 938
谋 生</w> 938
联合 体</w> 938
阿拉伯 人</w> 938
健身 房</w> 938
曼哈 顿</w> 938
反倾销 税</w> 938
拉 克 937
各 部</w> 937
无 可</w> 937
电 动机</w> 937
读 过</w> 937
玛 利亚</w> 937
九 日</w> 936
轻 型</w> 936
遗 留</w> 936
黑 板</w> 936
态 势</w> 936
偏 爱</w> 936
失 明</w> 936
炮 弹</w> 936
偷 窃</w> 936
脂肪 酸</w> 936
百 计</w> 935
别 说</w> 935
斯 克</w> 935
起 誓</w> 935
A P</w> 935
致 于</w> 935
p h 935
苦 苦</w> 935
率 先</w> 935
呕 吐</w> 935
洗衣 机</w> 935
特派 团</w> 935
在生活 中</w> 935
瑞 德</w> 934
金 刚 934
自 力 934
动 力 934
结 核 934
省 略</w> 934
分 行</w> 934
4 50</w> 934
细 小</w> 934
农 历</w> 934
事实 证明</w> 934
日 落</w> 933
甲 基</w> 933
自 大</w> 933
F ac 933
取 胜</w> 933
天 鹅</w> 933
腔 镜</w> 933
教 资会</w> 933
位 子</w> 933
普 斯</w> 933
仰 望</w> 933
办公 时间</w> 933
As s 933
有 如</w> 932
流 感 932
收 紧</w> 932
越 发</w> 932
童 话</w> 932
胜 者</w> 932
招 致</w> 932
搞 定</w> 932
l er</w> 932
达 尔</w> 931
探 险 931
有 幸</w> 931
报 盘</w> 931
酒 类</w> 931
纳 森</w> 931
募 集</w> 931
和 谈</w> 930
西 北部</w> 930
时 应</w> 930
壁 炉</w> 930
烹 调</w> 930
传 闻</w> 930
并非 如此</w> 930
裂 变</w> 929
未 婚 929
自 称</w> 929
身 于</w> 929
官 僚</w> 929
收 听</w> 929
上 传</w> 929
保 住</w> 929
娜 塔 929
沃尔 玛</w> 929
写信 给</w> 929
西 南部</w> 928
转 弯</w> 928
偏 远</w> 928
1 15</w> 928
着 装</w> 928
争 斗</w> 928
款 待</w> 928
卑 鄙</w> 928
近几 个月</w> 928
以 人 927
一 两个</w> 927
贝 克 927
防 洪</w> 927
摄 取</w> 927
摩 尔</w> 927
司 令</w> 927
党 内</w> 927
投资 人</w> 927
迫切 需要</w> 927
Sach s</w> 927
一 扇</w> 926
一 幕</w> 926
博 士学位</w> 926
公 会</w> 926
伤 残</w> 926
局 限于</w> 926
帐 目</w> 926
牌 子</w> 926
un g</w> 926
三 是</w> 925
便 士</w> 925
哮 喘</w> 925
坚 果</w> 925
践 踏</w> 925
番 茄</w> 925
飞行 器</w> 925
洗手 间</w> 925
三聚 氰胺</w> 925
毛 细 924
利 美</w> 924
摇 摆</w> 924
8 52</w> 924
村 里</w> 924
U N 924
架 上</w> 924
c o</w> 924
致 敬</w> 924
or e</w> 924
废弃 物</w> 924
波多 黎 924
中 小</w> 923
之 手</w> 923
西 雅 923
同 级</w> 923
收 于</w> 923
期 货 923
抱 负</w> 923
献 上</w> 923
分 明</w> 923
房 利美</w> 923
闹 钟</w> 923
a z 923
it al</w> 923
日 制</w> 922
在 世</w> 922
晶 体 922
先 行</w> 922
J P</w> 922
难 看</w> 922
u e</w> 922
剧 作家</w> 922
转 折 921
雪 莉</w> 921
马 达</w> 921
下 达</w> 921
套 房</w> 921
活 儿</w> 921
向 着</w> 921
预 售</w> 921
挽 回</w> 921
搭 乘</w> 921
记 号</w> 921
巧 合</w> 921
激 进 921
生活 费</w> 921
存储 器</w> 921
无关 紧要</w> 921
亚 地区</w> 920
震 撼</w> 920
大 陆 920
学 好</w> 920
格 言</w> 920
注 资</w> 920
小 贩</w> 920
气 泡</w> 920
权 威 920
基 质</w> 920
乔 丹</w> 920
商 家</w> 920
专 卖</w> 920
奶 牛</w> 920
男 子 920
计算 公式</w> 920
广播 电台</w> 920
努力 学习</w> 920
得 益于</w> 919
博 览会</w> 919
因 应</w> 919
发 货</w> 919
全 然</w> 919
管 子</w> 919
哈 哈</w> 919
养 育</w> 919
模 态</w> 919
改 编</w> 919
斟 酌</w> 919
牺 牲 919
ag e</w> 919
第八 章</w> 919
甲 烷</w> 918
体 贴</w> 918
水 泵</w> 918
士 气</w> 918
动 脉 918
赫 尔 918
数 次</w> 918
王 朝</w> 918
天 黑</w> 918
掩 护</w> 918
归 于</w> 918
伤 痛</w> 918
围 墙</w> 918
监 护</w> 918
不同 寻常</w> 918
一 幢</w> 917
性 别 917
最 终 917
绿 茶</w> 917
胸 前</w> 917
校 友</w> 917
介 词</w> 917
膨 胀率</w> 917
中国 日报</w> 917
an t 917
波多黎 各</w> 917
S ec 916
线 图</w> 916
居 所</w> 916
常 任</w> 916
羊 羔</w> 916
雨 林</w> 916
L in 916
两 分钟</w> 916
互 补</w> 916
e w</w> 916
狩 猎</w> 916
系统 地</w> 916
阿姆 斯特 916
可视 化</w> 916
以 供</w> 915
总 统 915
视 性</w> 915
婚 前</w> 915
石 块</w> 915
应 聘</w> 915
药 剂</w> 915
致 以</w> 915
房 门</w> 915
环境 卫生</w> 915
集 团 914
喷 射</w> 914
灌 注</w> 914
还 价</w> 914
招 生</w> 914
牵 引</w> 914
忙 忙</w> 914
打字 机</w> 914
德 勒</w> 913
许 诺</w> 913
轮 椅</w> 913
后 裔</w> 913
瓦 解</w> 913
使 劲</w> 913
视 着</w> 913
听 懂</w> 913
外 貌</w> 913
增 值 913
应 收</w> 913
场 馆</w> 913
歧 视性</w> 913
苹果 公司</w> 913
角度 看</w> 913
一 世</w> 912
C ha 912
必 需品</w> 912
代 数</w> 912
建 局</w> 912
电 信 912
纳 特</w> 912
2 26</w> 912
难 怪</w> 912
点 火</w> 912
屏 蔽</w> 912
麻 疹</w> 912
惟 有</w> 912
谓 语</w> 912
民事 诉讼</w> 912
特殊 性</w> 912
大 熊猫</w> 911
捕 捞</w> 911
供 参考</w> 911
师 傅</w> 911
乔 布斯</w> 911
理 发 911
灌 木 911
沉 没</w> 911
访 华</w> 911
开发 银行</w> 911
as h 911
自力 更生</w> 911
光 碟</w> 910
其 一</w> 910
风 光</w> 910
飞 过</w> 910
开 火</w> 910
摇 滚 910
凝 视着</w> 910
深 渊</w> 910
跨 境</w> 910
首 饰</w> 910
裸 体</w> 910
派 驻</w> 910
我 想</w> 909
道 义</w> 909
花 瓣</w> 909
造 影</w> 909
带 宽</w> 909
略 有</w> 909
整 数</w> 909
撕 裂</w> 909
普遍 认为</w> 909
失败 者</w> 909
四 季</w> 908
功 于</w> 908
牛 顿</w> 908
必 备</w> 908
水 电</w> 908
新 手</w> 908
想 得到</w> 908
更 多地</w> 908
胡 萝卜</w> 908
旧 约</w> 908
石 墨</w> 908
挤 满</w> 908
靴 子</w> 908
冗 长</w> 908
class 8</w> 908
分析 家</w> 908
可不 可以</w> 908
一 节</w> 907
热 潮</w> 907
适 时</w> 907
王 星</w> 907
碳 酸 907
e e</w> 907
毗 邻</w> 907
最高 人民法院</w> 907
克莱 尔</w> 907
民意 调查</w> 907
一 条 906
有 钱 906
流 畅</w> 906
卡 罗</w> 906
游 击 906
归 功于</w> 906
B us 906
1 1%</w> 906
枢 纽</w> 906
中国 银行</w> 906
Ch ri 906
不知所 措</w> 906
选 拔</w> 905
中 年</w> 905
原 体</w> 905
几 小时</w> 905
三 岁</w> 905
年 会</w> 905
长 短</w> 905
缴 费</w> 905
筷 子</w> 905
放大 器</w> 905
杂货 店</w> 905
请 教</w> 904
道 琼斯</w> 904
电 气 904
活 塞</w> 904
指 示 904
喝 点</w> 904
19 50</w> 904
第四十 五</w> 904
哥伦 比亚 904
在 座</w> 903
磁 共振</w> 903
脊 髓</w> 903
立 大学</w> 903
追 加</w> 903
阅 读 903
零 年</w> 903
情 书</w> 903
救 生 903
早 些</w> 903
关键 在于</w> 903
密集 型</w> 903
机 车</w> 902
光 源</w> 902
各 式 902
该 股</w> 902
时 而</w> 902
老 式</w> 902
迟 钝</w> 902
液 化</w> 902
斑 点</w> 902
痊 愈</w> 902
设计 者</w> 902
生命 周期</w> 902
各式 各样</w> 902
不 知道</w> 901
人 以</w> 901
换 言之</w> 901
互 惠</w> 901
受益 者</w> 901
唐太 斯</w> 901
无 处 900
音 量</w> 900
平 和</w> 900
渔 夫</w> 900
被 控</w> 900
女 郎</w> 900
危 急</w> 900
缴 款</w> 900
塑料 袋</w> 900
明确 规定</w> 900
波罗 的 900
对 本</w> 899
得 主</w> 899
开 个</w> 899
田 地</w> 899
照 会</w> 899
坏 习惯</w> 899
艰 辛</w> 899
以人 为本</w> 899
一 岁</w> 898
不 起 898
牛 津</w> 898
复 员</w> 898
霍 乱</w> 898
吉 利</w> 898
小 波</w> 898
协 商 898
巴 赫</w> 898
照 耀</w> 898
穿 梭</w> 898
参 看</w> 898
o x</w> 898
喝 醉</w> 898
浙 江</w> 898
艺 人</w> 898
自治 县</w> 898
集中 精力</w> 898
之 力</w> 897
人 则</w> 897
向 前走</w> 897
丰 富 897
W il 897
o o</w> 897
扰 动</w> 897
令人 兴奋</w> 897
人口 普查</w> 897
水 务</w> 896
性 关系</w> 896
霍 华德</w> 896
反 向</w> 896
迷 恋</w> 896
北 省</w> 896
天 主 896
指导 意义</w> 896
百万 富翁</w> 896
优惠 政策</w> 896
润滑 油</w> 896
集 结</w> 895
线 圈</w> 895
新 政府</w> 895
动 态 895
更 进一步</w> 895
饭 馆</w> 895
柠 檬</w> 895
第二 阶段</w> 895
克莱 斯勒</w> 895
我 本</w> 894
新 奇</w> 894
转 播</w> 894
肾 上 894
地 震 894
W S 894
枯 竭</w> 894
分 裂 894
推 向</w> 894
两 性</w> 894
征 得</w> 894
大学 毕业</w> 894
注射 液</w> 894
移动 电话</w> 894
自 有</w> 893
凡 事</w> 893
立 陶 893
沐 浴</w> 893
18 %</w> 893
不 胜 892
事 是</w> 892
填 料</w> 892
为 重</w> 892
较 差</w> 892
言 不 892
灵 敏</w> 892
资 产阶级</w> 892
寺 庙</w> 892
失 落</w> 892
堆 积</w> 892
专业 知识</w> 892
极其 重要</w> 892
本 体</w> 891
本 领</w> 891
赛 场</w> 891
大 风</w> 891
圣 节</w> 891
君 王</w> 891
视 频 891
电 容</w> 891
草 药</w> 891
社 区 891
答 辩</w> 891
挤 出</w> 891
馅 饼</w> 891
第四十 二条</w> 891
神经 系统</w> 891
用户 界面</w> 891
大 山</w> 890
拉 开</w> 890
多 糖</w> 890
财 经</w> 890
特 工</w> 890
故 乡</w> 890
下 台</w> 890
预 处理</w> 890
气 动</w> 890
皮 带</w> 890
分 离 890
客 机</w> 890
初 中</w> 890
es t</w> 890
两国 关系</w> 890
橄榄 球</w> 890
eb ook</w> 890
阿 密</w> 889
高 雅</w> 889
心 肌</w> 889
源 性</w> 889
吓 坏</w> 889
基因 组</w> 889
德 纳</w> 888
水 化合物</w> 888
性 爱</w> 888
君 子</w> 888
叫 醒</w> 888
见 识</w> 888
入 住</w> 888
几 十</w> 888
工 资 888
横 跨</w> 888
法 制 888
背 包</w> 888
重 伤</w> 888
优 秀 888
察 看</w> 888
1 12</w> 888
碳 水化合物</w> 888
乌 鸦</w> 888
掀 起</w> 888
阵 营</w> 888
心 事</w> 887
P ar 887
谈 判 887
深 沉</w> 887
成 就 887
运 往</w> 887
梯 子</w> 887
治 安 887
养 活</w> 887
犯 错误</w> 887
螺 纹</w> 887
罐 头</w> 887
卫生 间</w> 887
和平 利用</w> 887
理论 依据</w> 887
机 电</w> 886
一 万 886
网 民</w> 886
贝 尔斯</w> 886
带 子</w> 886
丰 收</w> 886
泉 水</w> 886
外 围</w> 886
到 位</w> 886
节 省 886
规 模 886
隐 蔽</w> 886
诽 谤</w> 886
第二 年</w> 886
小型 张</w> 886
光 束</w> 885
大 屠杀</w> 885
后 天</w> 885
C T 885
阳 性</w> 885
身 影</w> 885
子 系统</w> 885
谦 卑</w> 885
另 一只</w> 885
第一 年</w> 885
en n 885
多伦 多</w> 885
进 取</w> 884
富 于</w> 884
该 司</w> 884
M e 884
除 掉</w> 884
抽 取</w> 884
防 火 884
全 盘</w> 884
乐 曲</w> 884
满 怀</w> 884
推 开</w> 884
B BC</w> 884
20 11</w> 884
生物 学家</w> 884
印度 洋</w> 884
迪 瓦</w> 883
斯 塔 883
起 因</w> 883
重 重 883
降 价</w> 883
严 谨</w> 883
访 谈</w> 883
迈 阿密</w> 883
困 苦</w> 883
请 原谅</w> 882
曲 子</w> 882
圣 地 882
老 兄</w> 882
补 偿 882
顶 上</w> 882
物 业 882
默 德</w> 882
举 个</w> 882
狭 隘</w> 882
矿 物质</w> 882
现 况</w> 882
望 去</w> 882
感到 高兴</w> 882
边 坡</w> 881
换 器</w> 881
涂 抹</w> 881
取 缔</w> 881
低 落</w> 881
r e</w> 881
改 建</w> 881
牢 记</w> 881
第四十 四条</w> 881
烧 毁</w> 880
G e 880
更 快</w> 880
谢 意</w> 880
信 奉</w> 880
邮 报</w> 880
芬 芳</w> 880
梦 境</w> 880
膜 炎</w> 880
分 散 880
4 000</w> 880
伍 德</w> 880
罐 子</w> 880
概 念 880
19 . 880
第二 次世界大战</w> 880
世界 性</w> 880
技术 转让</w> 880
结构 调整</w> 880
斯科 特</w> 880
之 久</w> 879
表 单</w> 879
西 安</w> 879
万 圣节</w> 879
总 协定</w> 879
自 负</w> 879
罗 毕</w> 879
实 在 879
申 领</w> 879
整 夜</w> 879
en c 879
阿拉伯 语</w> 879
富 兰 878
得 救</w> 878
复 数</w> 878
白 雪 878
宝 座</w> 878
独 裁 878
莉 亚</w> 878
判 断 878
统计 局</w> 878
Th e</w> 878
纤维 素</w> 878
利润 率</w> 878
根 基</w> 877
国 界</w> 877
雪 橇</w> 877
常 有</w> 877
二 手 877
检 察</w> 877
赐 予</w> 877
搬 进</w> 877
薯 条</w> 877
二十 五</w> 877
数十 亿美元</w> 877
转折 点</w> 877
进 一步 876
大 树</w> 876
必 有</w> 876
弗 里</w> 876
波 斯</w> 876
电 动 876
蒂 斯</w> 876
罗 拉</w> 876
受 人</w> 876
言 辞</w> 876
i v 876
高等 法院</w> 876
集成 电路</w> 876
承租 人</w> 876
进一步 提高</w> 876
肺 部</w> 875
有 意识</w> 875
音 调</w> 875
因 果 875
老 公</w> 875
格 拉斯</w> 875
发 电 875
缺 乏 875
门 槛</w> 875
凋 亡</w> 875
苛 刻</w> 875
置 评</w> 875
金正 日</w> 875
化 解</w> 874
大 堂</w> 874
每 星期</w> 874
水 印</w> 874
M E 874
电 车</w> 874
额 头</w> 874
出 发 874
规 避</w> 874
底 线</w> 874
阈 值</w> 874
逝 世</w> 874
卫生 防护</w> 874
分之 三</w> 874
四 点</w> 873
不 见 873
爱 国 873
发 泄</w> 873
备 有</w> 873
k s</w> 873
仍 会</w> 873
漂 浮</w> 873
社会 化</w> 873
厚 厚 872
拘 禁</w> 872
扫 除</w> 872
戈 登</w> 872
警 戒</w> 872
粘 土</w> 872
企 鹅</w> 872
专 栏</w> 872
喊 叫</w> 872
第三十 七条</w> 872
反应 器</w> 872
主导 地位</w> 872
厚厚 的</w> 872
周 刊</w> 871
热 切</w> 871
花 生</w> 871
节 俭</w> 871
彩 票</w> 871
L 1</w> 871
禁 试</w> 871
冷 水</w> 871
派 系</w> 871
一大 批</w> 871
四 分之三</w> 870
西 蒙</w> 870
排 球</w> 870
平 壤</w> 870
门 户</w> 870
打 球</w> 870
N 1</w> 870
抛 售</w> 870
驻 扎</w> 870
刑事 诉讼</w> 870
民事 行为</w> 870
加利福 尼亚州</w> 870
机 智</w> 869
中 秋 869
逐 年</w> 869
繁 多</w> 869
来 得 869
深 水</w> 869
纽 带</w> 869
剪 辑</w> 869
倾 销</w> 869
早 先</w> 869
调查 局</w> 869
德 里克</w> 868
克 利</w> 868
性 情</w> 868
卡 拉 868
血 性</w> 868
顶 尖</w> 868
环 形</w> 868
再 造</w> 868
武 汉</w> 868
着 眼 868
蚀 性</w> 868
亵 渎</w> 868
达尔 文</w> 868
修道 院</w> 868
黄 素</w> 867
斐 济</w> 867
匹 马</w> 867
普 勒</w> 867
两 者之间</w> 867
溢 出</w> 867
叙 事</w> 867
大力 支持</w> 867
不大 可能</w> 867
一 瞬间</w> 866
西 贡</w> 866
他 命</w> 866
小 队</w> 866
哀 悼</w> 866
二 元</w> 866
顿 时</w> 866
抚 摸</w> 866
u ri 866
搬 运</w> 866
西雅 图</w> 866
四 次</w> 865
新 政</w> 865
热 处理</w> 865
E d 865
抗 原</w> 865
地 望</w> 865
滑 冰</w> 865
冲 浪</w> 865
课 程 865
忧 愁</w> 865
讨 好</w> 865
昏 迷</w> 865
蝙 蝠</w> 865
俘 虏</w> 865
通货 膨胀率</w> 865
ing s</w> 865
中东 地区</w> 865
编辑 器</w> 865
克 利 864
海 员</w> 864
违 规</w> 864
差 错</w> 864
书 上</w> 864
高 价</w> 864
闪 耀</w> 864
炉 子</w> 864
记 入</w> 864
渔 民</w> 864
互 换</w> 864
思想 家</w> 864
选举 权</w> 864
中 美 863
C N</w> 863
水 利</w> 863
户 口</w> 863
M ac 863
反 射 863
利 益 863
最 受</w> 863
恶 作 863
耶 利 863
贫 民 863
拳 头</w> 863
末 日</w> 863
块 钱</w> 863
拒 绝 863
拷 贝</w> 863
197 2</w> 863
st e 863
符合 国家</w> 863
迪 拜</w> 862
相 成</w> 862
族 群</w> 862
世 代</w> 862
掠 夺</w> 862
踢 球</w> 862
第三 季度</w> 862
马拉 维</w> 862
增值 税</w> 862
群 众 861
更 为重要</w> 861
利 士</w> 861
套 装</w> 861
千 元</w> 861
增 殖</w> 861
1 16</w> 861
椭 圆</w> 861
橱 窗</w> 861
美国 公司</w> 861
太平 洋 861
购买 力</w> 861
四川 省</w> 861
滥用 职权</w> 861
洛 伊</w> 860
次 日</w> 860
自 如</w> 860
振 荡</w> 860
七 岁</w> 860
合 剂</w> 860
难 关</w> 860
教 师 860
过 大</w> 860
公 吨</w> 860
笨 蛋</w> 860
害 人</w> 860
罪 人</w> 860
诉 诸</w> 860
偷 运</w> 860
鳄 鱼</w> 860
俚 语</w> 860
阿拉 斯加</w> 860
二零零 八年</w> 860
经验 丰富</w> 860
缓冲 区</w> 860
可 行 859
流 浪</w> 859
莫 过于</w> 859
香 草</w> 859
硫 酸</w> 859
铝 合金</w> 859
订 婚</w> 859
孩 童</w> 859
自治 州</w> 859
富 豪</w> 858
马 尔</w> 858
十 六</w> 858
所 要</w> 858
地 区 858
脑 海中</w> 858
语 调</w> 858
餐 具</w> 858
确 有</w> 858
瘟 疫</w> 858
an n 858
测量 师</w> 858
无 核武器</w> 857
李 先生</w> 857
有 成效</w> 857
上 部</w> 857
左 侧</w> 857
起 重 857
起 始</w> 857
作 好</w> 857
破 损</w> 857
基 亚</w> 857
玉 米 857
营 救</w> 857
借 款人</w> 857
灾 祸</w> 857
en ce</w> 857
斯洛 文 857
Gold man</w> 857
化 肥</w> 856
无 奈</w> 856
老 百姓</w> 856
何 等</w> 856
遇 难</w> 856
独 有</w> 856
耕 种</w> 856
趣 味</w> 856
些 年来</w> 856
贫困 人口</w> 856
麻醉 品</w> 856
无 穷</w> 855
宽 敞</w> 855
开 通</w> 855
老 年 855
切 削</w> 855
切 勿</w> 855
十 分之一</w> 855
浓 郁</w> 855
耳 机</w> 855
股 息</w> 855
推 动力</w> 855
铸 铁</w> 855
票 价</w> 855
19 9</w> 855
足球 比赛</w> 855
定居 点</w> 855
立陶 宛</w> 855
流 水</w> 854
内 核</w> 854
摸 索</w> 854
罗 拉 854
美 化</w> 854
顿 饭</w> 854
模 范</w> 854
核 裁军</w> 854
杂 质</w> 854
售 卖</w> 854
幸 存</w> 854
赞助 商</w> 854
半 径</w> 853
日 语</w> 853
之 意</w> 853
每 一件</w> 853
每 天晚上</w> 853
露 营</w> 853
买 主</w> 853
内 疚</w> 853
阻 抗</w> 853
张 贴</w> 853
W e</w> 853
矿 区</w> 853
须 要</w> 853
躯 体</w> 853
饮食 习惯</w> 853
出发 点</w> 853
干 杯</w> 852
金 发</w> 852
所 作 852
地 用</w> 852
付 清</w> 852
托 运</w> 852
平 面 852
教 员</w> 852
立 案</w> 852
运 载</w> 852
征 兆</w> 852
新闻 记者</w> 852
恶作 剧</w> 852
亚 瑟</w> 851
不 切 851
多 巴 851
太 远</w> 851
M S</w> 851
货 柜</w> 851
承 载 851
伊 拉克 851
石 化</w> 851
字 眼</w> 851
萨 尔</w> 851
登 山</w> 851
占 有 851
品 格</w> 851
量 级</w> 851
专 制</w> 851
监 理</w> 851
一 束</w> 850
片 机</w> 850
动 不动</w> 850
报 送</w> 850
双 层</w> 850
盖 子</w> 850
足 迹</w> 850
残 暴</w> 850
并 存</w> 850
如 意</w> 850
界 别</w> 850
浓 厚</w> 850
梦 中</w> 850
识 别 850
国防 部长</w> 850
随身 携带</w> 850
参赛 者</w> 850
所作 所为</w> 850
机 动车</w> 849
之 急</w> 849
多 功能</w> 849
东 南部</w> 849
管 家</w> 849
相 辅 849
放 映</w> 849
过 热</w> 849
第四十 条</w> 849
波罗的 海</w> 849
以 致于</w> 848
密 封 848
多 变</w> 848
高 技术</w> 848
T S</w> 848
电 费</w> 848
增 设</w> 848
1 14</w> 848
编 纂</w> 848
第一 项</w> 848
不 人道</w> 847
无 能</w> 847
毛 里 847
手 术 847
公 益</w> 847
退 缩</w> 847
很 差</w> 847
航 道</w> 847
粘 度</w> 847
避 难 847
p or 847
录 音 847
电子 产品</w> 847
土 族</w> 846
拉 姆</w> 846
无 益</w> 846
那 本</w> 846
已 于</w> 846
凯 文</w> 846
D E 846
下 个</w> 846
心 肠</w> 846
打 猎</w> 846
养 老</w> 846
传 播 846
农 场主</w> 846
衔 接</w> 846
第四十 六</w> 846
独立 自主</w> 846
危险 品</w> 846
相辅 相成</w> 846
之 声</w> 845
四 天</w> 845
转 速</w> 845
起 居室</w> 845
所 定</w> 845
所 获</w> 845
小 汽车</w> 845
私 家 845
七 八 845
分 配 845
B ri 845
减 去</w> 845
橡 树</w> 845
安全 措施</w> 845
化学 武器</w> 845
并不 一定</w> 845
质量 标准</w> 845
武器 装备</w> 845
无 忧</w> 844
特 异性</w> 844
谐 波</w> 844
货 物 844
画 廊</w> 844
三 百 844
憎 恶</w> 844
p ro 844
嗓 音</w> 844
企业 法人</w> 844
产业 结构</w> 844
Rich ard</w> 844
提取 物</w> 844
斯洛文 尼亚</w> 844
交 出</w> 843
性 研究</w> 843
骨 架</w> 843
开 朗</w> 843
关 头</w> 843
起 义</w> 843
切 斯特</w> 843
显 著 843
碱 性</w> 843
便 捷</w> 843
晚 安</w> 843
污 水处理</w> 843
房 里</w> 843
辐 射 843
压缩 机</w> 843
甲状 腺</w> 843
有点 像</w> 843
可行 性研究</w> 843
避难 所</w> 843
日 封</w> 842
本 地 842
不 及 842
内 罗毕</w> 842
开 阔</w> 842
上 床 842
摩 天 842
三 家</w> 842
首 日封</w> 842
l l</w> 842
掉 下来</w> 842
共同 点</w> 842
原子 能 842
上床 睡觉</w> 842
一 模 841
一 概</w> 841
得 体</w> 841
交 叉 841
事 无 841
南 海</w> 841
正 经</w> 841
希 特勒</w> 841
台 词</w> 841
地 主</w> 841
巴 塞 841
听 证</w> 841
神 气</w> 841
门 诊</w> 841
通 胀率</w> 841
评 选</w> 841
服务 费</w> 841
一个 多</w> 841
故障 诊断</w> 841
不切 实际</w> 841
一模 一样</w> 841
高 品质</w> 840
界 人士</w> 840
租 户</w> 840
c om 840
拟 合</w> 840
庭 院</w> 840
扮 演 840
普通 话</w> 840
同位 素</w> 840
灯 塔</w> 839
新 年 839
上 瘾</w> 839
修 好</w> 839
作 曲 839
品 位</w> 839
强 势</w> 839
团 伙</w> 839
197 7</w> 839
当地 政府</w> 839
烧 结</w> 838
有 形</w> 838
风 雪</w> 838
做 爱</w> 838
感 谢 838
向 外</w> 838
放 贷</w> 838
言 论 838
低 头</w> 838
街 市</w> 838
两 党</w> 838
两 旁</w> 838
燃 料 838
邻 居 838
触 犯</w> 838
检查 一下</w> 838
平方 公里</w> 838
批评 家</w> 838
正常 化</w> 838
言论 自由</w> 838
一 端</w> 837
C la 837
学 系</w> 837
自 足</w> 837
代 词</w> 837
P A</w> 837
门 上</w> 837
校 园 837
技术 支持</w> 837
公司 债券</w> 837
说得 对</w> 837
震 荡</w> 836
那 好</w> 836
手 持</w> 836
表 层</w> 836
护 者</w> 836
深 表</w> 836
副 词</w> 836
母 牛</w> 836
往 后</w> 836
惩 治</w> 836
出版 商</w> 836
一般 而言</w> 836
布 雷 835
钟 声</w> 835
2 40</w> 835
幻 觉</w> 835
3 5%</w> 835
资 格 835
伟 人</w> 835
太阳 系</w> 835
纽约 时报</w> 835
拉斯 维加斯</w> 835
书 亚</w> 834
G PS</w> 834
封 建 834
电 场</w> 834
拥 护</w> 834
瓷 器</w> 834
司令 部</w> 834
远 比</w> 833
事 要</w> 833
万 能</w> 833
东 南 833
里 人</w> 833
下 落</w> 833
分 立</w> 833
耀 眼</w> 833
一年 一度</w> 833
以 东</w> 832
霍 尔</w> 832
自 语</w> 832
上 路</w> 832
老 挝</w> 832
观 主义</w> 832
梗 死</w> 832
p r 832
遍 及</w> 832
歪 曲</w> 832
噩 梦</w> 832
公司 章程</w> 832
优越 性</w> 832
白血 病</w> 832
一 月份</w> 831
黄 河</w> 831
交 朋友</w> 831
亮 度</w> 831
复 方</w> 831
M on 831
好 意</w> 831
礼 拜 831
彼 此 831
再 来</w> 831
会 场</w> 831
打 招呼</w> 831
耐 力</w> 831
传 授</w> 831
产业 化</w> 831
激动 人心</w> 831
衣 裙</w> 830
几 句话</w> 830
存 有</w> 830
菜 肴</w> 830
信 片</w> 830
路 过</w> 830
摔 倒</w> 830
一百 零 830
Ch ar 830
总 而言之</w> 829
变 质</w> 829
酸 钠</w> 829
Y ou</w> 829
瞧 瞧</w> 829
金融 中心</w> 829
th ers</w> 829
系统 性</w> 829
四十 八条</w> 829
大力 发展</w> 829
出生 率</w> 829
远 远 828
无 意识</w> 828
食 谱</w> 828
热 点 828
已 故</w> 828
封 装</w> 828
饮 品</w> 828
了 个</w> 828
淹 死</w> 828
第三 节</w> 828
亚洲 地区</w> 828
资料 库</w> 828
海岸 线</w> 828
西 省</w> 827
S m 827
劳 力</w> 827
圣 地</w> 827
热 情 827
花 粉</w> 827
先 天性</w> 827
带 入</w> 827
零 食</w> 827
离 家</w> 827
致 意</w> 827
Le h 827
足球 赛</w> 827
激光 器</w> 827
一 回</w> 826
对 系统</w> 826
转 入</w> 826
摇 滚</w> 826
出 行</w> 826
萨 达姆</w> 826
独 家</w> 826
打 下</w> 826
归 因于</w> 826
挪 用</w> 826
轴 向</w> 826
鹦 鹉</w> 826
外科 手术</w> 826
治安 管理</w> 826
刚 果</w> 825
酰 胺</w> 825
造 福</w> 825
精 心 825
闪 亮</w> 825
例 证</w> 825
孔 子</w> 825
便 携 825
焦 急</w> 825
觉 醒</w> 825
孕 育</w> 825
al l 825
诉讼 法</w> 825
回顾 性</w> 825
富兰 克林</w> 825
本 局</w> 824
列 国</w> 824
质 地</w> 824
M o 824
香 肠</w> 824
扫 罗</w> 824
心 病</w> 824
重 复 824
神 色</w> 824
成 瘾</w> 824
药 剂 824
不 定 823
书 记 823
座 椅</w> 823
精 品</w> 823
所 列</w> 823
显 微</w> 823
罗 德</w> 823
眼 看</w> 823
季 节性</w> 823
氏 度</w> 823
禁 用</w> 823
缓 缓</w> 823
才 干</w> 823
着 火</w> 823
浮 现</w> 823
巫 师</w> 823
偷 偷 823
6 000</w> 823
僵 硬</w> 823
国际 标准</w> 823
价格 指数</w> 823
直升 飞机</w> 823
愈来 愈</w> 823
一块 儿</w> 823
文 物 822
未 婚</w> 822
血 浆</w> 822
发 亮</w> 822
陆 续</w> 822
陈 列</w> 822
字 节</w> 822
长 着</w> 822
膀 胱</w> 822
国际 原子能 822
第四十 七条</w> 822
慈善 机构</w> 822
国际原子能 机构</w> 822
灯 笼</w> 821
等 效</w> 821
热 忱</w> 821
名 言</w> 821
老 龄</w> 821
岸 上</w> 821
法 团</w> 821
古 罗马</w> 821
穿 透</w> 821
毒 药</w> 821
军 团</w> 821
头 盔</w> 821
篇 章</w> 821
印 件</w> 821
写 字 821
欢 笑</w> 821
h e 821
蜗 牛</w> 821
歉 意</w> 821
第三 者</w> 821
医疗 机构</w> 821
圣地 亚哥</w> 821
中 所</w> 820
一 桩</w> 820
主 要 820
逐 步 820
智 者</w> 820
脸 部</w> 820
M S 820
心 底</w> 820
A B 820
抑 或</w> 820
应 由</w> 820
省 钱</w> 820
客 运</w> 820
录 制</w> 820
技术 创新</w> 820
银行 业务</w> 820
结构 设计</w> 820
不良 反应</w> 820
高高 的</w> 820
金刚 石</w> 820
可 悲</w> 819
国 营</w> 819
用 尽</w> 819
足 球队</w> 819
口 服</w> 819
脚 趾</w> 819
职 系</w> 819
铁 矿</w> 819
底 特 819
评 述</w> 819
降 温</w> 819
1 22</w> 819
绕 过</w> 819
致 死</w> 819
贸易 顺差</w> 819
大 蒜</w> 818
销 路</w> 818
车 型</w> 818
明 信片</w> 818
预 知</w> 818
相 干</w> 818
追 寻</w> 818
庄 园</w> 818
衰 减</w> 818
会议 记录</w> 818
大 屿 817
书 法</w> 817
高 风险</w> 817
陈 旧</w> 817
零 钱</w> 817
1 23</w> 817
大屿 山</w> 817
杜 洛 816
不 负 816
违 例</w> 816
湿 润</w> 816
斯 塔</w> 816
摇 摇 816
小 丑</w> 816
心 智</w> 816
公 关</w> 816
储 藏</w> 816
蘑 菇</w> 816
演 唱 816
樱 桃</w> 816
空间 站</w> 816
亚马 逊</w> 816
周 岁</w> 815
我 花</w> 815
五 角 815
效 劳</w> 815
升 温</w> 815
松 弛</w> 815
安 息</w> 815
存 档</w> 815
倒 退</w> 815
R A 815
嵌 入式</w> 815
灌 输</w> 815
睡 衣</w> 815
政 务</w> 815
梳 理</w> 815
无法 忍受</w> 815
默默 地</w> 815
颁奖 典礼</w> 815
Fac ebook</w> 815
各 区</w> 814
排 水 814
保 人</w> 814
山 东</w> 814
北 美洲</w> 814
较 少</w> 814
钢 琴 814
气 旋</w> 814
如 其 814
包 容</w> 814
客 车</w> 814
找 回</w> 814
20 . 814
某种 意义</w> 814
外科 医生</w> 814
生 来</w> 813
拉 登</w> 813
官 僚 813
小 组 813
小 溪</w> 813
诊 治</w> 813
准备 金</w> 813
巴巴 多斯</w> 813
巴塞 罗 813
底特 律</w> 813
四 十年</w> 812
嗅 觉</w> 812
外 加</w> 812
读 完</w> 812
汹 涌</w> 812
亿 英镑</w> 812
3 60</w> 812
民 法</w> 812
贵 重</w> 812
暗 中</w> 812
t hat</w> 812
弊 端</w> 812
新鲜 空气</w> 812
科 特 811
自 行 811
更 佳</w> 811
纳 州</w> 811
浸 泡</w> 811
外 边</w> 811
色 谱法</w> 811
贬 低</w> 811
化学 反应</w> 811
书面 通知</w> 811
露 丝</w> 810
气 压</w> 810
年 报</w> 810
年 限</w> 810
资 银行</w> 810
殷 勤</w> 810
虫 子</w> 810
乡 间</w> 810
专 递</w> 810
稀 有</w> 810
u t</w> 810
沉 睡</w> 810
遮 住</w> 810
嗓 子</w> 810
下 雪</w> 809
打 来</w> 809
药 材</w> 809
商 用</w> 809
哎 呀</w> 809
顾 虑</w> 809
翻 译成</w> 809
公共 交通</w> 809
it t 809
白雪 公主</w> 809
作曲 家</w> 809
性 病</w> 808
原 发性</w> 808
好 评</w> 808
前 门</w> 808
力 学 808
返 还</w> 808
A BC</w> 808
族 人</w> 808
纯 净</w> 808
撤 军</w> 808
香港 中文 808
一阵 子</w> 808
香港中文 大学</w> 808
光 照</w> 807
瑞 银</w> 807
多 谢</w> 807
每 逢</w> 807
珠 儿</w> 807
击 手</w> 807
驱 散</w> 807
发 起 807
最 差</w> 807
耕 作</w> 807
右 侧</w> 807
流行 病学</w> 807
阿 鲁 806
刚 性</w> 806
自 给 806
收 盘</w> 806
活 下去</w> 806
吞 噬</w> 806
法 国 806
球 菌</w> 806
图 示</w> 806
调查 报告</w> 806
实施 细则</w> 806
吉尔吉斯 斯坦</w> 806
一 代人</w> 805
测 绘</w> 805
水 性</w> 805
该 校</w> 805
含 糊</w> 805
脊 柱</w> 805
公 安</w> 805
旱 灾</w> 805
共 度</w> 805
共 鸣</w> 805
5 0 805
免 遭</w> 805
软件 开发</w> 805
参考 资料</w> 805
烟草 专卖</w> 805
中秋 节</w> 805
劳 拉</w> 804
收 率</w> 804
巨 星</w> 804
定 期 804
职 场</w> 804
m an 804
踢 足球</w> 804
咆 哮</w> 804
生产 国</w> 804
开放 式</w> 804
五 分</w> 803
该 法</w> 803
代 之</w> 803
明 媚</w> 803
脚 踝</w> 803
麻 木</w> 803
欢 快</w> 803
on y</w> 803
今天 上午</w> 803
咨询 服务</w> 803
至 多</w> 802
不 善</w> 802
体 质</w> 802
吉 布 802
自 律</w> 802
莫 雷尔</w> 802
病 症</w> 802
作 法</w> 802
最 深</w> 802
戴 安娜</w> 802
慢 跑</w> 802
徒 劳</w> 802
住 宅 802
盎 司</w> 802
保守 派</w> 802
Cap ital</w> 802
俄亥 俄 802
有线 电视</w> 802
大 连</w> 801
座 谈会</w> 801
花 岗 801
数 控</w> 801
物 项</w> 801
微 量</w> 801
三 百</w> 801
成 绩 801
健 壮</w> 801
冶 金</w> 801
譬 如</w> 801
oc k</w> 801
起 诉 800
诚 地</w> 800
稳 态</w> 800
重 写</w> 800
纳 西 800
冲 击 800
哪 种</w> 800
给 与</w> 800
版 权 800
命 题</w> 800
1 200</w> 800
盐 酸</w> 800
怀 抱</w> 800
冠 状 800
馆 长</w> 800
咀 嚼</w> 800
ar e</w> 800
现实 主义</w> 800
平等 互利</w> 800
克 族</w> 799
可 耻</w> 799
亮 点</w> 799
君 主</w> 799
想 像 799
树 丛</w> 799
提 单</w> 799
林 地</w> 799
示 意</w> 799
指 头</w> 799
批 量</w> 799
1 45</w> 799
臭 氧 799
私营 部门</w> 799
一 团 798
特 种</w> 798
新 几内亚</w> 798
报 应</w> 798
切 片</w> 798
电 图</w> 798
业 内</w> 798
罗 杰</w> 798
心 愿</w> 798
残 骸</w> 798
银 河</w> 798
持 股</w> 798
羽 毛 798
传 言</w> 798
斯蒂 德</w> 798
再也 不能</w> 798
犹豫 不决</w> 798
交 配</w> 797
同 居</w> 797
复 印</w> 797
七 天</w> 797
走 走</w> 797
退 税</w> 797
你 别</w> 797
长 久 797
害 虫</w> 797
紧 凑</w> 797
愚 昧</w> 797
之 而来</w> 796
列 祖</w> 796
无 偿</w> 796
表 皮</w> 796
看 不 796
绝 对 796
观 众 796
工 人 796
口 处</w> 796
乔 纳森</w> 796
玩 得</w> 796
母 亲节</w> 796
责 怪</w> 796
幼 稚</w> 796
十字 路口</w> 796
防火 墙</w> 796
科 罗拉 795
T C 795
原 油价格</w> 795
厂 房</w> 795
抗 菌</w> 795
地 铁 795
林 木</w> 795
单 片机</w> 795
满 脸</w> 795
纸 币</w> 795
聘 者</w> 795
括 号</w> 795
知识 经济</w> 795
圆 桌 794
这 要</w> 794
下 沉</w> 794
橙 色</w> 794
税 收 794
划 拨</w> 794
女 主人</w> 794
竣 工</w> 794
工作 坊</w> 794
自由 贸易</w> 794
化学 成分</w> 794
播放 器</w> 794
各 家</w> 793
维 他命</w> 793
总 区</w> 793
使 徒</w> 793
制 片 793
安 抚</w> 793
游 离</w> 793
鸡 尾 793
分 形</w> 793
盘 旋</w> 793
杀 伤性</w> 793
延 缓</w> 793
世 卫</w> 793
肠 癌</w> 793
琐 事</w> 793
扑 灭</w> 792
最 佳 792
8 5%</w> 792
仲 裁 792
函 件</w> 792
豆 腐</w> 792
U n 792
服务 质量</w> 792
ti on 792
is h 792
犯罪 分子</w> 792
ir e</w> 792
美联 社</w> 792
尼克 松</w> 792
大 阪</w> 791
都 行</w> 791
我 试</w> 791
探 访</w> 791
手 掌</w> 791
万 军</w> 791
由 此 791
放 在 791
脚 踏 791
沸 腾</w> 791
传 入</w> 791
1 28</w> 791
喝 杯</w> 791
赎 回</w> 791
瑕 疵</w> 791
国家 主权</w> 791
197 1</w> 791
一 等</w> 790
无 止 790
水 龙头</w> 790
贯 注</w> 790
好 感</w> 790
取 而 790
刀 子</w> 790
广 为</w> 790
难 说</w> 790
三 级</w> 790
举 足轻重</w> 790
珍 视</w> 790
估 量</w> 790
早 早</w> 790
lan d</w> 790
日 光</w> 789
不 动产</w> 789
自 备</w> 789
拓 宽</w> 789
热 烈 789
火 力</w> 789
更 少</w> 789
法 文</w> 789
消 息 789
施 工 789
结 成</w> 789
让 你 789
拦 截</w> 789
试 者</w> 789
喝 茶</w> 789
专利 申请</w> 789
沉积 物</w> 789
施加 压力</w> 789
一 班</w> 788
英 雄 788
加 迪 788
凯 西</w> 788
承 保</w> 788
实 实在 788
U R 788
考 古</w> 788
编 码 788
第二 种</w> 788
第四十 九条</w> 788
航空 运输</w> 788
军事 行动</w> 788
重新 考虑</w> 788
雄心 勃勃</w> 788
取而 代之</w> 788
实实在 在</w> 788
不 惜</w> 787
海 绵</w> 787
哈 克</w> 787
穆 罕 787
锋 利</w> 787
摒 弃</w> 787
la y 787
三十 一日</w> 787
记者 会</w> 787
一 览 786
跟 鞋</w> 786
轻 视</w> 786
红 酒</w> 786
湖 南</w> 786
丹 尼</w> 786
惊 慌</w> 786
救 赎</w> 786
香港 特区</w> 786
使用 费</w> 786
规范 化</w> 786
海 鸥</w> 785
南 南 785
贝 宁</w> 785
内 政 785
几 项</w> 785
预 留</w> 785
逆 境</w> 785
两 面</w> 785
着 眼</w> 785
涉 外</w> 785
赠 款</w> 785
市场 需求</w> 785
富 足</w> 784
星 级</w> 784
融 洽</w> 784
先 锋</w> 784
P S 784
通 行 784
佩 林</w> 784
17 %</w> 784
持续 增长</w> 784
出人 意料</w> 784
珊瑚 礁</w> 784
帕 特 783
破 旧</w> 783
沿 海地区</w> 783
藉 由</w> 783
Rob er 783
南南 合作</w> 783
科 医生</w> 782
学 界</w> 782
内 蒙古</w> 782
若 干 782
抗 争</w> 782
下 半年</w> 782
权 主义</w> 782
战 队</w> 782
皇 室</w> 782
赌 注</w> 782
检察 长</w> 782
反对 者</w> 782
西 区</w> 781
水 力</w> 781
高 强度</w> 781
里 根</w> 781
宠 物 781
衰 弱</w> 781
房 地</w> 781
第 九十 781
弱 势</w> 781
as s 781
贝克 汉姆</w> 781
达 到 780
不 绝</w> 780
空 中 780
自 已</w> 780
代 下</w> 780
论 据</w> 780
藐 视</w> 780
起重 机</w> 780
圆桌 会议</w> 780
密 西西 779
贝 拉</w> 779
名 牌</w> 779
联 接</w> 779
制 度 779
2 30</w> 779
骑 兵</w> 779
梅 尔</w> 779
运 载 779
惊 醒</w> 779
L L 779
声 援</w> 779
暴 乱</w> 779
纸 板</w> 779
措 词</w> 779
惩 处</w> 779
阿尔 贝</w> 779
持续 时间</w> 779
越来越 少</w> 779
别无 选择</w> 779
无 机</w> 778
高 额</w> 778
里 奇</w> 778
艾 米</w> 778
经济 损失</w> 778
总体 规划</w> 778
爵士 乐</w> 778
力学 性能</w> 778
臭氧 层</w> 778
德 利</w> 777
士 尼</w> 777
亮 相</w> 777
冰 冻</w> 777
闭 会</w> 777
安 心</w> 777
宝 藏</w> 777
搭 建</w> 777
神 学</w> 777
钻 进</w> 777
笑 了 777
果 树</w> 777
1 4%</w> 777
顾 问 777
滋 润</w> 777
色 泽</w> 777
透 视</w> 777
生产 能力</w> 777
公共 关系</w> 777
恶性 肿瘤</w> 777
有钱 人</w> 777
每 件</w> 776
博 会</w> 776
楼 花</w> 776
电 解 776
地 政 776
市 建局</w> 776
清 澈</w> 776
窃 贼</w> 776
实 习 776
外 贸 776
偏 向</w> 776
首 府</w> 776
诉 您</w> 776
渊 源</w> 776
告 诉您</w> 776
登记 册</w> 776
布 赖 775
大 王</w> 775
大 炮</w> 775
S erv 775
米 饭</w> 775
双 腿</w> 775
要 约</w> 775
打 折</w> 775
街 日报</w> 775
碰 上</w> 775
第 九届</w> 775
领 养</w> 775
华尔 街日报</w> 775
科特 迪瓦</w> 775
蓝 天</w> 774
行 李 774
C F 774
绝 地</w> 774
极 高</w> 774
标 书</w> 774
疏 远</w> 774
推 广 774
条 目</w> 774
了 婚</w> 774
续 费</w> 774
赢 家</w> 774
荒 野</w> 774
欺 负</w> 774
工程 学</w> 774
国家 联盟</w> 774
非常 简单</w> 774
穆罕 默德</w> 774
百 度</w> 773
麦 隆</w> 773
迪 士尼</w> 773
海 牙</w> 773
摇 摇头</w> 773
奥 利 773
沙 咀</w> 773
增 补</w> 773
操 控</w> 773
妥 当</w> 773
杀 戮</w> 773
1 13</w> 773
附 着</w> 773
自然 环境</w> 773
以 北</w> 772
在 校</w> 772
网 上 772
当 务 772
见 度</w> 772
里 德</w> 772
引 爆</w> 772
地 壳</w> 772
萨 诸 772
外 勤</w> 772
头 儿</w> 772
伴 有</w> 772
巡 回 772
印 花</w> 772
经济 委员会</w> 772
个人 所得税</w> 772
流行 病</w> 772
再也 不会</w> 772
当务 之急</w> 772
多 普勒</w> 771
面 子</w> 771
东 区</w> 771
小 红 771
制 定 771
医 药 771
受 阻</w> 771
还 款</w> 771
赤 道</w> 771
滋 生</w> 771
二零零 一年</w> 771
处理 程序</w> 771
保持 联系</w> 771
传染 性</w> 771
手提 包</w> 771
利 害 770
配 置 770
会 期</w> 770
情 境</w> 770
尚 有</w> 770
杂 草</w> 770
阶 梯</w> 770
才 行</w> 770
搬 家</w> 770
ic k 770
适用 范围</w> 770
未 成年</w> 769
双 重 769
恩 典</w> 769
触 动</w> 769
领 先 769
20 20</w> 769
实践 证明</w> 769
聪明 人</w> 769
药剂 师</w> 769
九 十</w> 768
宾 夕 768
几 条</w> 768
地 爱</w> 768
基 线</w> 768
细 分</w> 768
扣 留</w> 768
In v 768
新加 坡 768
城市 居民</w> 768
商标 注册</w> 768
Leh man</w> 768
至 上</w> 767
用 例</w> 767
损 害 767
户 外 767
杂 项</w> 767
女 巫</w> 767
紧 迫 767
弥 漫</w> 767
扼 要</w> 767
伺 服 767
您 好</w> 767
自由 主义</w> 767
物理 学家</w> 767
损害 赔偿</w> 767
密 歇 766
本 市</w> 766
一 击</w> 766
英 亩</w> 766
书 房</w> 766
所 称</w> 766
凝 视</w> 766
公 鸡</w> 766
外 商</w> 766
编 排</w> 766
缠 绕</w> 766
16 2</w> 766
在此 期间</w> 766
Bro thers</w> 766
以 利</w> 765
聚 糖</w> 765
大 体</w> 765
买 来</w> 765
高 跟鞋</w> 765
安 然</w> 765
接 过</w> 765
债 券 765
营 利</w> 765
蒙特 利尔</w> 765
债券 市场</w> 765
大 幅 764
当 晚</w> 764
来 电</w> 764
盖 销</w> 764
几 张</w> 764
遗 体</w> 764
二 进制</w> 764
教 义</w> 764
积 聚</w> 764
积 雪</w> 764
到 时候</w> 764
哈 里斯</w> 764
快 到</w> 764
牵 涉</w> 764
划 船</w> 764
w e 764
负责 管理</w> 764
联合国 总部</w> 764
毫不 犹豫</w> 764
寄生 虫</w> 764
C R 763
未 人</w> 763
收 集 763
E S 763
最 能</w> 763
二 个</w> 763
均 收入</w> 763
专 有</w> 763
印度 人</w> 763
股东 大会</w> 763
菲利 普</w> 763
俄亥俄 州</w> 763
可 可</w> 762
爱 国主义</w> 762
高 龄</w> 762
切 成</w> 762
冰 雪</w> 762
十 七</w> 762
小 额</w> 762
捷 径</w> 762
随 者</w> 762
打 出</w> 762
年 青 762
宪 政</w> 762
两 件</w> 762
传 出</w> 762
尖 端</w> 762
编 译 762
欣 喜</w> 762
氧化 剂</w> 762
一个 男孩</w> 762
保持 良好</w> 762
保持 沉默</w> 762
拖拉 机</w> 762
在 编</w> 761
食 者</w> 761
食 堂</w> 761
等 国</w> 761
高 声</w> 761
风 扇</w> 761
血 管 761
套 管</w> 761
十 大</w> 761
数 周</w> 761
射 频</w> 761
固 态</w> 761
带 头</w> 761
浪 漫 761
散 会</w> 761
栖 息</w> 761
另 行 761
液 态</w> 761
裁 判 761
人力 资本</w> 761
对 儿</w> 760
主 教练</w> 760
高 职</w> 760
消 亡</w> 760
天 主</w> 760
蒸 馏</w> 760
A N</w> 760
息 息 760
终 极</w> 760
假 冒</w> 760
席 卷</w> 760
幼 虫</w> 760
彻 底 760
候 选</w> 760
la n</w> 760
第一 部</w> 760
重要 环节</w> 760
Man ag 760
光 度 759
可 言</w> 759
对 阵</w> 759
填 满</w> 759
意 象</w> 759
重 塑</w> 759
牙 科</w> 759
难 免</w> 759
独 自 759
独 家 759
超 人</w> 759
增 益</w> 759
现 货</w> 759
捆 绑</w> 759
童 工</w> 759
少 许</w> 759
搏 斗</w> 759
芭 蕾 759
征 用</w> 759
根本 性</w> 759
si on</w> 759
主人 公</w> 759
可 变</w> 758
请 愿</w> 758
木 制</w> 758
击 球</w> 758
湖 人</w> 758
出 让</w> 758
X 射线</w> 758
洋 洋</w> 758
草 图</w> 758
分 给</w> 758
犯 规</w> 758
祖 父母</w> 758
掠 过</w> 758
不负 责任</w> 758
宾夕 法 758
年青 人</w> 758
独自 一人</w> 758
日 圆</w> 757
中 介 757
面 纱</w> 757
维 系</w> 757
解 救</w> 757
新 陈 757
正 文</w> 757
感 觉 757
预 应力</w> 757
汉 堡 757
定 时</w> 757
只 想</w> 757
评 为</w> 757
轨 道 757
订 约</w> 757
强 加 757
铲 除</w> 757
暂 行 757
分析 表明</w> 757
沃尔 特</w> 757
丰富 多彩</w> 757
新陈 代谢</w> 757
一 例</w> 756
聚 在一起</w> 756
烧 烤</w> 756
有 损</w> 756
弄 清</w> 756
小 说家</w> 756
个 儿</w> 756
殖民 主义</w> 756
星 际</w> 755
杰 作</w> 755
反 常</w> 755
江 苏</w> 755
北 角</w> 755
照 相</w> 755
优 缺点</w> 755
极 管</w> 755
喜 乐</w> 755
浙 江省</w> 755
幸 运 755
第一 夫人</w> 755
投 掷</w> 754
不 正</w> 754
径 向</w> 754
总 人口</w> 754
树 下</w> 754
M O 754
约 书亚</w> 754
宣 读</w> 754
抗 震</w> 754
结 识</w> 754
摩 加迪 754
标 语</w> 754
省 长</w> 754
降 低成本</w> 754
汇 丰</w> 754
风险 投资</w> 754
劳工 处</w> 754
生 意 753
一 粒</w> 753
稍 稍</w> 753
新 品种</w> 753
松 散</w> 753
好 不好</w> 753
全 程</w> 753
雄 厚</w> 753
否 决权</w> 753
枯 燥</w> 753
污 秽</w> 753
还 应</w> 753
课 堂 753
庆 幸</w> 753
从那 以后</w> 753
理工 大学</w> 753
一 环</w> 752
文 本 752
四 级</w> 752
而 知</w> 752
障 碍 752
丝 网</w> 752
波 形</w> 752
H S 752
十 几岁</w> 752
存 取</w> 752
接 电话</w> 752
年 度 752
夺 走</w> 752
喀 麦隆</w> 752
餐 饮</w> 752
葡萄 园</w> 752
长久 以来</w> 752
亚 利 751
功 能性</w> 751
水 文</w> 751
瓦 纳</w> 751
内 特</w> 751
电 灯</w> 751
口 径</w> 751
求 得</w> 751
药 性</w> 751
稀 土</w> 751
赎 罪</w> 751
慰 问</w> 751
法定 代表</w> 751
回忆 起</w> 751
来得 及</w> 751
杜洛 埃</w> 751
一 段 750
后 院</w> 750
爱 情 750
弗 雷德</w> 750
这 栋</w> 750
上 扬</w> 750
能 及</w> 750
兴 高 750
忽 职守</w> 750
g ov</w> 750
辞 去</w> 750
失 常</w> 750
搬 迁</w> 750
建筑 业</w> 750
依赖 性</w> 750
闪闪 发光</w> 750
灌木 丛</w> 750
着眼 于</w> 750
中 为</w> 749
短 短</w> 749
手 续费</w> 749
博 弈</w> 749
亮 光</w> 749
买 到</w> 749
总 要</w> 749
塞 进</w> 749
正 值</w> 749
血 症</w> 749
预 付</w> 749
背 着</w> 749
相 称</w> 749
声 器</w> 749
赞 成 749
文化 背景</w> 749
严重 后果</w> 749
大大 提高</w> 749
不及 待</w> 749
摩加迪 沙</w> 749
手 脚</w> 748
手 帕</w> 748
空 地</w> 748
江 河</w> 748
好 笑</w> 748
前 瞻 748
田 间</w> 748
难 于</w> 748
打 包</w> 748
低 点</w> 748
推 进 748
文化 交流</w> 748
计算机 系统</w> 748
第一百 五十</w> 748
那 样 747
加 州 747
面 试 747
自 家</w> 747
斯 利</w> 747
优 质 747
立 足 747
黑 白</w> 747
试 探</w> 747
猛 地</w> 747
严 酷</w> 747
室 友</w> 747
d er</w> 747
社会 秩序</w> 747
布莱 恩</w> 747
em ent</w> 747
今年 夏天</w> 747
从那 时起</w> 747
制定 者</w> 747
中 以</w> 746
都 拉斯</w> 746
勋 章</w> 746
复 印件</w> 746
绝 佳</w> 746
楼 房</w> 746
引 出</w> 746
压 低</w> 746
森 林 746
夜 空</w> 746
历 经</w> 746
禁 忌</w> 746
快 活</w> 746
架 飞机</w> 746
录 得</w> 746
详细 信息</w> 746
本 周一</w> 745
西 九龙</w> 745
有 位</w> 745
五 次</w> 745
高 分子</w> 745
火 箭 745
保 健 745
红 利</w> 745
切 口</w> 745
所 欲</w> 745
师 范 745
清 扫</w> 745
2 500</w> 745
低 压</w> 745
批 准 745
良 性</w> 745
玩 忽职守</w> 745
迫 不及待</w> 745
橡 皮 745
多种 多样</w> 745
无 动 744
无 耻</w> 744
万 事 744
片 子</w> 744
淡 淡 744
取 样</w> 744
低 调</w> 744
商 机</w> 744
赢 利</w> 744
涌 现</w> 744
生日 礼物</w> 744
友好 合作</w> 744
前瞻 性</w> 744
无动 于 744
容 貌</w> 743
刚 刚 743
叫 喊</w> 743
宾 客</w> 743
美 方</w> 743
诺 基亚</w> 743
倒 入</w> 743
幻 灯 743
栖 息 743
g roup</w> 743
慈 悲</w> 743
灾 民</w> 743
捐 赠 743
覆盖 率</w> 743
面试 官</w> 743
刚刚 开始</w> 743
计 时</w> 742
一 任</w> 742
达 斯</w> 742
蒙 受</w> 742
南 美洲</w> 742
格 莱德</w> 742
思 绪</w> 742
刺 激 742
酒 杯</w> 742
六 届</w> 742
再 三</w> 742
指 标 742
展 览 742
奴 役</w> 742
育 种</w> 742
避 难</w> 742
漫 游</w> 742
s c 742
首 尔</w> 742
然 大 742
阵 容</w> 742
焕 发</w> 742
办公 桌</w> 742
贝尔 格莱德</w> 742
进 行 741
之 子</w> 741
要 命</w> 741
伊 德</w> 741
到 访</w> 741
归 根 741
雨 伞</w> 741
两 座</w> 741
u l</w> 741
认 购</w> 741
筹 办</w> 741
多米 尼 741
本 赛季</w> 740
毛 发</w> 740
请 来</w> 740
交 代</w> 740
五 点</w> 740
比 特</w> 740
书 信</w> 740
内 有</w> 740
老 头</w> 740
州 立大学</w> 740
回 路</w> 740
订 明</w> 740
透 镜</w> 740
撰 文</w> 740
市场 化</w> 740
参考 价值</w> 740
媒体 报道</w> 740
在 实践 739
轻 声</w> 739
小 康 739
笔 钱</w> 739
市 政 739
相 伴</w> 739
装 入</w> 739
r a</w> 739
染 上</w> 739
欠 缺</w> 739
挨 饿</w> 739
t e</w> 739
外交 关系</w> 739
生日 快乐</w> 739
光 栅</w> 738
之 多</w> 738
腺 炎</w> 738
损 毁</w> 738
收 成</w> 738
小 家伙</w> 738
插 座</w> 738
背 心</w> 738
听 不见</w> 738
孔 隙</w> 738
放 纵</w> 738
7 50</w> 738
普 林 738
停 住</w> 738
哈 特</w> 738
京 都</w> 738
镶 嵌</w> 738
螺 钉</w> 738
class 9</w> 738
内心 深处</w> 738
无处 不在</w> 738
可 恶</w> 737
那 家伙</w> 737
T e 737
十 天</w> 737
二 世</w> 737
调 配</w> 737
成 败</w> 737
攻 势</w> 737
农 户</w> 737
千万 别</w> 737
中美 关系</w> 737
五角 大楼</w> 737
拉 动</w> 736
不 诚实</w> 736
主 耶稣</w> 736
那 张</w> 736
交 错</w> 736
人 意</w> 736
动 画 736
此 机会</w> 736
力 拓</w> 736
供 货</w> 736
钢 材</w> 736
受 惠</w> 736
忘 却</w> 736
尖 沙咀</w> 736
ac k 736
财政 政策</w> 736
oo l</w> 736
空气 质量</w> 736
经贸 合作</w> 736
可 图</w> 735
肥 胖 735
弗 洛 735
而 然</w> 735
风 貌</w> 735
陶 醉</w> 735
好 心</w> 735
好 几年</w> 735
合 力</w> 735
A l</w> 735
品 牌 735
13 5</w> 735
平均 值</w> 735
十九 世纪</w> 735
Dav id</w> 735
德 鲁</w> 734
按 规定</w> 734
S R</w> 734
人 均收入</w> 734
贝 壳</w> 734
火 烧</w> 734
明 尼 734
胡 须</w> 734
凝 结</w> 734
近 距离</w> 734
床 边</w> 734
黑 猩猩</w> 734
传 真 734
棍 子</w> 734
率 地</w> 734
国际 事务</w> 734
世界 级</w> 734
卫生 保健</w> 734
和 善</w> 733
我 见</w> 733
太 难</w> 733
学 过</w> 733
知 悉</w> 733
洪 都拉斯</w> 733
补 给</w> 733
相 聚</w> 733
8 5 733
直 立</w> 733
潜 水 733
某 项</w> 733
源 地</w> 733
采 烈</w> 733
暴 动</w> 733
铃 声</w> 733
编 造</w> 733
整 治</w> 733
欣 见</w> 733
另一 端</w> 733
13 %</w> 733
严格 遵守</w> 733
邓小 平</w> 733
拉 加</w> 732
非 同 732
食 欲</w> 732
复 制品</w> 732
特 快 732
魔 术 732
意 儿</w> 732
小 鸡</w> 732
王 先生</w> 732
相 貌</w> 732
最 美</w> 732
义 工</w> 732
贫 血</w> 732
两 块</w> 732
脆 弱 732
玩 意儿</w> 732
少 见</w> 732
柴 油机</w> 732
乌 云</w> 732
免 费 732
玷 污</w> 732
美国 作家</w> 732
充分 考虑</w> 732
幸福 感</w> 732
国内 法</w> 732
兴高 采烈</w> 732
面 容</w> 731
风 俗 731
报 上</w> 731
松 树</w> 731
力 所 731
伊 斯</w> 731
皮 细胞</w> 731
评 核</w> 731
O r 731
传 输 731
麻 痹</w> 731
朴 素</w> 731
写 字</w> 731
确 诊</w> 731
am a</w> 731
安东 尼</w> 731
中 小学</w> 730
[...]
