t h 15410449
i n 10833848
a n 9395766
th e</w> 9208442
t i 7807860
r e 7492921
e r 6576830
e n 6187750
o n 5987342
o f</w> 5503179
o n</w> 5292856
a r 5081787
e d</w> 4902313
o u 4885856
an d</w> 4737983
in g</w> 4703487
o r 4688815
t o</w> 4557152
e r</w> 4070937
i t 3918553
s t 3769454
e s</w> 3688416
a l 3561259
i n</w> 3466744
r o 3403695
i s</w> 3195632
a t 3115277
a ti 3060041
o s 2999642
a p 2897046
a l</w> 2888277
e c 2706736
o r</w> 2695301
a t</w> 2607330
i c 2582093
o m 2567142
a c 2548605
e l 2415978
e s 2246735
i s 2230024
i l 2220410
a s</w> 2213793
a n</w> 2170162
T h 2150142
a s 2026840
v e</w> 2012317
en t</w> 1873122
ap os 1811556
& apos 1811255
u r 1799040
e n</w> 1775366
p l 1750650
o l 1687432
ati on</w> 1686742
p ro 1603171
&apos ; 1600372
s i 1567648
q u 1515759
e m 1514451
r i 1513943
f or</w> 1498881
l y</w> 1498453
t s</w> 1444322
c on 1396783
Th e</w> 1379596
u s 1378201
h a 1373168
w h 1360889
th at</w> 1349193
e v 1318365
a d 1310894
u n 1301295
l i 1296661
n o 1280150
o u</w> 1239777
s u 1221838
a b 1216815
o t 1214475
d i 1198649
a g 1196734
s h 1195707
c e</w> 1188391
a m 1167135
- @</w> 1153312
@ -@</w> 1153312
c om 1120764
i t</w> 1118105
ti on</w> 1109913
l e</w> 1100899
c h 1081347
on s</w> 1077859
it h</w> 1068515
o p 1068350
re s 1063302
l o 1048629
t r 1046989
b e 1028001
th e 1023759
y ou</w> 1020832
e x 1020813
b e</w> 1017835
w ith</w> 1002895
a y</w> 984989
ar e</w> 978585
l e 947436
ou n 941924
u l 924939
g h 901452
f or 898658
d e 879136
&apos; s</w> 874816
er e</w> 872689
c i 867037
t er 862397
it y</w> 841766
l d</w> 834885
m ent</w> 827953
v er 812641
al l</w> 805592
i r 805459
u c 789163
n e 771966
i m 771497
w as</w> 771259
at e</w> 766061
b y</w> 762631
f f 754595
qu ot 753058
& quot 743124
&quot ;</w> 743124
ou r</w> 736823
a r</w> 710500
p er 708692
a k 708193
m e</w> 684914
ha ve</w> 684384
p e 682124
i d 672250
ou ld</w> 670745
s e 669703
th er</w> 663423
no t</w> 662454
w or 654657
er s</w> 647980
p or 647505
m e 642778
ou t</w> 641898
b u 639734
st r 630787
o w 623960
o o 616087
p ar 607872
en t 602262
d s</w> 595428
il l</w> 590074
h e</w> 580121
ro m</w> 565525
h i 562259
a i 557750
g r 556873
on e</w> 555212
f rom</w> 545615
th is</w> 545546
t er</w> 545198
e t</w> 523902
gh t</w> 523202
on al</w> 522550
t ed</w> 521297
a in 518422
es s</w> 518331
ati ons</w> 510838
c l 509489
t e 509290
s p 507524
ur e</w> 503139
w ill</w> 502430
s o</w> 491941
h as</w> 486946
re d</w> 482021
C h 474711
re n 474397
a y 472621
e ar 468867
u m 468760
t h</w> 463734
ti c 459043
it s</w> 453736
en ts</w> 448905
an t</w> 448339
g i 447559
v i 444595
an ce</w> 442031
i r</w> 435502
d ing</w> 435434
c an</w> 431252
h is</w> 429381
pl e</w> 426546
re c 425268
i c</w> 422783
ou r 422562
w e 416365
c h</w> 414444
an y</w> 414259
m o 411819
in g 410116
on g</w> 408779
or e</w> 401891
e t 398286
m in 395254
an g 391070
d uc 390748
con t 387080
al ly</w> 385169
ar y</w> 385040
g o 384896
at ed</w> 381223
p os 379375
g h</w> 377508
the ir</w> 375125
ab le</w> 374642
i z 374059
ic h</w> 372884
om e</w> 371050
p r 370036
d is 368277
y our</w> 366056
c o 363530
u d 361506
u t 359884
ev el 359766
d er</w> 359194
ak e</w> 359159
ti es</w> 358275
a in</w> 356730
c oun 356648
f e 356444
ag e</w> 352843
us t</w> 349121
w e</w> 349024
wh ich</w> 339768
p re 338652
o c 335151
e p 334220
a f 333525
a d</w> 331848
ha d</w> 331040
ic e</w> 328204
es e</w> 324775
I t</w> 324438
bu t</w> 324210
m y</w> 323341
for m 322072
Ch in 320033
h e 319861
s e</w> 318980
ai d</w> 318364
f i 318298
ati onal</w> 316887
&apos; t</w> 315792
the y</w> 314111
m ore</w> 312951
o w</w> 312277
pro v 311592
t o 311006
ou s</w> 309289
p res 307657
o ther</w> 307256
u p</w> 306139
W h 306062
es t</w> 305702
com m 304700
w ere</w> 304108
ac e</w> 302782
u t</w> 302671
I n</w> 301949
f in 300451
o ple</w> 299474
e st 299307
us e</w> 298952
evel op 298854
t ing</w> 298773
ti ons</w> 295499
be en</w> 294886
st e 291368
a v 291118
si on</w> 291112
k e</w> 290475
em ent</w> 288232
el l</w> 288013
H e</w> 287677
en ce</w> 287293
as t</w> 287108
ec t</w> 286541
s er 285955
h er</w> 285748
s t</w> 285692
i g 281621
es s 280931
u s</w> 280181
v er</w> 279264
ti ve</w> 277457
e y</w> 277085
d er 277023
ti me</w> 276530
no w</w> 275108
k s</w> 275090
s o 274869
e l</w> 274766
em b 273462
c re 272931
os t</w> 272340
d ay</w> 269963
as e</w> 269428
1 9 267130
in ter 266844
S t 266723
in e</w> 265971
el y</w> 264951
ar d</w> 264500
ay s</w> 263814
oo d</w> 263492
k ing</w> 262610
d evelop 261089
s aid</w> 257424
w ould</w> 256383
ou gh</w> 256093
I n 255996
r a 255454
com p 254024
s y 252736
pe ople</w> 250949
am e</w> 250694
al so</w> 249726
ad e</w> 248986
t y</w> 248483
i es</w> 248194
ab out</w> 248060
m ar 246130
g e</w> 244999
en er 244822
A n 244597
en d 244221
s ec 243868
U n 243387
d o</w> 241718
l l</w> 241513
re s</w> 241277
ic al</w> 240351
d o 240341
n ational</w> 238237
re l 237795
b o 236950
t w 236548
ver n 235034
por t</w> 234977
oun d</w> 234156
t ri 233834
os e</w> 233619
u e</w> 233249
m an 231759
o g 231137
W e</w> 230641
u b 230523
sh ould</w> 229943
s el 229571
at es</w> 229455
m on 228045
en ti 227371
ow n</w> 227342
s ti 224667
l a 224602
p o 222437
it ed</w> 221982
ev er</w> 221141
ne w</w> 220854
f ir 220388
wor k</w> 220273
ac c 219541
in to</w> 218529
ol d</w> 217803
f u 217509
p ol 216058
w ay</w> 215363
Th is</w> 214547
t ec 212547
wh o</w> 212231
o b 211746
an d 211531
g re 210991
&apos ;</w> 210883
li ke</w> 210519
si d 210486
w i 210318
t u 210269
C om 209942
c es</w> 209889
or y</w> 209042
f l 208104
b r 207303
ing s</w> 206985
th ere</w> 205324
p h 204780
al l 204272
Chin a</w> 203628
th ing</w> 202683
a m</w> 202260
is i 202169
f ac 202011
n o</w> 201938
in v 200597
be t 199901
e d 199404
i al</w> 199389
0 0 199313
b ec 198887
th an</w> 198005
lo w 197759
wh en</w> 197712
n ing</w> 197173
the m</w> 197026
t ur 196193
hi m</w> 195909
en d</w> 195310
d ec 194892
sh all</w> 194842
it e</w> 194605
sp ec 193786
a u 192636
op er 192085
ac k</w> 191883
n i 190030
or s</w> 189503
on om 188919
ev er 188641
s ome</w> 188407
ff ic 188202
Y ou</w> 188000
por t 187615
19 9 187415
ver y</w> 187378
al s</w> 187196
i f</w> 186964
v es</w> 185329
ci al</w> 184848
o d</w> 184372
ati ve</w> 184246
d es 182660
b le</w> 181320
l is 180844
wh at</w> 180742
as s 180235
r u 179891
m is 179600
k ed</w> 178824
C on 177787
sh e</w> 177056
re e</w> 176919
e ar</w> 176212
tw o</w> 175909
su p 175375
g et</w> 175291
a re 175141
an s 175076
m an</w> 174693
res p 174229
b l 173586
an s</w> 173102
p ri 172188
il e</w> 172002
m ay</w> 171313
at ing</w> 171290
il l 170757
c er 170372
g u 169294
h el 169023
on ly</w> 168858
ste m</w> 168579
ec onom 168450
i st 166979
pro c 166697
B ut</w> 166690
pro duc 165762
ser v 165671
a st 165111
su b 164847
ac h</w> 164174
o ver</w> 164010
n ed</w> 163857
develop ment</w> 163618
t en 163568
f e</w> 163393
m ost</w> 162709
d u 161788
wi th 161332
A r 161265
re qu 161116
ar i 161062
c ri 159022
for e</w> 158974
il ity</w> 158393
at er</w> 158116
m at 157376
str uc 157321
f ic 157280
c ould</w> 157201
An d</w> 156601
su ch</w> 156596
e i 156268
is e</w> 155773
fu l</w> 155702
ch ang 154192
en c 153916
per s 153820
sh i 153579
m ake</w> 153278
th r 153198
o f 152897
a use</w> 152844
v ing</w> 152672
tr y</w> 152289
g an 151651
a il 151603
vern ment</w> 151348
b as 151306
id e</w> 150587
ear s</w> 150489
sy stem</w> 150471
lo o 150129
m il 149617
su l 148999
f r 148079
m ents</w> 148023
Un ited</w> 147650
us ed</w> 147568
s ur 147544
om e 147456
ti m 146899
o re 146434
u p 145976
ol og 145496
m ade</w> 145451
lo c 144771
i ties</w> 144523
j o 144090
j ust</w> 143666
c ol 143059
k e 142767
ac ti 142706
e g 142526
ren t</w> 142335
ac h 141797
lo w</w> 141234
com e</w> 140571
fir st</w> 140396
c ar 140024
k now</w> 139531
I f</w> 138872
ff e 138871
sel f</w> 138729
ti c</w> 138436
t ure</w> 138225
in k</w> 138185
y ear</w> 137983
ro w 137137
m any</w> 135927
ap pl 135593
e ff 135490
y ears</w> 135473
th ese</w> 135402
g ood</w> 135303
w ell</w> 135240
u m</w> 135239
re g 134877
v ed</w> 134570
e w</w> 134501
h n 134128
li c</w> 134119
per i 133758
ener al</w> 133690
e f 133329
c or 132889
re gi 132425
t ake</w> 132348
m ust</w> 132201
p ec 132173
in cl 130953
form ation</w> 130866
un der</w> 130810
el i 130748
we en</w> 130742
tri es</w> 130539
com pl 130522
im port 130432
m it 129990
an c 129964
af ter</w> 129626
j ec 129413
inter national</w> 129060
P ro 129038
f un 128937
g o</w> 128917
wor ld</w> 128908
i d</w> 128804
em s</w> 128510
g e 128373
t ly</w> 128333
r e</w> 127961
el l 127931
S ec 127568
y ing</w> 127451
ol u 127448
thr ough</w> 127221
Th ey</w> 127201
bet ween</w> 126733
2 00 126719
st ud 126593
uc h</w> 126558
ub lic</w> 125062
l ar 124933
v en 124888
d re 124828
b er</w> 124817
st s</w> 124417
c ur 124314
ri ght</w> 124054
h um 123799
coun tries</w> 123010
h ow</w> 122595
ig n</w> 122495
emb er</w> 122305
tic le</w> 122159
gan iz 122144
se e</w> 121809
d r 121780
c ap 121563
m er 121529
li fe</w> 121476
b i 120898
or d 120496
tr ans 119534
si g 119454
ou s 119347
un der 119246
tic al</w> 119169
e qu 119164
t le</w> 118702
al ity</w> 118691
in te 118346
m i 118317
f ul 118163
T o</w> 117937
isi on</w> 117799
ap p 117200
t re 116546
u res</w> 116210
& # 116143
ch ar 116116
d on</w> 115384
ch il 115322
s ome 115142
th en</w> 114388
ac t</w> 114182
gr am 114059
a ve</w> 113838
t ak 113429
i str 113208
c r 113138
ic es</w> 112769
resp on 112601
S he</w> 112417
res s</w> 111504
in ess</w> 110923
Chin ese</w> 110878
si st 110404
gh ts</w> 110399
re t 110205
s ch 110078
E n 109907
th ose</w> 109719
tec hn 109517
c ul 109249
il y</w> 108820
ev en</w> 108795
C oun 108622
w om 108597
be fore</w> 108583
ne ed</w> 108116
N ations</w> 108055
m uch</w> 107670
v ir 107662
in t 107624
par t 107539
p er</w> 107092
b us 107012
wh ere</w> 106964
t en</w> 106907
w ays</w> 106776
v al 106687
ou t 106667
cont in 106632
d own</w> 106609
v e 105988
te e</w> 105781
in d</w> 105680
f ol 105385
k et</w> 105375
l ong</w> 105176
oo k</w> 105147
&# 9 104939
di ffe 104679
e p</w> 104472
t or</w> 103973
n um 103878
as s</w> 103878
shi p</w> 103818
e as 103365
in cre 103326
h ed</w> 103226
ent al</w> 103186
d ic 103053
ot h</w> 103007
re ad 102903
u st 102894
l and</w> 102729
Th ere</w> 102595
ter s</w> 102510
st an 102012
u al</w> 101742
ur ing</w> 101730
for m</w> 101657
oper ation</w> 101556
ou ght</w> 101518
is t</w> 101360
import ant</w> 101306
cont ro 101278
m ain 100664
ex t</w> 100603
no w 100294
en g 100022
man ag 100009
s ed</w> 99893
v is 99489
b ack</w> 99307
G o 99293
r it 99227
p s</w> 98990
s m 98975
th ink</w> 98849
o ff 98579
m s</w> 98554
s c 98522
d em 98265
is su 98240
s ol 98040
al y 97967
l it 97901
d y</w> 97823
econom ic</w> 97537
ur ity</w> 97485
in formation</w> 97400
in ce</w> 97086
is h</w> 96912
ci l</w> 96715
Wh at</w> 96378
bec ause</w> 96365
en s 96238
en tr 96194
or ganiz 96191
a ff 96159
le g 96127
r y</w> 96115
n ec 96030
re sul 95810
pl o 95738
coun try</w> 95510
ab ility</w> 95462
c our 95410
on g 95390
sid e</w> 95216
hi gh</w> 95028
m a 94799
ic ation</w> 94350
el ec 94227
con si 94123
G eneral</w> 93995
po in 93947
di d</w> 93802
i a</w> 93743
f ri 93232
A s</w> 93070
olog y</w> 93068
m ak 92819
bu il 92796
o m</w> 92764
Coun cil</w> 92638
at t 92526
di rec 92357
me th 92233
p ow 92073
l ed</w> 91834
i ti 91788
be ing</w> 91624
st ri 91240
j ect</w> 90879
f t</w> 90781
oo l</w> 90769
b an 90599
h ear 90253
olu tion</w> 90209
se t</w> 90204
l ess</w> 90194
me as 90152
comm un 90135
im pl 90108
w ater</w> 89954
ren ce</w> 89821
w ant</w> 89475
enc y</w> 89432
f am 89386
su m 89127
Ar ticle</w> 89099
min istr 88527
pro gram 88436
St ates</w> 88385
v en</w> 88372
d e</w> 88287
Wh en</w> 88139
k now 88002
an ts</w> 87835
ul ar</w> 87728
d ed</w> 87669
t al 87517
eff ec 87242
th ree</w> 87200
si ble</w> 86884
st ar 86879
l ast</w> 86736
n ess</w> 86631
or der</w> 86478
chang e</w> 86468
so ci 85978
t e</w> 85772
par t</w> 85518
a ir 85484
sti ll</w> 85414
p ut</w> 85384
ab lis 85325
o ver 85323
go vernment</w> 85279
con cer 85232
of f</w> 85227
h an 85198
ex p 84763
R e 84751
y p 84529
&apos; m</w> 84494
id ed</w> 84081
on d</w> 84070
s pe 84064
c le 83626
vir on 83626
f ore 83572
M r 83317
t ain</w> 83273
Com mit 83243
et y</w> 83205
is m</w> 82980
ad v 82874
s ay</w> 82820
c ent</w> 82218
th er 81935
A mer 81749
Amer ic 81481
est ablis 81391
h ere</w> 81307
g g 81293
to o</w> 81288
s ame</w> 81154
al iz 81151
w ar 81023
gre at</w> 80876
s it 80837
comp any</w> 80645
e ach</w> 80607
Commit tee</w> 80567
F or</w> 80554
h app 80530
si ve</w> 80382
pl ace</w> 80139
pos i 80070
ai r</w> 80055
&apos; re</w> 79932
ap er</w> 79903
b re 79848
ain st</w> 79841
hum an</w> 79771
go ing</w> 79627
p ur 79539
res t</w> 79531
d el 79147
h ar 78879
p ublic</w> 78656
O n 78611
proc ess</w> 78384
an aly 78282
A s 78243
ap pro 78243
num ber</w> 78239
em ents</w> 78142
s k 78053
o t</w> 77963
dre n</w> 77853
wh ile</w> 77821
n er</w> 77791
hel p</w> 77607
ver s 77603
requ i 77341
ag ainst</w> 77302
i l</w> 77265
lit tle</w> 77097
Th at</w> 76799
with out</w> 76606
o p</w> 76565
g row 76550
spec i 76525
A l 76519
l ine</w> 76347
l es</w> 76235
al th</w> 76035
w s</w> 76020
pro b 76014
pres ent 75988
bus iness</w> 75969
E x 75935
m ul 75778
gr ou 75567
la w</w> 75509
et ing</w> 75433
em ent 75282
ffic i 75131
ag es</w> 74964
0 0</w> 74878
ain ing</w> 74854
s en 74693
sup port</w> 74640
di v 74583
mar ket</w> 74487
U N 74384
pr in 74113
vi ew</w> 73949
- - 73948
al ways</w> 73833
contro l</w> 73823
b oth</w> 73762
b ro 73761
re port</w> 73731
h ol 73694
i p 73672
l in 73651
P e 73627
we e 73487
me di 73271
l ev 73150
ci p 73023
li on</w> 72960
ow ever</w> 72955
en viron 72862
pl an 72816
pol ic 72787
v ely</w> 72525
th or 72524
ex c 72457
ou se</w> 72335
at ure</w> 72184
A c 72079
&apos; ll</w> 72000
un i 71996
ati on 71982
gi ve</w> 71953
m ental</w> 71928
wom en</w> 71785
f ace</w> 71665
u ation</w> 71631
f a 71280
li m 71221
mis sion</w> 71167
ac tion</w> 71131
n ever</w> 70963
b eli 70907
d at 70774
de p 70551
chil dren</w> 70542
diffe rent</w> 70421
r is 70410
a w</w> 70391
lo ve</w> 70375
res ear 70169
ex am 70088
sti tu 70058
Mr .</w> 70034
an cial</w> 69942
ar ly</w> 69927
ever y</w> 69912
our ces</w> 69816
vi ties</w> 69754
hi gh 69550
bo dy</w> 69528
A d 69465
a k</w> 69458
it al</w> 69421
In ter 69405
l ing</w> 69404
in du 69403
re as 69316
c an 69296
p a 69037
c as 68939
u ding</w> 68930
lev el</w> 68917
v ari 68726
plo y 68712
qu es 68687
fi ed</w> 68686
ain ed</w> 68635
c all 68616
d uring</w> 68570
e duc 68494
A t</w> 68444
al e</w> 68444
f ur 68215
m ot 67986
fol low 67966
ef for 67912
with in</w> 67903
e ve</w> 67679
ar ds</w> 67521
d oc 67483
be g 67181
ud e</w> 67137
S h 66842
su c 66700
ri ghts</w> 66640
op e</w> 66634
en ing</w> 66620
acti vities</w> 66552
f ound</w> 66435
read y</w> 66181
n s</w> 66081
p aper</w> 66058
Go vernment</w> 66039
so cial</w> 66027
b il 65898
in ation</w> 65788
ap pe 65592
m or 65546
e y 65368
an t 65229
s ci 65140
P ar 65125
e ase</w> 65001
fe rence</w> 64935
por ts</w> 64826
L i 64818
re sid 64577
inv est 64297
at h</w> 64235
ro s 64207
Sec ret 64047
ul ation</w> 63850
go t</w> 63794
bet ter</w> 63763
fi el 63744
ou th</w> 63725
incl uding</w> 63665
i an</w> 63638
con di 63503
S o</w> 63482
li ght</w> 63470
le t</w> 63336
c us 63278
ep t</w> 63130
ai l</w> 63126
tr ad 63121
manag ement</w> 63121
tim es</w> 62868
s ays</w> 62809
St ate</w> 62761
pr is 62735
suc c 62726
st ate</w> 62557
fin ancial</w> 62519
stud y</w> 62493
d n</w> 62302
ut e</w> 62284
loo k</w> 62281
ag re 62168
p ed</w> 62147
ex peri 62131
pers on</w> 62080
do es</w> 61911
ad ministr 61895
n ext</w> 61886
pow er</w> 61882
ac k 61860
f ic</w> 61821
par tic 61680
ti onal</w> 61645
t ors</w> 61535
ent ly</w> 61490
mon ey</w> 61466
pe ace</w> 61465
h ome</w> 61403
an y 61257
ac coun 61176
1 0</w> 61118
an k</w> 61057
ati c</w> 61055
N o</w> 61053
m en</w> 61044
le ar 60956
M ar 60842
En g 60791
par ti 60746
wh e 60738
p op 60512
s ure</w> 60448
tic s</w> 60421
an n 60392
es ti 60331
rec ei 60029
i de 59980
s es</w> 59974
incre as 59939
ro w</w> 59791
bas ed</w> 59790
ar ound</w> 59627
sec urity</w> 59611
W or 59593
d ays</w> 59559
meth od</w> 59490
e f</w> 59489
st at 59463
i ous</w> 59403
si ons</w> 59400
w a 59375
col l 59322
pl y</w> 59239
a way</w> 59236
i on</w> 59095
pro f 59046
le ad 58996
M y</w> 58912
s ing</w> 58715
o ve</w> 58695
an other</w> 58677
w ard</w> 58586
co operation</w> 58582
m emb 58564
th ings</w> 58536
pol i 58360
pos ed</w> 58343
impl ement 58291
en ter 58282
en ds</w> 58236
fin d</w> 58206
m ain</w> 58087
th ers</w> 58054
ag ain</w> 57898
f o 57811
r ap 57800
er ing</w> 57776
e ds</w> 57756
mi ght</w> 57730
sm all</w> 57669
z e</w> 57654
ren g 57603
n on</w> 57469
ever y 57408
ic k</w> 57333
prov ide</w> 57318
H ong</w> 57244
T r 57229
mat er 57212
th ough</w> 57140
con c 57122
dis cus 56941
ter min 56899
ma j 56746
res olution</w> 56729
H ow</w> 56716
re st 56705
bec ome</w> 56547
K ong</w> 56508
ar m 56459
part ment</w> 56444
c a 56285
he ad</w> 56257
b est</w> 56141
g l 56131
us ing</w> 56050
t ro 55988
ur al</w> 55985
tur n</w> 55953
contin u 55882
fe w</w> 55727
t yp 55718
s ha 55606
go vern 55602
lo b 55533
are as</w> 55430
le m</w> 55272
dat a</w> 55218
is h 55062
u ro 55034
an g</w> 54998
D e 54982
b ility</w> 54727
end ed</w> 54710
res ources</w> 54656
1 ;</w> 54655
&#9 1;</w> 54655
e m</w> 54641
r ang 54625
u r</w> 54625
A f 54616
struc tion</w> 54572
meas ures</w> 54508
ir e</w> 54453
h al 54446
tak en</w> 54415
con tr 54348
g ener 54330
st reng 54274
em ploy 54180
enti al</w> 54139
f er 54053
b ed</w> 53989
nec ess 53938
techn ology</w> 53890
re ally</w> 53788
ac hi 53726
t ow 53597
m p 53443
resear ch</w> 53411
&apos; ve</w> 53408
n or 53366
of ten</w> 53365
lar ge</w> 53364
en s</w> 53359
fic ation</w> 53287
c ame</w> 53283
es sion</w> 53205
fore ign</w> 53198
prob lem</w> 53154
are a</w> 53145
isi ons</w> 52948
c ase</w> 52935
u ally</w> 52933
pro tec 52928
au thor 52922
g y</w> 52878
i ed</w> 52843
pres ent</w> 52823
or t</w> 52772
pl ac 52748
qu ality</w> 52723
w in 52720
00 0</w> 52717
th s</w> 52705
d ri 52517
A ll</w> 52491
b en 52471
O b 52464
pos sible</w> 52414
ay ing</w> 52395
h ouse</w> 52369
ro om</w> 52367
pro bl 52225
some thing</w> 52183
H is</w> 52172
char ac 52069
d ge</w> 52053
n al</w> 52030
fun c 51990
pl es</w> 51964
en ed</w> 51873
str y</w> 51768
tur al</w> 51735
ul t</w> 51724
I s 51634
ti on 51613
poin t</w> 51577
s ince</w> 51532
loc al</w> 51509
ful l</w> 51495
he alth</w> 51424
serv ice</w> 51380
me eting</w> 51379
f ood</w> 51305
s al 51279
fam ily</w> 51234
a ut 51224
R ep 51224
ic s</w> 51180
Secret ary</w> 51157
ic k 51147
O n</w> 51106
educ ation</w> 51093
- -</w> 51028
k ind</w> 51020
wor king</w> 50995
h and</w> 50927
ol e</w> 50924
b ur 50921
probl ems</w> 50814
me ans</w> 50762
b er 50614
fur ther</w> 50579
On e</w> 50514
O r 50509
comm it 50390
com pe 50374
d ate</w> 50320
3 ;</w> 50284
&#9 3;</w> 50284
wor k 50135
serv ices</w> 50119
g en 50063
iz ed</w> 49941
sist ance</w> 49884
as k</w> 49791
ad op 49771
t a 49743
posi tion</w> 49714
s on</w> 49664
effor ts</w> 49641
re li 49632
re present 49470
ri bu 49467
f ut 49458
am ong</w> 49380
t able</w> 49361
p ing</w> 49335
fr ic 49284
y oun 49274
c ent 49236
or d</w> 49230
poli tical</w> 49223
sch ool</w> 49183
to day</w> 49158
at ely</w> 49130
spec ial</w> 49112
st and</w> 49092
N ew</w> 49037
ven tion</w> 49019
d ra 48980
st and 48885
d en</w> 48852
per form 48817
sh ow 48749
g ress</w> 48748
c ha 48719
lis h</w> 48717
our s</w> 48715
appl ication</w> 48646
er v 48638
al i 48635
E uro 48578
di es</w> 48555
w at 48547
st u 48530
st or 48485
w rit 48454
ad di 48367
ous ly</w> 48336
emb ly</w> 48310
ros s</w> 48280
Pe ople</w> 48257
pro per 48160
d ro 48098
af t</w> 48098
D ec 47974
tr ade</w> 47974
w ent</w> 47956
d am 47931
ni ght</w> 47828
n am 47709
to ge 47661
i ght</w> 47642
ful ly</w> 47622
organiz ations</w> 47589
o ffic 47565
N o 47563
di ffic 47546
st ory</w> 47543
ex pl 47537
Th ese</w> 47536
or ding</w> 47499
. . 47495
s af 47485
fiel d</w> 47484
produc tion</w> 47471
pl ay</w> 47448
call ed</w> 47392
cont ribu 47388
gr ap 47358
t em 47347
f il 47331
in fl 47225
b ri 47202
As s 47183
up on</w> 47061
cl os 47034
toge ther</w> 47025
G r 47013
sit uation</w> 46913
peri od</w> 46901
ci r 46868
h y 46855
s is</w> 46840
th ought</w> 46816
A fric 46784
mak ing</w> 46731
gi ven</w> 46727
div id 46654
ust om 46578
leg al</w> 46492
fut ure</w> 46314
rel ev 46247
w r 46168
ke ep</w> 46161
t ook</w> 46135
ex pres 46051
ou l 46042
R es 45911
n ame</w> 45891
W ith</w> 45858
int ro 45844
D i 45831
ati s 45777
parti cip 45769
p i 45717
memb ers</w> 45717
ad d 45693
im prov 45602
pro mot 45530
A u 45496
ir d</w> 45441
grou p</w> 45355
de red</w> 45327
commun ity</w> 45264
ain s</w> 45211
comp an 45181
w al 45171
econom y</w> 45102
vi ol 45077
in c 45049
si m 45048
sec ond</w> 45046
p ass 45007
th em 44906
eff ect</w> 44904
follow ing</w> 44882
m es</w> 44877
olog ical</w> 44867
g lob 44826
k ey</w> 44797
ten tion</w> 44716
it ary</w> 44622
grow th</w> 44604
am p 44592
D o</w> 44482
an ds</w> 44417
ter m</w> 44357
ic ations</w> 44305
develop ing</w> 44295
necess ary</w> 44292
se t 44185
t ell</w> 44181
mil lion</w> 44154
acc ording</w> 44153
ab ove</w> 44148
al ready</w> 44115
in stitu 44014
at or</w> 43978
f ar</w> 43977
le ft</w> 43967
relev ant</w> 43928
ro le</w> 43920
jec ts</w> 43881
fe el</w> 43794
reg ul 43762
b el 43759
h ard</w> 43739
bi g</w> 43730
polic y</w> 43718
du ce</w> 43593
d om 43553
, 000</w> 43523
ec ted</w> 43497
Eng lish</w> 43391
maj or</w> 43355
t ot 43342
h and 43342
ever al</w> 43304
f y</w> 43294
ch o 43285
rel ated</w> 43266
ic t</w> 43262
p at 43226
H owever</w> 43156
des ign</w> 43110
ang u 43064
hal f</w> 43046
vers ity</w> 42951
2 0</w> 42895
c ity</w> 42853
produc ts</w> 42836
p ast</w> 42835
resul ts</w> 42830
de termin 42801
199 4</w> 42789
id es</w> 42778
ener gy</w> 42740
val ue</w> 42738
stan ding</w> 42648
cour se</w> 42528
c at 42487
jo b</w> 42447
g ir 42424
stud ents</w> 42332
c al 42331
fi ve</w> 42303
ne eds</w> 42292
ac y</w> 42291
Ass embly</w> 42262
Af ter</w> 42250
inv ol 42182
struc ture</w> 42172
el s</w> 42151
ec han 42117
hear t</w> 41942
ar s</w> 41910
m un 41860
pro ve</w> 41851
hel d</w> 41760
op en</w> 41747
pos e</w> 41639
cl u 41628
le t 41392
youn g</w> 41379
str at 41370
buil ding</w> 41283
a w 41258
cur rent</w> 41249
re ad</w> 41223
wh ole</w> 41207
f ree</w> 41198
de l</w> 41193
prin ci 41170
resid ent</w> 41152
the re 41124
ab ly</w> 41067
prov ided</w> 41041
lo t</w> 41038
esti g 41015
jec tive</w> 40981
r ate</w> 40911
regi on</w> 40904
G od</w> 40885
f our</w> 40854
wee k</w> 40849
le ase</w> 40843
r ic 40832
C o 40793
ni fic 40784
in divid 40762
cl ass</w> 40702
contin ue</w> 40683
entr al</w> 40635
effec tive</w> 40518
d ev 40516
program me</w> 40510
p tion</w> 40486
ri ed</w> 40468
e th 40465
consi der 40442
ex pec 40429
beli eve</w> 40413
on t</w> 40390
m ember</w> 40387
environ ment</w> 40222
a red</w> 40149
implement ation</w> 40146
im p 40132
dec ision</w> 40132
ear ly</w> 40103
y s</w> 40095
par ty</w> 40091
sh ow</w> 40083
tre at 40075
Inter national</w> 40067
vi e 40038
ti l</w> 39973
regi onal</w> 39969
b or 39922
di st 39908
pr ice</w> 39860
j ud 39857
e re 39853
af f</w> 39843
f re 39813
Th en</w> 39746
in es</w> 39695
g eneral</w> 39673
g ed</w> 39644
ques tion</w> 39633
de t 39628
resul t</w> 39562
d eli 39553
ex ist 39451
w el 39450
ec tion</w> 39446
issu es</w> 39440
Americ an</w> 39419
c ost</w> 39399
min d</w> 39389
J o 39350
er y</w> 39336
h er 39308
tr aining</w> 39301
S ome</w> 39267
t old</w> 39266
iz ation</w> 39253
us es</w> 39243
p ay</w> 39223
vari ous</w> 39214
am oun 39133
l y 39119
oo ds</w> 39100
acc ord 39065
th y</w> 39059
3 0</w> 38920
por ted</w> 38906
wor ds</w> 38881
can not</w> 38809
m echan 38806
l at 38799
pri v 38783
ec u 38759
on ce</w> 38757
en ough</w> 38717
t est</w> 38656
gr ad 38643
re al</w> 38556
L e 38449
o thers</w> 38437
do m</w> 38420
incre ase</w> 38416
indu stry</w> 38393
on es</w> 38384
n at 38383
condi tions</w> 38382
ch ed</w> 38329
comm on</w> 38281
h ope</w> 38251
l ab 38249
ne l</w> 38223
v ity</w> 38203
glob al</w> 38197
li k 38150
at s</w> 38149
in f 38112
jo in 38070
des ig 37992
J ap 37871
re comm 37836
c all</w> 37827
1 5</w> 37821
inte gr 37812
li ve</w> 37785
su gg 37754
D evelop 37749
pl an</w> 37709
whe ther</w> 37684
as sistance</w> 37613
p ub 37565
dep end 37556
A n</w> 37535
P er 37514
ex per 37509
sig nific 37498
for ce</w> 37453
it ing</w> 37441
wh y</w> 37441
intro duc 37428
a z 37413
d one</w> 37405
gr ound</w> 37391
s or 37379
U S</w> 37309
sy st 37295
P resident</w> 37282
199 3</w> 37269
Com mission</w> 37211
l angu 37193
H e 37192
inv estig 37176
mat ter</w> 37153
si a</w> 37112
a im 37104
h un 37099
con struction</w> 37079
cri min 37066
con f 36976
ast er</w> 36976
s ing 36973
ac tu 36940
pro ject</w> 36940
comp u 36937
av ail 36886
s everal</w> 36837
ur y</w> 36797
pec i 36763
t or 36726
l u 36688
l os 36683
mo ther</w> 36634
un til</w> 36617
in iti 36613
M r</w> 36598
le ast</w> 36568
con duc 36566
experi ence</w> 36562
mo del</w> 36548
&apos; d</w> 36544
o il</w> 36543
ne t 36529
mil itary</w> 36466
N ow</w> 36448
ag ed</w> 36395
me et</w> 36363
de f 36359
b oo 36345
st aff</w> 36273
o ds</w> 36202
ne t</w> 36189
oc r 36189
pl ay 36165
g er</w> 36153
b al 36145
b ook</w> 36122
ap prov 36086
ke ts</w> 36043
fa ther</w> 36027
M in 36010
1 2</w> 35983
as ked</w> 35967
chil d</w> 35958
j ing</w> 35943
si bility</w> 35933
s ession</w> 35907
bas is</w> 35844
is hed</w> 35839
compan ies</w> 35825
he ad 35817
r ad 35814
del eg 35810
our ce</w> 35798
p ic 35728
ol s</w> 35722
h old</w> 35687
st re 35670
pers on 35666
h u 35665
m it</w> 35653
compl et 35652
in dic 35648
id enti 35618
c are</w> 35600
port un 35568
l ic 35516
ord in 35441
de b 35420
fac t</w> 35393
issu e</w> 35389
in e 35368
analy sis</w> 35359
m ag 35332
chang es</w> 35265
c ustom 35235
se e 35220
de fin 35141
t on</w> 35061
iz e</w> 35011
l ong 35003
5 0</w> 34983
an ti 34950
em p 34904
ro ad</w> 34888
uc le 34887
ul es</w> 34882
id ence</w> 34840
f oc 34831
sel ves</w> 34804
wom an</w> 34797
en ces</w> 34780
or ity</w> 34769
administr ative</w> 34767
in st 34705
com b 34701
qu e</w> 34634
ag o</w> 34623
par ties</w> 34613
wor d</w> 34599
know le 34597
f el 34581
ar ri 34569
S o 34533
ep ing</w> 34528
t ation</w> 34498
to p</w> 34446
li st 34436
am e 34413
p en 34366
op portun 34345
Rep ublic</w> 34293
requi re 34292
ci es</w> 34278
know n</w> 34278
th re 34238
er ship</w> 34233
accord ance</w> 34205
e ful</w> 34184
f er</w> 34166
ens ure</w> 34161
a h</w> 34157
B ei 34099
u re 34089
Sec urity</w> 34082
v o 34079
mon ths</w> 34054
c ar</w> 34040
ati ves</w> 34036
invest ment</w> 34001
su per 33981
F or 33935
off ice</w> 33891
v ision</w> 33875
no thing</w> 33845
s il 33836
str ong</w> 33831
develop ed</w> 33830
protec tion</w> 33822
ha ving</w> 33787
cer tain</w> 33758
con sum 33727
d ou 33722
ci d 33709
im prove</w> 33696
com es</w> 33686
s w 33677
establis hed</w> 33643
h o 33633
er al</w> 33625
achi ev 33614
oun d 33598
F e 33568
re duc 33538
er c 33530
sp ace</w> 33530
ch ing</w> 33483
tr ac 33482
B o 33426
M on 33412
partic ular</w> 33397
p ul 33389
di dn</w> 33349
ch em 33314
ut es</w> 33278
mon th</w> 33262
n ers</w> 33256
Develop ment</w> 33250
f ail 33249
e ffici 33192
r ing</w> 33189
er n</w> 33133
mo der 33129
i gh 33109
inte rest</w> 33074
A p 33070
tak ing</w> 33068
ed ed</w> 33064
high er</w> 33003
cir c 32962
Bei jing</w> 32947
equ ip 32931
s aw</w> 32896
compl e 32892
m om 32891
accoun t</w> 32858
F in 32849
y et</w> 32829
p ot 32828
com ing</w> 32791
l evel 32760
ti ce</w> 32754
b it</w> 32751
en sive</w> 32729
ti s 32692
ou gh 32684
pl ease</w> 32661
li g 32610
mak es</w> 32574
ak ing</w> 32569
se en</w> 32569
at tention</w> 32547
rec ent</w> 32537
1 1</w> 32525
N or 32433
tur ned</w> 32432
ben ef 32419
h or 32364
rec og 32346
al low 32335
do ing</w> 32314
avail able</w> 32304
mo ve</w> 32282
perform ance</w> 32278
ucle ar</w> 32277
is ed</w> 32254
di t</w> 32228
appro pri 32225
d ly</w> 32203
resp ect</w> 32180
em er 32149
oc k</w> 32142
r an 32133
tot al</w> 32106
y s 32084
in s</w> 32008
G u 31990
d le</w> 31986
l s</w> 31972
h im 31967
ey es</w> 31966
pre v 31933
pr ac 31910
wor ks</w> 31899
star t</w> 31883
con sul 31876
fri ends</w> 31821
pr ise</w> 31803
des cri 31786
pop ulation</w> 31764
re main 31756
peci ally</w> 31731
a ther</w> 31729
qu ar 31599
es pecially</w> 31583
rel ation 31580
do or</w> 31576
se qu 31564
ru n</w> 31559
soci ety</w> 31551
di ed</w> 31545
te am</w> 31538
o k 31531
cle ar</w> 31464
te ach 31452
r un 31433
br ing</w> 31425
L aw</w> 31394
ag rap 31379
P l 31356
ing ly</w> 31342
B e 31338
requi red</w> 31316
h on 31276
cl ose</w> 31267
program mes</w> 31245
fri end</w> 31230
ch i 31228
cas es</w> 31221
o grap 31205
s le 31185
d en 31138
Wor ld</w> 31093
m ach 31082
pro gress</w> 31063
exam ple</w> 31050
um ents</w> 31035
g et 31023
li ving</w> 31021
level s</w> 31015
for ward</w> 30986
c are 30928
cl ass 30902
fac il 30900
un e</w> 30898
en jo 30881
tr u 30841
air s</w> 30832
S pec 30818
il i 30805
an ted</w> 30797
ne w 30785
so on</w> 30781
G re 30767
infl u 30734
W ell</w> 30726
pr acti 30726
v ol 30713
.. .</w> 30711
en ding</w> 30699
charac ter 30672
sh ort</w> 30662
tr av 30662
ex t 30614
es si 30612
h ours</w> 30603
ach ed</w> 30579
ch e 30568
proc ess 30563
an im 30557
amoun t</w> 30540
le ave</w> 30535
t om 30502
p ati 30489
M ay</w> 30484
or i 30442
oc c 30440
con nec 30433
incl ude</w> 30432
or ig 30404
Un i 30390
ill ed</w> 30368
anc ed</w> 30306
sci enti 30299
d ru 30288
d ol 30235
ar ticle</w> 30204
t ar 30199
elec tr 30188
ve red</w> 30176
he av 30174
B y</w> 30141
treat ment</w> 30097
p e</w> 30063
at ory</w> 30035
P ol 30019
w ar</w> 29992
produc t</w> 29973
proc ed 29924
bas ic</w> 29885
c ause</w> 29877
techn ical</w> 29876
g s</w> 29874
cap ital</w> 29855
d ow 29850
m y 29817
prov isions</w> 29813
u si 29761
h owever</w> 29750
S outh</w> 29717
as h 29717
w on</w> 29693
proper ty</w> 29677
dr aft</w> 29661
compe ti 29635
pris es</w> 29614
concer ned</w> 29602
mul ti 29552
ou p</w> 29545
g est</w> 29516
loo king</w> 29512
ch ec 29508
M an 29503
per cent</w> 29493
it ation</w> 29488
par agrap 29475
n ature</w> 29442
m er</w> 29439
ar t</w> 29418
al ong</w> 29398
Americ a</w> 29390
me d 29383
u ary</w> 29377
sub ject</w> 29353
1 2 29352
us h</w> 29323
on ed</w> 29295
no v 29269
t el 29242
c ed</w> 29220
lo od</w> 29194
z ed</w> 29178
diffic ult</w> 29166
ill s</w> 29137
f low 29132
incl ud 29116
O ur</w> 29111
cap ac 29093
S e 29091
indu stri 29088
re fl 29080
langu age</w> 29080
ris k</w> 29056
syst ems</w> 29041
bu d 29038
sti t 29033
or ies</w> 29025
enc our 29012
typ e</w> 29009
nat ural</w> 28963
c op 28946
en h 28940
P lease</w> 28932
f av 28884
g es</w> 28865
establis h 28844
m en 28836
D on</w> 28817
pr ices</w> 28805
in king</w> 28790
Y our</w> 28787
mor ning</w> 28784
speci fic</w> 28779
lik ely</w> 28764
w er</w> 28717
1 0 28715
y our 28712
v ic 28703
him self</w> 28701
n uclear</w> 28696
aliz ed</w> 28666
fir e</w> 28662
under stand</w> 28644
R i 28622
w id 28568
Spec ial</w> 28542
S .</w> 28533
s ite</w> 28513
L et</w> 28488
d in 28484
a p</w> 28457
compu ter</w> 28438
di stri 28435
s ent</w> 28420
M o 28420
distri bu 28420
p ay 28383
b ad</w> 28380
b it 28338
beg an</w> 28337
v al</w> 28329
De partment</w> 28316
vi l</w> 28315
u ment</w> 28290
ban k</w> 28268
partic ul 28224
am es</w> 28219
au ti 28206
ic ally</w> 28182
tr an 28174
institu tions</w> 28157
knowle dge</w> 28119
d ue</w> 28111
l ater</w> 28105
ar ti 28096
hi story</w> 28041
ar rang 28021
ra ther</w> 27966
Afric a</w> 27952
1 . 27950
I s</w> 27944
b all</w> 27943
Wh y</w> 27942
ac ts</w> 27935
u es</w> 27894
t ain 27894
th ird</w> 27871
Con ference</w> 27799
tu res</w> 27723
m ing</w> 27696
ti vely</w> 27695
priv ate</w> 27689
equip ment</w> 27670
Is ra 27607
de al</w> 27604
Ob jective</w> 27549
S erv 27539
ex erc 27535
w ide</w> 27524
t ory</w> 27514
Q u 27506
grou ps</w> 27464
environ mental</w> 27464
con fl 27459
al most</w> 27458
appropri ate</w> 27443
P r 27433
pro jects</w> 27415
R us 27353
S y 27321
si an</w> 27312
mater ial</w> 27296
adop ted</w> 27263
de partment</w> 27259
m al</w> 27239
as ed</w> 27234
O ff 27229
C ha 27223
happ y</w> 27200
eas y</w> 27158
mater i 27126
ser ious</w> 27115
me an</w> 27100
g ave</w> 27092
id ing</w> 27085
est s</w> 27058
ch all 27038
av ing</w> 27010
loc k</w> 26995
de ath</w> 26991
or g 26988
oper ations</w> 26985
I I</w> 26981
In di 26962
t l 26925
pro posed</w> 26925
ide a</w> 26921
M e 26915
ast e</w> 26905
b ir 26868
mon it 26868
pers ons</w> 26862
tal k</w> 26841
gi es</w> 26825
1 4</w> 26821
pro pos 26809
any thing</w> 26773
ap s</w> 26768
is l 26767
st ing</w> 26750
ch es</w> 26736
char ge</w> 26728
ren ts</w> 26590
v ot 26578
D is 26532
ver s</w> 26492
m id 26440
J u 26432
ep t 26426
consi dered</w> 26387
c y 26380
in al</w> 26349
re turn</w> 26349
w ish</w> 26348
Euro pe 26344
require ments</w> 26322
N ational</w> 26286
g ency</w> 26279
ter ms</w> 26277
g ar 26256
m em 26252
out side</w> 26215
reas on</w> 26198
import ance</w> 26176
wi fe</w> 26145
tow ards</w> 26136
ac tive</w> 26133
si x</w> 26111
particul arly</w> 26104
M any</w> 26087
dec ided</w> 26070
practi ce</w> 26052
succ ess 26042
loo ked</w> 26036
cul ture</w> 25972
addi tion</w> 25954
evel op</w> 25937
ill ing</w> 25932
Or ganiz 25919
promot e</w> 25894
sup pl 25889
saf ety</w> 25874
ke eping</w> 25836
s atis 25835
direc tly</w> 25832
recei ved</w> 25814
mit ted</w> 25797
se par 25790
oul dn</w> 25782
es tim 25773
pre sid 25750
hear d</w> 25738
su st 25734
at ors</w> 25718
qu i 25703
O c 25670
on ic</w> 25653
19 8 25648
so f 25643
qu ite</w> 25631
R ec 25626
form s</w> 25583
or ing</w> 25579
adv ant 25569
T i 25550
par ts</w> 25509
tr ue</w> 25500
cur ren 25498
go ti 25483
c ut</w> 25456
entr e</w> 25439
ev al 25417
tr ying</w> 25407
fr ont</w> 25397
199 5</w> 25394
ari an</w> 25391
g oods</w> 25365
aliz ation</w> 25361
pre h 25332
g ing</w> 25318
gu ar 25279
en cies</w> 25271
Uni versity</w> 25268
Go vern 25267
mo d 25263
an ces</w> 25259
hum an 25251
m ed</w> 25239
n a</w> 25222
l ate</w> 25215
we ap 25201
some one</w> 25159
expec ted</w> 25072
sing le</w> 25064
C ol 25047
agre ement</w> 25043
long er</w> 25029
Europe an</w> 25024
character is 25019
1 6</w> 25002
a vi 24968
rad i 24939
po or</w> 24921
gir l</w> 24899
ent ed</w> 24889
materi als</w> 24851
k in 24840
ac ross</w> 24839
p rec 24821
r ules</w> 24818
pres sure</w> 24794
C an</w> 24792
end a</w> 24762
oun ds</w> 24754
en se</w> 24750
Re gi 24742
d ar 24741
F r 24737
meth ods</w> 24736
us ually</w> 24734
d on 24733
ver age</w> 24729
paragrap h</w> 24729
o s</w> 24725
p an 24714
them selves</w> 24703
se a</w> 24685
in ed</w> 24684
in come</w> 24641
net work</w> 24639
h os 24609
ex change</w> 24599
ac tions</w> 24592
ex ecu 24587
gr am</w> 24564
d evelop</w> 24556
dra w 24551
1 3</w> 24550
l ost</w> 24535
Gr oup</w> 24532
b an</w> 24510
vi ous</w> 24504
st op</w> 24489
do es 24479
relation ship</w> 24452
be auti 24447
capac ity</w> 24435
est ed</w> 24429
x ed</w> 24425
respon sibility</w> 24422
appro ach</w> 24410
pol ice</w> 24408
as h</w> 24406
individ ual</w> 24390
a th 24389
I C 24386
anc ing</w> 24386
ste p</w> 24375
iti onal</w> 24356
b ack 24338
govern mental</w> 24322
re ly</w> 24315
t ;</w> 24308
ph ys 24295
a o</w> 24280
bu y</w> 24266
pl eas 24265
1 8</w> 24256
polic ies</w> 24256
work ers</w> 24225
sh are</w> 24219
a u</w> 24206
im medi 24200
the ory</w> 24196
me t 24195
fe el 24193
it self</w> 24183
av o 24182
enter prises</w> 24168
s mo 24159
li gh 24149
ep s</w> 24107
ell s</w> 24107
2 5</w> 24098
h ind</w> 24097
ne goti 24096
pers onal</w> 24095
re ports</w> 24093
Dec ember</w> 24083
pre ci 24066
u fac 24052
de st 24023
d y 24019
e red</w> 24008
a i</w> 24005
Ad ministr 23983
Wh ere</w> 23952
Con vention</w> 23928
dem and</w> 23926
acc ess</w> 23916
199 6</w> 23897
s us 23878
G er 23864
cl es</w> 23860
mom ent</w> 23818
s l 23793
recog n 23783
st y 23763
lear n</w> 23743
ne ar</w> 23716
U . 23703
un g</w> 23688
re sts</w> 23685
tr a 23664
br ought</w> 23658
I m 23638
ne eded</w> 23636
wh ite</w> 23610
si mil 23579
cr is 23542
sen se</w> 23532
in depend 23531
comm er 23523
str ic 23504
Jap an</w> 23487
h op 23466
bo y</w> 23461
res sed</w> 23426
your self</w> 23394
S u 23370
ly mp 23364
reg ard</w> 23357
resp ec 23352
se ts</w> 23350
plan ning</w> 23334
cour t</w> 23331
every thing</w> 23313
stan ces</w> 23298
person nel</w> 23297
o ffici 23264
mar kets</w> 23262
Wh ile</w> 23233
c ou 23199
d ers</w> 23177
get ting</w> 23177
deleg ation</w> 23172
E l 23167
B ri 23156
ric ul 23129
organiz ation</w> 23115
re view</w> 23111
b ar 23106
func tion</w> 23098
fel t</w> 23075
f all</w> 23061
dem ocr 23049
administr ation</w> 23035
re p 23030
f ast</w> 23022
ag ing</w> 22992
increas ed</w> 22951
re f 22946
es tic</w> 22929
as soci 22917
cul tural</w> 22917
pa rents</w> 22900
pro mis 22891
le ad</w> 22861
s em 22855
off er</w> 22842
ol o 22837
str ation</w> 22834
bo ard</w> 22834
han ds</w> 22825
w on 22820
respon sible</w> 22813
m ary</w> 22811
ta x</w> 22802
B ec 22747
low er</w> 22740
imp act</w> 22731
beauti ful</w> 22728
O lymp 22717
w anted</w> 22716
he ar</w> 22715
J an 22710
p ain 22690
Organiz ation</w> 22690
p t</w> 22687
m oun 22682
sur ance</w> 22622
it em</w> 22612
lis t</w> 22612
pi ec 22586
Y es</w> 22581
pre par 22580
pl ans</w> 22552
there fore</w> 22552
R o 22542
am s</w> 22515
ai m</w> 22513
s ou 22510
e ts</w> 22495
be hind</w> 22484
complet e</w> 22470
s we 22468
ei ther</w> 22466
continu ed</w> 22461
c lim 22444
sp i 22422
fun ds</w> 22419
st age</w> 22405
c lo 22397
usi c</w> 22392
cor por 22390
2 1</w> 22369
tw are</w> 22365
add ress</w> 22344
ar ing</w> 22326
succ ess</w> 22312
F ir 22300
author ities</w> 22300
co sts</w> 22282
inte rest 22262
man ufac 22255
cre ate</w> 22241
ser ve</w> 22231
ist er</w> 22224
or ation</w> 22201
does n</w> 22194
g ame</w> 22160
ist s</w> 22157
c old</w> 22156
bec om 22152
me an 22145
n ation</w> 22124
let ter</w> 22111
c y</w> 22109
b lood</w> 22107
princi ple</w> 22069
m ess 22033
effec ts</w> 22028
t ou 22010
ter rit 22009
ti ves</w> 22003
for ces</w> 21999
in a</w> 21993
ste ad</w> 21990
sup ply</w> 21973
bil lion</w> 21957
la w 21943
ques tions</w> 21933
th ous 21928
in ten 21916
ro c 21912
h ni 21911
consi der</w> 21885
por ting</w> 21878
o es</w> 21870
it able</w> 21865
H um 21858
col le 21846
regul ations</w> 21835
con om 21818
se ems</w> 21817
medi a</w> 21813
O h</w> 21801
op s</w> 21797
ap ter</w> 21788
i or</w> 21780
com preh 21776
b and</w> 21774
trad itional</w> 21773
E conom 21763
f lo 21754
Ch ar 21737
I ra 21735
s aying</w> 21721
sci ence</w> 21705
la ws</w> 21699
b ot 21696
olu tions</w> 21690
det ail 21690
c le</w> 21681
ha i</w> 21680
cre dit</w> 21680
b ig 21616
2 0 21610
buil d</w> 21604
it er 21593
m ic 21587
moder n</w> 21582
f f</w> 21577
in j 21573
ne ws</w> 21515
form er</w> 21495
ph as 21469
1 7</w> 21466
ban ks</w> 21464
D es 21455
enter prise</w> 21440
in ning</w> 21435
A sia</w> 21405
T o 21386
prov ides</w> 21376
beli ev 21367
M is 21354
direc t</w> 21331
d ang 21326
av es</w> 21325
sim ple</w> 21292
ass ess 21285
st ay</w> 21276
bec ame</w> 21268
ti z 21266
cor rec 21266
star ted</w> 21259
rel ations</w> 21258
poin ts</w> 21241
fin e</w> 21233
e at</w> 21220
signific ant</w> 21209
I N 21191
h ur 21190
sch o 21181
plac ed</w> 21149
employ ment</w> 21132
A b 21106
u ti 21103
W e 21058
Euro pe</w> 21054
reg ar 21042
per f 21028
d ings</w> 21025
contr act</w> 21019
ge ts</w> 20998
inte rests</w> 20991
m ut 20985
co ver</w> 20984
st er</w> 20965
h ic 20942
Th e 20936
co vered</w> 20916
ci vil</w> 20913
stat us</w> 20890
ati c 20889
fac tors</w> 20879
consider ation</w> 20877
tem per 20859
Off ice</w> 20848
eg y</w> 20840
J une</w> 20830
id s</w> 20812
appl y</w> 20804
de part 20782
dom estic</w> 20777
est er 20755
form ed</w> 20750
c li 20744
pos t</w> 20736
introduc ed</w> 20723
r ound</w> 20722
am p</w> 20704
me t</w> 20695
pur su 20691
s ound</w> 20686
tec hni 20678
med ical</w> 20678
am ent</w> 20662
prof essi 20657
fol low</w> 20651
spe ak</w> 20650
w ise</w> 20634
qu ick 20618
ab il 20582
am a</w> 20540
uc k</w> 20507
it arian</w> 20500
s qu 20489
ell ing</w> 20481
stand ards</w> 20470
h ous 20441
li ves</w> 20441
fre e 20438
L ord</w> 20434
H i 20424
N e 20402
acc ep 20388
mo tion</w> 20383
pot ential</w> 20381
vis it</w> 20373
all s</w> 20368
car ry</w> 20361
exist ing</w> 20344
P al 20341
posi tive</w> 20334
Ju ly</w> 20327
o d 20321
show s</w> 20318
-- -- 20315
Ac cor 20315
be ha 20303
gi c</w> 20300
c entral</w> 20298
ar ms</w> 20292
C entral</w> 20287
S ince</w> 20282
sur face</w> 20279
x im 20266
ri t</w> 20261
F i 20259
se ar 20248
fir m</w> 20248
l ack</w> 20246
sec tor</w> 20244
1 9</w> 20224
p u 20211
d ow</w> 20211
t un 20210
et ings</w> 20199
v ey</w> 20182
di g 20181
b ul 20172
ad j 20164
A m 20156
crimin al</w> 20131
car ried</w> 20126
mar k 20125
h ot 20108
S C 20100
ain able</w> 20100
in de 20092
gh ter</w> 20092
2 4</w> 20086
ag encies</w> 20072
m usic</w> 20066
de gre 20066
p aid</w> 20062
b ab 20032
g as</w> 20030
concer n</w> 20017
re form</w> 20014
l er</w> 19989
H ar 19988
s cre 19982
er ve</w> 19960
agre ed</w> 19926
offici als</w> 19915
gre ater</w> 19900
al low</w> 19894
f ru 19887
ut y</w> 19886
sof tware</w> 19885
si ze</w> 19880
f low</w> 19867
grow ing</w> 19867
ti t 19861
s ource</w> 19850
tak es</w> 19841
ca used</w> 19835
e ding</w> 19823
Bec ause</w> 19805
cris is</w> 19803
ob serv 19786
shi ps</w> 19776
ren ces</w> 19762
em ed</w> 19747
v ement</w> 19739
4 0</w> 19739
addi tional</w> 19737
lear ning</w> 19718
r an</w> 19715
gre at 19715
stit ute</w> 19692
wh ose</w> 19687
recomm end 19679
ar m</w> 19664
acti vity</w> 19661
opportun ity</w> 19646
Pro gram 19644
k new</w> 19629
al ia</w> 19612
S ept 19611
respon se</w> 19584
requ est</w> 19582
de ep</w> 19578
circ um 19576
stand ard</w> 19572
exerc ise</w> 19563
ci v 19556
K ore 19546
f requ 19522
as si 19522
c anc 19521
i tion</w> 19511
Sept ember</w> 19500
ann oun 19488
u an</w> 19482
cont ent</w> 19474
ans wer</w> 19467
rang e</w> 19463
ac her</w> 19442
200 8</w> 19442
& amp 19435
&amp ;</w> 19435
g t;</w> 19427
& gt;</w> 19427
F rom</w> 19425
s olution</w> 19422
invol ved</w> 19422
or gan 19419
Isra el</w> 19413
ear th</w> 19405
fer red</w> 19399
cl aim 19397
tr ou 19390
depart ments</w> 19390
al one</w> 19377
simil ar</w> 19377
clu sion</w> 19364
o x 19362
pur pose</w> 19359
occ up 19348
1 8 19339
g res 19327
Fir st</w> 19286
U. S.</w> 19282
t led</w> 19269
th us</w> 19268
le y</w> 19266
al ing</w> 19245
boo ks</w> 19224
au th 19216
p un 19210
aut om 19209
B ank</w> 19202
achi eve</w> 19199
mechan ism</w> 19196
t es</w> 19195
ir man</w> 19194
ent er</w> 19186
bl ack</w> 19170
r ich</w> 19167
under standing</w> 19164
D uring</w> 19163
strat e 19145
beha vi 19143
sh ap 19113
at ures</w> 19101
i er</w> 19093
P re 19075
E ast</w> 19068
lim ited</w> 19065
sec tion</w> 19058
join t</w> 19058
re duce</w> 19056
h our</w> 19049
establish ment</w> 19035
in surance</w> 19034
is ing</w> 19034
con ven 19031
dis ease</w> 19013
h y</w> 19006
fin al</w> 18982
sig n</w> 18961
pro t 18948
T w 18937
st ock</w> 18910
sc ale</w> 18894
fri end 18890
C l 18886
ve hic 18883
t ained</w> 18875
comp on 18862
guar an 18844
stat ement</w> 18843
establis h</w> 18841
ar ies</w> 18819
a verage</w> 18817
sy n 18816
pa red</w> 18801
F un 18786
N ot</w> 18784
H er</w> 18770
represent ative</w> 18755
bud get</w> 18751
la un 18740
A R 18734
ci tiz 18716
rec ord</w> 18707
u red</w> 18702
ag ricul 18687
3 . 18682
C or 18649
al ities</w> 18631
princi ples</w> 18621
A N 18611
st ability</w> 18605
un it</w> 18604
pro gram</w> 18596
spe ed</w> 18595
en e</w> 18579
fi g 18565
sal es</w> 18558
r ac 18552
Mar ch</w> 18550
ad ded</w> 18526
ther n</w> 18513
vie ws</w> 18496
vie w 18489
T ec 18487
2 . 18484
j us 18472
2 2</w> 18468
re ported</w> 18451
cal cul 18432
6 . 18431
in str 18410
h om 18406
mi gr 18387
h aps</w> 18380
wr ong</w> 18379
sig ned</w> 18369
M ic 18360
writ ten</w> 18356
increas ing</w> 18340
f ish</w> 18338
diffic ul 18324
m us 18321
sh or 18311
t ren 18294
er ous</w> 18288
E ven</w> 18278
C ar 18273
att emp 18268
dou b 18258
r ise</w> 18256
influ ence</w> 18250
bo dies</w> 18238
tu al</w> 18235
me etings</w> 18225
im age</w> 18217
pe ac 18215
t ext</w> 18195
M ost</w> 18178
foc us</w> 18177
c el 18164
h ot</w> 18153
st ood</w> 18150
approv al</w> 18143
ist an</w> 18138
lin es</w> 18138
actu ally</w> 18135
p ain</w> 18122
offic ial</w> 18110
k y</w> 18105
bre ak</w> 18091
in side</w> 18088
th inking</w> 18083
no te</w> 18071
Govern ments</w> 18067
su ff 18044
ph ot 18038
quick ly</w> 18033
ex ten 18031
condi tion</w> 18031
t own</w> 18018
streng th</w> 18018
ro r</w> 18000
ag enda</w> 17999
min utes</w> 17999
compreh ensive</w> 17995
u gg 17994
M ember</w> 17993
199 2</w> 17977
r ates</w> 17975
chang ed</w> 17962
h n</w> 17960
teach ing</w> 17954
ap preci 17942
Oc to 17942
stu dies</w> 17934
in spec 17925
po st 17921
sy m 17920
strat egy</w> 17916
form ul 17900
discus sed</w> 17897
leg isl 17895
Afric an</w> 17878
ex tr 17876
mach ine</w> 17867
Octo ber</w> 17863
prev ent</w> 17861
bal ance</w> 17860
ag ement</w> 17845
aliz e</w> 17839
n ation 17819
ffe red</w> 17815
sty le</w> 17789
al og 17783
ne y</w> 17779
regi ons</w> 17778
n ic</w> 17777
cer ti 17772
b ers</w> 17766
ari at</w> 17753
el se</w> 17750
2 3</w> 17746
fi f 17735
beg inning</w> 17729
ver se</w> 17725
op in 17720
contro l 17704
h us 17700
mo di 17697
effor t</w> 17695
re ached</w> 17690
sh e 17686
ord ination</w> 17675
1 00</w> 17667
C an 17667
t i</w> 17656
pur ch 17639
nor mal</w> 17639
issu ed</w> 17637
ph one</w> 17614
Sh ang 17614
k er</w> 17611
an ks</w> 17606
hi stor 17604
tre m 17599
tri ed</w> 17588
O R 17572
e th</w> 17550
ester day</w> 17541
C our 17535
present ed</w> 17535
A pri 17514
g one</w> 17505
s ev 17491
wa it</w> 17488
Apri l</w> 17488
ent y</w> 17472
every one</w> 17469
c ard</w> 17464
mo ved</w> 17462
th es 17459
streng then</w> 17428
hos p 17424
t ations</w> 17407
3 1</w> 17403
c o</w> 17397
re member</w> 17397
Program me</w> 17394
bel ow</w> 17386
R eg 17385
vi a</w> 17376
ac ks</w> 17375
ab les</w> 17364
commun ication</w> 17362
J ust</w> 17361
confl ict</w> 17357
M a 17355
se em</w> 17348
li z 17347
presid ent</w> 17341
Pro v 17326
enjo y</w> 17326
re main</w> 17315
200 7</w> 17305
vo ice</w> 17301
T ai 17294
distribu tion</w> 17274
concer ning</w> 17261
Nor th</w> 17261
ess es</w> 17251
F ren 17242
s .</w> 17239
weap ons</w> 17225
eng ine 17218
dem on 17218
over all</w> 17211
dru g</w> 17209
ish ing</w> 17206
an ese</w> 17202
ad em 17181
doc ument</w> 17172
Bo ard</w> 17171
streng th 17168
trans fer</w> 17162
Econom ic</w> 17156
ess ential</w> 17150
ev idence</w> 17135
desig ned</w> 17133
O f</w> 17130
t ask</w> 17125
po ver 17123
Par ty</w> 17108
dow n 17108
ou d</w> 17105
ec ts</w> 17101
t op 17098
em phas 17096
un its</w> 17094
me dic 17090
T E 17088
O N 17073
ay be</w> 17062
ob jec 17060
characteris tics</w> 17059
4 8</w> 17054
oun ded</w> 17047
w it 17043
enc ed</w> 17041
Indi a</w> 17035
or row</w> 17029
reg ular</w> 17028
cri me</w> 17025
ec h</w> 17022
pat ter 17013
pub lis 17011
te acher</w> 17009
s a 17005
ne igh 16998
read ing</w> 16998
appl ied</w> 16996
spi rit</w> 16995
Shang hai</w> 16983
dis p 16960
prot ect</w> 16960
Al though</w> 16951
main ly</w> 16950
b at 16904
scienti fic</w> 16904
l ess 16897
run ning</w> 16878
pati ents</w> 16859
wee ks</w> 16848
No v 16848
human itarian</w> 16845
st eps</w> 16840
Jan uary</w> 16840
wal k</w> 16836
we ight</w> 16829
Ar e</w> 16819
poin ted</w> 16812
func tions</w> 16807
w ind</w> 16806
c amp 16805
c ement</w> 16801
s li 16792
4 . 16791
some times</w> 16777
employ e 16761
ser ies</w> 16759
e . 16733
wr ite</w> 16712
sec re 16708
scho ols</w> 16701
ex port</w> 16697
an ding</w> 16695
he al 16694
w il 16681
reli gi 16680
af ter 16674
buil t</w> 16674
G e 16668
Y or 16666
min e</w> 16666
m ist 16664
ru le</w> 16663
se as 16652
ri es</w> 16651
di e</w> 16647
l ad 16645
e an</w> 16635
g old</w> 16635
ut ting</w> 16632
C entre</w> 16618
ch ance</w> 16617
ame work</w> 16613
T I 16610
j our 16602
doc uments</w> 16597
saf e</w> 16591
co ordin 16582
chec k</w> 16579
avo id</w> 16572
st ation</w> 16563
gre en</w> 16558
anc y</w> 16557
all ing</w> 16548
tis h</w> 16548
los s</w> 16547
thr ough 16545
f ell</w> 16536
lead ing</w> 16532
Th ere 16525
govern ments</w> 16524
cer tain 16516
v ill 16511
con v 16508
la u 16496
I ts</w> 16486
de ad</w> 16479
In formation</w> 16477
li qu 16471
stu died</w> 16465
dam age</w> 16463
my self</w> 16463
ven ess</w> 16461
So cial</w> 16459
ti v 16452
go al</w> 16439
ob lig 16430
as tic</w> 16429
Jo hn</w> 16424
mar k</w> 16419
ak es</w> 16413
writ ing</w> 16411
Hum an</w> 16381
phys ical</w> 16375
facil ities</w> 16374
re v 16370
ac cid 16369
su n</w> 16358
tri c</w> 16357
L on 16348
effici ency</w> 16333
P R 16328
pre pared</w> 16327
P ri 16323
s . 16322
ear li 16316
row n</w> 16308
prob ably</w> 16305
V i 16303
play ed</w> 16294
heav y</w> 16288
m a</w> 16284
pres s</w> 16277
ci ties</w> 16276
. .</w> 16273
res ol 16264
proced ures</w> 16261
tur ing</w> 16255
B u 16252
b ase</w> 16245
it ems</w> 16240
con sist 16237
temper ature</w> 16217
6 0</w> 16213
p ped</w> 16209
oo t</w> 16209
fun d</w> 16191
commer cial</w> 16191
plac es</w> 16177
s even</w> 16173
os is</w> 16163
ste red</w> 16163
D P</w> 16138
t ree</w> 16132
prac tic 16129
gi ving</w> 16127
ati vely</w> 16126
rec ently</w> 16124
show ed</w> 16120
si mul 16110
pl ant</w> 16106
professi onal</w> 16106
um p</w> 16102
Fren ch</w> 16096
es day</w> 16092
1 5 16090
ad s</w> 16077
lar s</w> 16066
D r 16065
adj ust 16054
go es</w> 16047
ach es</w> 16043
y ed</w> 16020
Accor ding</w> 16018
industri al</w> 16012
ant i</w> 15981
el ess</w> 15976
a x 15969
chall eng 15967
s end</w> 15960
ro l 15957
au ght</w> 15957
P h 15955
a ur 15952
sp ir 15948
sle ep</w> 15931
E C 15928
tran si 15924
sub stan 15921
m ent 15897
lo ad</w> 15897
ag n 15896
com for 15896
fu ge 15886
success ful</w> 15882
g on 15871
li es</w> 15869
200 6</w> 15865
pover ty</w> 15856
deb t</w> 15853
lead ers</w> 15839
Yor k</w> 15839
te red</w> 15837
n or</w> 15823
ten ance</w> 15823
appl ic 15822
tr ust</w> 15808
g ust</w> 15793
gu id 15782
r ural</w> 15770
d au 15770
ha ir</w> 15759
ta x 15751
bre ak 15749
St ud 15733
includ ed</w> 15728
Tec hn 15727
appl ications</w> 15711
l ay 15702
oc cur 15692
sust ainable</w> 15691
al g 15688
prov iding</w> 15671
mat ters</w> 15670
expres sed</w> 15660
y esterday</w> 15657
is tic</w> 15653
diffe rence</w> 15644
acc ept</w> 15630
loo ks</w> 15627
trav el</w> 15623
t in 15620
monit oring</w> 15619
re ach</w> 15604
ac qu 15598
m os 15595
mid dle</w> 15594
se emed</w> 15575
A g 15573
ur ban</w> 15561
ter r 15556
connec tion</w> 15553
bor n</w> 15539
T im 15537
prac tical</w> 15513
co de</w> 15512
s un 15495
p ite</w> 15494
an ci 15492
ri age</w> 15468
i ons</w> 15466
reas ons</w> 15457
ne g 15452
pre vious</w> 15432
S ch 15414
pec ts</w> 15414
dy nam 15407
ail y</w> 15397
2 7</w> 15386
ey e</w> 15386
pro duce</w> 15380
st ed</w> 15379
ev ent</w> 15373
feel ing</w> 15370
bo x</w> 15369
process ing</w> 15366
There fore</w> 15364
fil m</w> 15361
immedi ately</w> 15357
no ted</w> 15356
circum stances</w> 15351
civ il 15346
ver sion</w> 15341
u als</w> 15333
acc ur 15332
w an</w> 15331
cent ury</w> 15328
ep tion</w> 15326
conf idence</w> 15326
Nov ember</w> 15323
cont act</w> 15318
main tain</w> 15316
b on 15306
sp ok 15299
Lon don</w> 15299
tom orrow</w> 15298
u ate</w> 15295
T er 15285
ter nal</w> 15284
2 6</w> 15277
S up 15270
st ates</w> 15266
s av 15265
w all</w> 15261
ann ual</w> 15260
iz ing</w> 15258
cre ated</w> 15256
fl u 15253
benef it</w> 15253
l and 15246
F ore 15239
S ome 15237
con struc 15220
i m</w> 15219
enh ance</w> 15215
ul ations</w> 15213
author ity</w> 15188
Di rec 15182
sk in</w> 15180
pri mary</w> 15172
approv ed</w> 15170
Bri tish</w> 15167
inter nal</w> 15163
al ist</w> 15158
fr amework</w> 15145
om s</w> 15133
k en</w> 15118
set tl 15117
i ve</w> 15111
actu al</w> 15102
mon y</w> 15093
w as 15092
bro ad 15090
eth nic</w> 15089
dec isions</w> 15087
Ap pl 15083
S ci 15080
recei ve</w> 15075
o ts</w> 15071
S uch</w> 15064
reas on 15064
pre dic 15058
col or</w> 15046
w aste</w> 15044
bu t 15035
Ri ghts</w> 15020
sch em 15011
pos es</w> 15005
coll ec 14991
s low 14990
degre e</w> 14981
s am 14978
ti al</w> 14973
sum mer</w> 14963
tr aff 14953
traff ic</w> 14939
pop ular</w> 14938
tr ain</w> 14929
h it</w> 14927
z h 14927
wor ked</w> 14925
comple x</w> 14925
through out</w> 14922
k ept</w> 14913
orig inal</w> 14912
f arm 14911
p ass</w> 14899
cont ext</w> 14885
clos ed</w> 14884
w in</w> 14882
c ru 14881
chi ef</w> 14880
wor th</w> 14861
wat ch</w> 14860
he at</w> 14848
be t</w> 14821
T V</w> 14819
loc ation</w> 14809
fiel ds</w> 14801
gi ves</w> 14795
pass ed</w> 14795
w ants</w> 14791
aff ected</w> 14790
remain s</w> 14780
op ening</w> 14774
conduc t</w> 14774
n y</w> 14773
ang e</w> 14766
competi tion</w> 14765
s ent 14760
Inter net</w> 14759
w ood</w> 14756
2 8</w> 14750
benef its</w> 14750
u n</w> 14749
ad equ 14747
re pe 14746
W om 14723
S te 14719
Serv ice</w> 14719
gon na</w> 14710
Tw o</w> 14705
ni a</w> 14700
o red</w> 14698
Au gust</w> 14682
tru th</w> 14678
we ather</w> 14674
direc tion</w> 14659
istr y</w> 14658
in stead</w> 14649
custom ers</w> 14633
sub mitted</w> 14632
in nov 14616
particip ation</w> 14609
i e</w> 14598
fe ar</w> 14598
Au str 14592
ri st 14566
cle an</w> 14562
man ent</w> 14554
b s</w> 14547
ou se 14525
ig n 14519
sh own</w> 14516
invest ors</w> 14510
piec e</w> 14503
u g 14499
pol lu 14497
st ress</w> 14485
H ere</w> 14483
Olymp ic</w> 14481
s ell</w> 14475
comp ens 14464
n ership</w> 14457
be y 14454
un d 14452
do g</w> 14447
inter pre 14444
er t</w> 14441
sch ed 14436
ur ities</w> 14433
g ri 14430
conc ept</w> 14427
S er 14425
typ es</w> 14418
lar gest</w> 14416
hus band</w> 14401
con cl 14399
sim ply</w> 14397
st ly</w> 14391
is n</w> 14386
Fe der 14386
ad ver 14375
t on 14374
qu ali 14372
represent atives</w> 14371
chem ical</w> 14371
ter n 14370
si ght</w> 14367
ev ents</w> 14361
T H 14354
H ave</w> 14350
re ference</w> 14349
com par 14347
F ri 14346
Pal est 14346
ar ch 14343
g ol 14335
op ened</w> 14331
cho ice</w> 14331
charac ter</w> 14321
ag ree</w> 14319
sear ch</w> 14318
E m 14317
vis ory</w> 14314
Com p 14306
bey ond</w> 14302
dol lars</w> 14300
eas ily</w> 14298
win dow</w> 14296
prov ision</w> 14284
lar ation</w> 14278
coun t</w> 14276
sid es</w> 14275
allow ed</w> 14269
fun dam 14260
free dom</w> 14259
sh op</w> 14249
impl ement</w> 14245
fo ot 14242
mo ving</w> 14237
pl aying</w> 14228
exam ination</w> 14227
cl in 14226
viol ence</w> 14213
m enti 14211
requ ire</w> 14210
Res ear 14205
al ism</w> 14204
pres sion</w> 14193
sk ills</w> 14186
str ict</w> 14183
op tim 14182
W i 14180
improv ed</w> 14179
equ al</w> 14177
dar k</w> 14165
proc e 14163
meas ure</w> 14159
ag ency</w> 14143
os s</w> 14142
f ile</w> 14136
i um</w> 14128
ne arly</w> 14127
Fun d</w> 14116
as sets</w> 14105
Ira q</w> 14074
de tec 14073
ide as</w> 14070
dri ve</w> 14058
z y</w> 14049
pay ment</w> 14046
man ner</w> 14041
us er</w> 14026
em o 14024
ep h 14016
19 7 14014
recommend ations</w> 14014
enti re</w> 14013
f em 14011
fe et</w> 14008
Wh o</w> 14008
Th ose</w> 14003
n t</w> 14000
c u 13996
alog ue</w> 13992
tal king</w> 13984
s ave</w> 13970
t ent</w> 13969
o ke</w> 13956
T e 13942
str ong 13940
ori th 13938
sur vey</w> 13936
as es</w> 13933
conc entr 13927
F ur 13896
as pects</w> 13896
us ers</w> 13895
S tr 13894
im ag 13894
O p 13892
p sy 13891
dre am</w> 13880
pre t 13875
f as 13872
su d 13864
opportun ities</w> 13854
pri ority</w> 13849
cho ose</w> 13848
con sequ 13824
An y</w> 13822
n it 13821
lit er 13821
g row</w> 13820
qu anti 13817
facil it 13807
Jap anese</w> 13803
org an</w> 13802
t an 13793
so ft</w> 13793
y uan</w> 13783
it es</w> 13777
min im 13760
de pos 13755
co ordination</w> 13754
earli er</w> 13754
ex plo 13751
colle ge</w> 13730
un to</w> 13724
c am 13710
beg in</w> 13708
re fuge 13707
advant age</w> 13696
il ies</w> 13692
Cour t</w> 13690
Com mun 13683
cor respon 13675
aut onom 13663
f ying</w> 13662
200 5</w> 13656
happ ened</w> 13646
commit tee</w> 13641
mor t 13636
H er 13629
appe ar</w> 13625
st ore</w> 13613
mic ro 13608
B ar 13601
co oper 13588
Hi gh</w> 13584
ti vity</w> 13574
on er</w> 13572
any one</w> 13572
4 9</w> 13565
sp end</w> 13562
b ac 13561
bab y</w> 13561
in cid 13555
doc tor</w> 13551
fac tory</w> 13545
lo g 13539
j ob 13529
stud ent</w> 13527
r ying</w> 13524
h ood</w> 13519
p ack 13515
G ood</w> 13514
ai g 13514
stre et</w> 13510
hu ge</w> 13508
ess or</w> 13505
C ity</w> 13489
sur vi 13475
ch ers</w> 13469
cle arly</w> 13469
menti oned</w> 13467
main tenance</w> 13466
et c</w> 13463
Un ion</w> 13461
mo vi 13459
A gre 13456
abil ities</w> 13445
to m</w> 13432
ei ght</w> 13427
form al</w> 13421
Wom en</w> 13414
and a</w> 13399
vi de 13397
ach ing</w> 13397
emer gency</w> 13396
ev ision</w> 13388
determin ed</w> 13384
ste el</w> 13381
st one</w> 13376
si bil 13371
us eful</w> 13368
d ates</w> 13358
tar get</w> 13357
er a</w> 13340
mess age</w> 13325
E N 13324
Ch apter</w> 13321
r ain</w> 13318
bl ue</w> 13314
includ es</w> 13299
sp ent</w> 13297
sh ar 13291
elec tion</w> 13291
E ar 13290
lim it</w> 13288
wel come</w> 13288
su ffici 13283
f air</w> 13275
o ther 13272
In v 13270
O ther</w> 13269
flo or</w> 13265
2 9</w> 13262
cre te</w> 13256
p on 13244
ver si 13237
ti ll</w> 13231
st atis 13227
fam ous</w> 13226
loc ated</w> 13219
The ir</w> 13216
on line</w> 13210
regi stration</w> 13209
ound ation</w> 13206
produc ed</w> 13205
con ference</w> 13203
terr or 13197
cas h</w> 13191
curren tly</w> 13181
perf ect</w> 13177
n er 13173
g ent 13171
individ uals</w> 13166
is on</w> 13156
Con gress</w> 13153
b un 13147
ul ts</w> 13139
fin ally</w> 13139
effec tively</w> 13137
T ur 13133
ad d</w> 13130
olo gies</w> 13130
g en</w> 13126
war ds</w> 13126
as ks</w> 13120
demon str 13120
th es</w> 13118
ob ject</w> 13107
sibil ities</w> 13097
br ain</w> 13095
ac i 13073
res ource</w> 13070
tre es</w> 13068
c row 13067
D em 13064
re stric 13061
har d 13050
el im 13049
alg orith 13031
r aid</w> 13025
Tai wan</w> 13025
fi xed</w> 13015
1 7 13014
ra ise</w> 13013
exper im 13013
Kore a</w> 13009
ar r 13007
effici ent</w> 13004
pl om 12994
interest ed</w> 12990
gh t 12987
l ose</w> 12981
C H 12981
cont ained</w> 12981
fi ght</w> 12980
dra w</w> 12972
fac tor</w> 12949
ure ment</w> 12947
Fore ign</w> 12942
E very</w> 12936
h ouse 12933
el ements</w> 12932
ens es</w> 12927
Rus sian</w> 12918
rel ation</w> 12910
b ing</w> 12902
ri c</w> 12900
s tic 12898
tim ate</w> 12897
manag er</w> 12891
d uty</w> 12884
no on</w> 12871
en g</w> 12869
g ation</w> 12863
S ub 12858
is ms</w> 12858
in ated</w> 12853
To day</w> 12851
see k</w> 12850
m ir 12848
c ore</w> 12846
n ations</w> 12844
comple ted</w> 12842
appe ared</w> 12841
it ors</w> 12837
bu s</w> 12836
mem ory</w> 12834
r ati 12832
our th</w> 12828
wa iting</w> 12824
improv ement</w> 12813
ri ver</w> 12808
in d 12804
Ex ecu 12798
clim ate</w> 12798
res h</w> 12795
fail ure</w> 12795
N ot 12791
a head</w> 12784
ord ers</w> 12782
bro ther</w> 12782
conduc ted</w> 12778
en em 12774
arm ed</w> 12773
H u 12769
mut ual</w> 12767
I D 12764
high ly</w> 12763
kin ds</w> 12762
ra ised</w> 12759
al ed</w> 12756
for ced</w> 12755
pollu tion</w> 12752
Can ad 12730
pow er 12726
fe atures</w> 12724
big gest</w> 12723
el d</w> 12717
adv ice</w> 12716
achiev ed</w> 12712
go als</w> 12710
E ver 12708
vol un 12706
c ross</w> 12696
d ated</w> 12693
independ ent</w> 12693
sk y</w> 12692
d aily</w> 12680
g a 12678
re ve 12676
st op 12675
v ac 12674
we ar</w> 12666
d red</w> 12662
5 . 12662
eval uation</w> 12661
m ass</w> 12659
promot ing</w> 12655
assess ment</w> 12653
dau ghter</w> 12652
exp ect</w> 12649
descri bed</w> 12642
ic ate</w> 12637
arm ament</w> 12637
hi c</w> 12634
t our 12627
comm is 12623
fam ilies</w> 12623
dr ink</w> 12619
br an 12616
trans port</w> 12615
comp ared</w> 12611
val u 12611
follow ed</w> 12610
l am 12606
re pl 12602
m al 12594
r out 12581
Un der</w> 12576
S un 12574
ar ance</w> 12568
ph ase</w> 12566
th ir 12563
discus sion</w> 12561
pic ture</w> 12546
sp on 12534
ic ity</w> 12532
vi ously</w> 12530
con stitu 12525
ca uses</w> 12525
at eral</w> 12518
pres ents</w> 12510
li e</w> 12505
ur g 12503
neigh b 12503
y n 12499
P o 12499
ev ening</w> 12497
anim als</w> 12495
z one</w> 12492
r ough</w> 12489
s n 12473
or ds</w> 12463
be ar</w> 12462
sor ry</w> 12458
citiz ens</w> 12450
Tr ans 12449
gl ass</w> 12449
gener ally</w> 12443
k ers</w> 12434
ti veness</w> 12434
Fr ance</w> 12430
Sy stem</w> 12425
commit ment</w> 12423
ow ned</w> 12422
certi fic 12419
mo del 12417
A sian</w> 12415
por ary</w> 12415
ad ing</w> 12408
cri tical</w> 12404
Cha irman</w> 12402
al though</w> 12399
quar ters</w> 12397
tow ard</w> 12394
wh om</w> 12390
se as</w> 12389
e br 12380
y e</w> 12377
trou ble</w> 12376
mar ried</w> 12372
exc ept</w> 12364
E ach</w> 12361
He alth</w> 12351
inst all 12350
On ly</w> 12347
Secret ariat</w> 12346
S A 12336
4 5</w> 12334
clo thes</w> 12328
B i 12327
re turned</w> 12327
en ge</w> 12324
adv anced</w> 12315
anci ent</w> 12315
mo vement</w> 12314
S um 12308
or ial</w> 12306
b ly</w> 12299
Man agement</w> 12296
On ce</w> 12288
Con tro 12287
sol di 12282
T re 12279
hun dred</w> 12271
n e</w> 12261
su s</w> 12259
n on 12256
m outh</w> 12228
sec ret 12218
dest ro 12213
dr y</w> 12210
exper ts</w> 12210
pro te 12205
vot e</w> 12202
k illed</w> 12198
au di 12197
ar ity</w> 12195
c ells</w> 12185
sc ope</w> 12181
T u 12175
reli ef</w> 12175
thes is</w> 12175
at trac 12163
inspec tion</w> 12160
publis hed</w> 12158
att ack</w> 12156
in ing</w> 12155
t aining</w> 12152
territ ory</w> 12140
heal thy</w> 12125
di agn 12119
af raid</w> 12119
shi p 12113
r ace</w> 12112
detail s</w> 12112
complet ely</w> 12109
job s</w> 12109
par ame 12107
ay ed</w> 12106
war m</w> 12106
Fe br 12103
O N</w> 12097
improv ing</w> 12089
E R 12074
P ublic</w> 12071
sol id 12071
R ev 12069
t ains</w> 12068
sp ring</w> 12067
pre vention</w> 12066
h ing</w> 12065
inf ra 12065
hol ding</w> 12057
sec on 12056
rel ating</w> 12055
an e</w> 12052
Ever y 12050
Febr uary</w> 12050
cr aft</w> 12046
Ch rist 12045
spe ech</w> 12043
f are</w> 12041
val ues</w> 12041
c ell</w> 12039
aff airs</w> 12039
fundam ental</w> 12037
an tly</w> 12029
H ol 12018
ast ing</w> 12018
org ans</w> 12013
st ern</w> 12010
str ugg 12009
fa ult</w> 12004
proced ure</w> 12002
Serv ices</w> 12002
gu n</w> 11996
contribu tions</w> 11985
L eg 11980
co al</w> 11972
Agre ement</w> 11972
investig ation</w> 11970
I T 11962
as p 11960
ain t</w> 11956
ad ap 11953
arrang ements</w> 11950
Execu tive</w> 11945
lat est</w> 11944
W est</w> 11943
m aster</w> 11943
Fin ally</w> 11939
e ah</w> 11930
p il 11927
s cri 11926
propos al</w> 11924
e u 11923
opin ion</w> 11922
tic ally</w> 11917
cl aim</w> 11913
fig ure</w> 11913
Ac tion</w> 11912
M ore</w> 11903
E duc 11902
discus s</w> 11897
res olutions</w> 11886
tri bu 11886
cent er</w> 11886
c ere 11882
Al so</w> 11882
camp aig 11882
sig n 11878
pe o 11877
medi um</w> 11870
so il</w> 11868
rec o 11865
trad ing</w> 11860
cap e</w> 11842
pro per</w> 11828
Rus sia</w> 11828
dis ci 11827
e ous</w> 11820
mean ing</w> 11814
negoti ations</w> 11802
cat eg 11801
di plom 11799
in ter</w> 11798
integr ation</w> 11798
Pro f 11790
gir ls</w> 11783
ser ver</w> 11779
ob tained</w> 11779
wee k 11777
th in</w> 11773
know s</w> 11772
b a 11766
ex ternal</w> 11765
gener ation</w> 11764
sup ported</w> 11760
spe aking</w> 11751
Ge or 11748
p ace</w> 11746
bus in 11743
3 5</w> 11733
dou ble</w> 11730
cou ple</w> 11730
requ ested</w> 11725
p age</w> 11722
po int 11717
call s</w> 11703
challeng es</w> 11703
regar ding</w> 11699
spe ak 11698
we b 11696
l eng 11695
d ress</w> 11693
4 7</w> 11691
Resear ch</w> 11687
g ate</w> 11685
200 4</w> 11684
d es</w> 11681
in t</w> 11681
happ iness</w> 11680
s ale</w> 11666
M id 11666
requi res</w> 11664
lear ned</w> 11664
is es</w> 11661
C ap 11653
f illed</w> 11652
sen si 11651
consum ption</w> 11650
s pl 11644
i ent</w> 11633
s ort</w> 11622
con fir 11621
oc cas 11618
enti tled</w> 11606
elec tric</w> 11605
concer ns</w> 11601
dro p</w> 11600
I tal 11599
he re 11598
e k</w> 11593
il li 11579
ab or 11576
reduc tion</w> 11571
c ot 11567
i ously</w> 11566
M eth 11564
encour age</w> 11559
c ro 11556
ph en 11550
oper ating</w> 11548
sec urities</w> 11547
rap id</w> 11544
res ent 11541
psy ch 11541
jo in</w> 11540
seas on</w> 11539
ud ed</w> 11533
at ever</w> 11527
sp read</w> 11520
A no 11518
ar gu 11513
agre ements</w> 11512
in ate</w> 11506
pl ants</w> 11506
peac eful</w> 11504
aff ect</w> 11503
B rit 11498
at ur 11498
D ay</w> 11495
contribu tion</w> 11495
anim al</w> 11495
exc ell 11486
hi bi 11479
jus tice</w> 11476
ver i 11471
M ed 11469
ad es</w> 11468
neg ative</w> 11466
man date</w> 11463
n ice</w> 11454
str ai 11445
pr a 11444
w est</w> 11440
dis crimin 11440
In du 11438
new sp 11434
f ill</w> 11425
ic ip 11421
i ang</w> 11419
end it 11416
W est 11410
mar riage</w> 11410
dev ice</w> 11409
speci fied</w> 11403
employe es</w> 11401
se x</w> 11400
ob jective</w> 11400
ap ers</w> 11397
becom es</w> 11397
Ch il 11392
techni que</w> 11390
thous and</w> 11388
bit r 11384
Th ank</w> 11369
12 4 11368
1 , 11363
and ed</w> 11363
chang ing</w> 11363
Administr ation</w> 11355
r s</w> 11354
S m 11353
ex i 11348
adequ ate</w> 11338
m as</w> 11314
st able</w> 11313
z ing</w> 11312
fo rest</w> 11312
auth or</w> 11312
A ff 11311
Ano ther</w> 11306
W ould</w> 11303
tit ude</w> 11302
b on</w> 11290
num bers</w> 11288
plan e</w> 11286
s ports</w> 11279
El ec 11278
difficul ties</w> 11273
h es</w> 11272
St re 11271
legisl ation</w> 11266
dec ide</w> 11262
teach ers</w> 11261
Palest in 11256
sit es</w> 11251
C hi 11245
con serv 11236
pl at 11235
a x</w> 11234
W ill</w> 11230
M I 11223
B us 11222
in ks</w> 11218
techn ologies</w> 11214
su me</w> 11208
&# 124 11204
&#124 ;</w> 11204
s ources</w> 11202
gr ade</w> 11202
tel evision</w> 11185
cl assi 11181
regi stered</w> 11178
ag ue</w> 11177
ec ting</w> 11175
ro se</w> 11171
c ouldn</w> 11164
fi gu 11159
uni que</w> 11157
m el 11151
Y ear</w> 11151
propos als</w> 11147
t a</w> 11138
agricul tural</w> 11138
oo d 11137
canc er</w> 11137
el ines</w> 11131
s ex 11129
determin ation</w> 11129
Americ ans</w> 11128
per haps</w> 11126
re le 11118
ve re 11114
pur poses</w> 11107
hous ing</w> 11106
B os 11102
tren d</w> 11100
sol ve</w> 11096
wid ely</w> 11093
Ti bet</w> 11091
con crete</w> 11085
objec tives</w> 11085
th ank</w> 11082
j e 11081
atic ally</w> 11081
st oc 11075
R el 11069
cel ebr 11066
p ip 11057
proper ties</w> 11056
der ing</w> 11054
Y et</w> 11052
l ay</w> 11049
u le</w> 11047
no tice</w> 11042
care er</w> 11042
vis ed</w> 11035
set ting</w> 11031
M ac 11030
1 6 11030
shap e</w> 11027
commit ted</w> 11025
hol id 11022
custom er</w> 11022
doub t</w> 11022
el ement</w> 11021
qu es</w> 11018
we alth</w> 11017
determin e</w> 11017
o ffered</w> 11016
B e</w> 11015
c ast</w> 11009
announ ced</w> 11008
settl ement</w> 11006
pro motion</w> 11005
ing u 11002
it or</w> 11000
for get</w> 10999
. The</w> 10997
er r 10989
can di 10984
D id</w> 10978
p ath</w> 10977
chall enge</w> 10977
engine ering</w> 10977
y er</w> 10976
offic es</w> 10961
pres cri 10958
associ ated</w> 10955
Tr ade</w> 10954
medic ine</w> 10951
happ en</w> 10948
aff ir 10947
jud ic 10947
super vision</w> 10934
aut y</w> 10928
B ased</w> 10927
Min ister</w> 10924
strength ening</w> 10921
ni tion</w> 10920
ex ac 10917
mat ch</w> 10910
gr y</w> 10907
ing ing</w> 10905
we stern</w> 10898
ing ton</w> 10896
ell ed</w> 10890
al tern 10889
hy dro 10885
tal ks</w> 10884
s old</w> 10882
certain ly</w> 10882
uni versity</w> 10881
ent h</w> 10880
si t</w> 10878
coun ter 10877
ish es</w> 10877
m ail</w> 10873
ass ist</w> 10872
hel ped</w> 10871
ex trem 10866
behavi or</w> 10866
rest aur 10859
li ved</w> 10857
port ation</w> 10852
s ons</w> 10844
il s</w> 10841
sugg es 10840
UN DP</w> 10838
Ger many</w> 10834
g ain</w> 10827
din ner</w> 10826
ru p 10815
eas es</w> 10814
As soci 10811
eg et 10810
estim ated</w> 10809
ben e 10806
ear th 10802
S i 10798
view ed</w> 10792
ma xim 10782
bot tom</w> 10782
prepar ation</w> 10781
vide o</w> 10776
ac adem 10773
trans l 10773
den ly</w> 10771
0 s</w> 10766
expres s</w> 10765
li ber 10760
o l</w> 10750
Ob ama</w> 10749
En viron 10741
add ressed</w> 10734
hot el</w> 10726
y l 10720
or ities</w> 10715
i ther</w> 10712
ph il 10703
l un 10702
sit u 10701
f resh</w> 10700
v ent 10700
increas ingly</w> 10692
algorith m</w> 10689
coll ection</w> 10684
becom ing</w> 10679
organiz ed</w> 10672
mul ti</w> 10669
0 . 10661
di men 10658
particip ate</w> 10657
hosp ital</w> 10657
is land</w> 10648
ti red</w> 10636
pl ays</w> 10634
ab road</w> 10633
reason able</w> 10631
te es</w> 10630
deli very</w> 10626
int el 10616
fav or 10612
id ity</w> 10608
contribu te</w> 10599
com mod 10596
for tun 10596
us ual</w> 10579
w is 10577
en able</w> 10576
g er 10567
br ary</w> 10561
exp endit 10561
maj ority</w> 10558
ang er</w> 10553
R E 10551
gr at 10549
arti cles</w> 10548
te sting</w> 10544
lab our</w> 10540
tur ns</w> 10539
flow ers</w> 10539
direc tor</w> 10532
B oth</w> 10531
p ac 10529
cre d 10528
we ak 10524
pres ence</w> 10523
avi d</w> 10523
por tion</w> 10522
s low</w> 10519
re alize</w> 10517
con sci 10517
st er 10515
f oot</w> 10513
ordin ary</w> 10507
A S 10506
V al 10506
fu el</w> 10503
clos ely</w> 10496
electr onic</w> 10495
n ur 10481
S al 10477
E g 10472
Af gh 10462
offic ers</w> 10462
is ation</w> 10461
t ol 10460
el f</w> 10456
promis e</w> 10452
Min istry</w> 10449
ad ed</w> 10448
Mon day</w> 10448
s anc 10447
w illing</w> 10438
suffici ent</w> 10433
believ ed</w> 10432
l ands</w> 10425
secre t</w> 10425
pret ty</w> 10425
f it</w> 10423
sel ling</w> 10422
s at</w> 10419
recogn ized</w> 10411
dat ab 10404
sen ior</w> 10402
dru gs</w> 10402
dynam ic</w> 10399
for d</w> 10395
analy zed</w> 10392
expres sion</w> 10391
guaran tee</w> 10390
b order</w> 10387
di alogue</w> 10387
we red</w> 10385
鈥 檚</w> 10382
S ha 10380
S im 10376
An aly 10373
mo de</w> 10369
prov in 10369
after noon</w> 10359
id ent</w> 10350
it ch</w> 10348
pl e 10348
ag ent</w> 10348
on ing</w> 10347
il legal</w> 10339
lin ed</w> 10338
ent ation</w> 10336
Be fore</w> 10329
democr atic</w> 10329
re r</w> 10327
han g</w> 10322
Th us</w> 10321
li ghts</w> 10319
correc t</w> 10313
West ern</w> 10313
C ome</w> 10309
l ar</w> 10308
pos ite</w> 10302
ess ed</w> 10302
religi ous</w> 10302
r o</w> 10295
G ames</w> 10295
reduc ed</w> 10293
ti n</w> 10286
ed ge</w> 10285
compens ation</w> 10285
tr act</w> 10283
sh o 10281
separ ate</w> 10271
tu red</w> 10267
ris ing</w> 10267
lead ership</w> 10267
fin ance</w> 10265
thre at</w> 10265
fic ial</w> 10264
adv ance</w> 10264
e en</w> 10258
m ol 10255
accep ted</w> 10252
qu ake</w> 10248
f ing 10247
al ty</w> 10246
per manent</w> 10242
Ex c 10242
ph ere</w> 10237
cle an 10227
autonom ous</w> 10223
ear ing</w> 10221
sm all 10219
5 00</w> 10218
roc k</w> 10218
patter n</w> 10202
t al</w> 10198
intel lig 10195
tur ning</w> 10192
econom ies</w> 10192
z er 10190
Stre et</w> 10189
ast ern</w> 10180
dist ance</w> 10171
execu tive</w> 10171
pre p 10169
3 2</w> 10167
3 3</w> 10165
Ro ad</w> 10164
200 0</w> 10157
car s</w> 10152
con ver 10141
fas hi 10140
sugg ested</w> 10139
om en 10134
k ill</w> 10131
ac ting</w> 10131
vari ety</w> 10130
refuge es</w> 10123
8 0</w> 10122
um n</w> 10121
pol y 10117
r ain 10116
am bi 10115
fac es</w> 10111
T om</w> 10106
7 . 10105
S en 10103
corpor ate</w> 10103
s ens 10102
un less</w> 10101
fail ed</w> 10100
bro ken</w> 10096
re ality</w> 10095
b ought</w> 10090
Wor king</w> 10089
high est</w> 10088
no ise</w> 10084
lat eral</w> 10084
a ren 10069
jec ted</w> 10068
mis sions</w> 10067
D avid</w> 10065
appe ars</w> 10064
gr and 10062
th ou</w> 10061
list en</w> 10061
M ain 10060
id ly</w> 10055
T ri 10053
ffe e</w> 10052
thous ands</w> 10051
re al 10048
ch r 10046
fi gh 10038
v eget 10037
implement ed</w> 10035
fl exi 10032
ent ered</w> 10030
A C 10028
ac ted</w> 10022
develop ments</w> 10022
f ly</w> 10020
sp an</w> 10020
exc e 10018
st ar</w> 10016
compe tent</w> 10007
M al 10006
accoun ting</w> 10004
aw are</w> 10002
eph one</w> 10002
Austr alia</w> 10001
h ost</w> 9992
a wa 9989
sub mit</w> 9989
cir cul 9989
f oundation</w> 9987
sou l</w> 9983
bri dge</w> 9982
Direc tor</w> 9977
app ed</w> 9973
L ook</w> 9968
sist er</w> 9967
U S 9966
Eg yp 9958
l ying</w> 9957
199 1</w> 9957
gu ard</w> 9955
uni vers 9955
min ute</w> 9949
ext ent</w> 9949
accid ent</w> 9948
Administr ative</w> 9946
ish ment</w> 9938
buil dings</w> 9933
struc tures</w> 9931
le aves</w> 9928
y ou 9925
rel atively</w> 9921
power ful</w> 9921
200 9</w> 9917
Au thor 9917
sh ot</w> 9912
as sist 9908
aim ed</w> 9895
w are</w> 9893
S ing 9892
dang erous</w> 9888
A P 9887
I S 9882
ic ts</w> 9881
friend ly</w> 9874
ti l 9870
Brit ain</w> 9866
an k 9863
B er 9862
T O</w> 9860
B l 9860
ab sor 9853
p al 9848
oun ding</w> 9847
su it</w> 9845
fin ished</w> 9844
te a</w> 9843
bo at</w> 9842
win ter</w> 9837
on y</w> 9834
her self</w> 9834
for cement</w> 9833
aci fic</w> 9831
oblig ations</w> 9830
g n 9829
ow er</w> 9829
fic ations</w> 9822
democr acy</w> 9820
T ake</w> 9815
bro ad</w> 9815
educ ational</w> 9810
resear chers</w> 9809
M i 9807
be half</w> 9802
sp ending</w> 9800
M us 9799
res erv 9797
disci pl 9795
ar ily</w> 9794
Contro l</w> 9794
dis aster</w> 9788
ap point 9787
ste ad 9783
lead er</w> 9783
le aving</w> 9778
tri p</w> 9776
ma p</w> 9771
sig nal</w> 9766
equ i 9764
ac compl 9758
clin ical</w> 9757
be auty</w> 9756
s per 9755
y st 9752
thre at 9749
schem e</w> 9748
7 0</w> 9744
ut ri 9744
sp r 9742
li ons</w> 9738
gu y</w> 9716
w ine</w> 9715
su itable</w> 9713
wor l 9710
star ting</w> 9710
was n</w> 9706
ar bitr 9703
fr on 9695
ther ap 9695
out put</w> 9693
diffe rences</w> 9687
exp an 9686
es man</w> 9683
stitu tion</w> 9681
C ustom 9679
g ames</w> 9678
indic ated</w> 9663
peo ples</w> 9663
b es 9662
is c 9662
z e 9660
j ur 9659
fe rences</w> 9656
H ouse</w> 9653
gar den</w> 9653
great ly</w> 9652
J es 9647
respon sibilities</w> 9643
resid ents</w> 9642
prof it</w> 9642
el er 9639
W ash 9638
3 6</w> 9635
Dem ocr 9634
continu es</w> 9633
ro b 9632
for th</w> 9632
tw enty</w> 9632
c lock</w> 9625
Mis sion</w> 9622
prov ed</w> 9613
sha res</w> 9612
tou ch</w> 9611
G en 9603
b oss</w> 9601
dri ving</w> 9600
fem ale</w> 9600
P acific</w> 9596
s outh</w> 9594
b ar</w> 9593
B r 9592
compon ent</w> 9591
movi e</w> 9587
hand le</w> 9580
initi al</w> 9580
inde x</w> 9578
strate gies</w> 9570
t age</w> 9569
b ile</w> 9565
con clusion</w> 9565
Educ ation</w> 9563
ap pointed</w> 9562
spec ies</w> 9562
C ri 9561
nam es</w> 9560
T A 9557
quar ter</w> 9556
oper ational</w> 9555
lab or</w> 9555
lo ved</w> 9552
hol ds</w> 9551
Tre at 9551
f light</w> 9550
i ans</w> 9549
im port</w> 9548
car rying</w> 9547
R em 9544
sol id</w> 9541
y i 9529
Christ mas</w> 9527
Th ree</w> 9526
acti vely</w> 9526
8 . 9524
extrem ely</w> 9519
b right</w> 9515
at mos 9509
pl ate</w> 9508
f le 9506
re ven 9506
b ol 9495
M or 9493
C er 9490
v el 9488
W el 9487
excell ent</w> 9487
O R</w> 9485
phen omen 9482
no tes</w> 9471
L ast</w> 9469
w ouldn</w> 9469
Sec ond</w> 9469
des ire</w> 9466
dol lar</w> 9461
cont ains</w> 9455
G i 9454
mechan isms</w> 9453
ar my</w> 9451
de ploy 9451
te sts</w> 9449
Regi on</w> 9449
practic es</w> 9448
curren cy</w> 9445
Fri day</w> 9445
n ar 9441
list ed</w> 9436
whe re 9435
see ing</w> 9427
integr ated</w> 9426
p air</w> 9421
mun icip 9420
arri ved</w> 9414
exist ence</w> 9413
Mid dle</w> 9413
Pro duc 9404
S ud 9397
pub l 9396
techn ological</w> 9394
sh oul 9391
lar ger</w> 9391
inde ed</w> 9391
Techn ology</w> 9388
en ni 9385
Dec laration</w> 9384
Canad a</w> 9380
Gre at</w> 9371
g ment</w> 9369
ter ri 9369
ain ts</w> 9355
Appl ication</w> 9353
et ary</w> 9352
defin ed</w> 9346
histor ical</w> 9343
strate gic</w> 9341
back ground</w> 9339
attemp t</w> 9338
cop y</w> 9329
Char ter</w> 9327
vehic le</w> 9327
tion ary</w> 9326
re ferred</w> 9325
s ac 9320
g ot 9318
b ill</w> 9315
ex ist</w> 9315
e ating</w> 9313
4 6</w> 9313
pres sed</w> 9313
le gi 9312
sur pris 9305
succ e 9302
an a</w> 9299
sa fe 9299
st ated</w> 9298
c aught</w> 9296
t ool</w> 9286
fac tion</w> 9285
ab sol 9282
bir th</w> 9279
leng th</w> 9279
O per 9275
adop t</w> 9273
radi o</w> 9266
dis eases</w> 9265
ur ch</w> 9261
olu me</w> 9254
deleg ations</w> 9253
vehic les</w> 9253
dow s</w> 9252
bl ed</w> 9250
bus y</w> 9250
facilit ate</w> 9249
ong s</w> 9244
as sum 9242
B ur 9240
sp ot</w> 9234
fu n</w> 9232
investig ate</w> 9230
200 3</w> 9229
no c 9216
tre at</w> 9216
ag er</w> 9215
cre ation</w> 9213
techni ques</w> 9211
Wash ington</w> 9211
coun ter</w> 9210
Aff airs</w> 9204
op h 9203
z z 9202
b ound</w> 9195
f al 9194
ob tain</w> 9194
ha ven</w> 9193
Bus iness</w> 9188
vill age</w> 9185
l or 9184
over seas</w> 9183
mark eting</w> 9183
si r</w> 9181
M il 9179
compon ents</w> 9178
co ffee</w> 9174
so vere 9174
Y eah</w> 9173
mil es</w> 9170
es sions</w> 9167
re lease</w> 9163
ograp hy</w> 9161
C re 9157
reg im 9156
consul tations</w> 9156
B ush</w> 9154
ti fication</w> 9154
In stitute</w> 9153
9 . 9151
signific ance</w> 9151
expl ore</w> 9148
Comp any</w> 9148
los ses</w> 9145
process es</w> 9145
pati ent</w> 9145
e tic</w> 9144
fin ancing</w> 9143
to ols</w> 9142
ec ture</w> 9141
infl ation</w> 9136
hur t</w> 9136
r ul 9134
l aid</w> 9129
reco very</w> 9129
tro ops</w> 9128
dist inc 9127
plan ned</w> 9122
ro te</w> 9121
at ell 9121
hi b 9118
mar ks</w> 9115
2 00</w> 9111
ver ing</w> 9111
gr av 9111
ass es</w> 9109
t y 9100
c oo 9096
Pro tec 9096
M ore 9090
acc eler 9085
fru it</w> 9085
sti mul 9080
gu ide</w> 9079
advant ages</w> 9078
ti le</w> 9071
wal ked</w> 9071
t asks</w> 9068
tr ack</w> 9067
hol ders</w> 9058
Or din 9056
cr iter 9055
enem y</w> 9051
model s</w> 9050
t ary</w> 9048
off ers</w> 9048
Palestin ian</w> 9046
expl ain</w> 9038
Rep resent 9037
remain ed</w> 9037
v oc 9035
0 ,000</w> 9033
at er 9028
detail ed</w> 9023
mo bile</w> 9021
sh op 9019
min ing</w> 9017
O ffic 9016
R w 9010
strai ght</w> 9006
deb ate</w> 9005
te en</w> 8999
respec tive</w> 8999
par k</w> 8996
c ra 8995
der i 8994
Z h 8991
follow s</w> 8991
m as 8990
k il 8983
C i 8982
ch an 8982
B as 8979
air craft</w> 8979
sit ting</w> 8979
stre am</w> 8979
Li ke</w> 8974
L ove</w> 8971
ell ec 8971
infra structure</w> 8971
3 8</w> 8968
hibi tion</w> 8967
met al</w> 8958
b es</w> 8952
spec tive</w> 8952
Sun day</w> 8952
Jes us</w> 8951
produc tive</w> 8950
du ties</w> 8950
p ick</w> 8946
th ly</w> 8945
m ur 8941
le ts</w> 8939
ul l</w> 8938
H K 8933
Stud y</w> 8933
ne x</w> 8929
fac ing</w> 8929
care fully</w> 8929
dig ital</w> 8927
L OR 8926
recomm ended</w> 8915
trans portation</w> 8914
re gre 8912
sur ve 8911
Li fe</w> 8909
ur ation</w> 8908
pass eng 8907
M emb 8906
C ould</w> 8905
stop ped</w> 8905
min ist 8902
draw n</w> 8897
transi tion</w> 8897
ac id</w> 8894
b loc 8893
as i 8893
other wise</w> 8893
ter y</w> 8891
br and</w> 8889
h s</w> 8882
w rote</w> 8881
More over</w> 8881
interest ing</w> 8875
ab led</w> 8870
pos s 8870
Ear th</w> 8862
scre en</w> 8859
3 4</w> 8858
sm ile</w> 8855
per form</w> 8854
correspon ding</w> 8854
b om 8849
campaig n</w> 8846
per c 8841
instr uments</w> 8840
mo on</w> 8839
ris ks</w> 8839
pl i 8835
ed ly</w> 8835
prep are</w> 8831
Pro c 8828
P ak 8818
wor ry</w> 8816
tre ated</w> 8816
claim s</w> 8814
con vers 8813
manufac turing</w> 8813
el low</w> 8811
exac tly</w> 8811
Ch r 8807
ha m 8799
re sistance</w> 8798
l ink</w> 8791
Ger man</w> 8791
zh ou</w> 8785
mil k</w> 8784
ur s 8779
purch ase</w> 8776
pro mp 8770
web site</w> 8767
f ro 8766
sus p 8762
S ur 8760
st o 8757
ap ar 8757
us hed</w> 8757
ic ated</w> 8750
effec tiveness</w> 8748
cat ch</w> 8744
M c 8736
hel ps</w> 8736
accoun ts</w> 8731
stor age</w> 8731
grad ually</w> 8729
3 7</w> 8725
---- ---- 8722
ir on</w> 8716
part ner</w> 8713
U se</w> 8712
datab ase</w> 8711
experi ment</w> 8709
j u 8706
elec tro 8705
c ros 8703
b le 8701
fo rec 8701
ou ghts</w> 8699
O F</w> 8695
hor se</w> 8691
a ud 8689
sur g 8688
9 0</w> 8686
Associ ation</w> 8685
identi fied</w> 8679
se at</w> 8678
y outh</w> 8677
on ally</w> 8675
U N</w> 8673
ans wered</w> 8672
situ ations</w> 8660
No .</w> 8659
d ance</w> 8658
w ave</w> 8657
res sing</w> 8655
appe arance</w> 8652
jud ge</w> 8652
bil ateral</w> 8651
der ly</w> 8647
prin cip 8646
Sch ool</w> 8646
3 9</w> 8643
5 1</w> 8641
great est</w> 8639
in struc 8634
c entre</w> 8631
head s</w> 8631
en try</w> 8629
v olume</w> 8623
dis armament</w> 8623
ren ess</w> 8617
it ch 8615
L i</w> 8612
C am 8608
car bon</w> 8605
tel ephone</w> 8600
ad ly</w> 8599
inst ance</w> 8595
M aybe</w> 8593
part ners</w> 8592
se l</w> 8591
immedi ate</w> 8591
extr a</w> 8588
f air 8587
fun ding</w> 8582
4 1</w> 8579
s cr 8578
sev ere</w> 8577
in sul 8576
min ister</w> 8572
ail s</w> 8568
we ak</w> 8566
li f 8565
rele ased</w> 8565
Eng land</w> 8562
coun ty</w> 8561
form ing</w> 8560
nor th</w> 8559
migr ation</w> 8556
LOR D</w> 8553
ra il 8545
fir ms</w> 8545
confl icts</w> 8544
n utri 8539
de ep 8539
pu ts</w> 8537
l em 8532
exp ensive</w> 8531
ast ers</w> 8527
b ird</w> 8526
the e</w> 8525
equ ality</w> 8513
s olutions</w> 8511
nam ed</w> 8511
Me an 8509
cy cle</w> 8508
SC O</w> 8508
I V</w> 8506
P L 8505
K e 8505
no tic 8504
J ud 8502
li fer 8500
respec tively</w> 8499
y a</w> 8498
recog nition</w> 8495
un c 8494
b ound 8489
moun tain</w> 8483
control led</w> 8483
dic tion</w> 8482
consum er</w> 8481
w ing</w> 8480
fin ding</w> 8479
eng ine</w> 8477
scienti sts</w> 8476
ag gres 8473
nor m 8471
C ur 8466
B en 8463
eng aged</w> 8462
diffe ren 8460
C ul 8459
n ine</w> 8458
ne ither</w> 8454
m aybe</w> 8453
re in 8452
im possible</w> 8449
frequ ency</w> 8448
hous es</w> 8447
plac ement</w> 8446
F ac 8442
O r</w> 8437
sugg est</w> 8434
4 4</w> 8433
low ing</w> 8433
Chi ef</w> 8433
er ror</w> 8430
tri al</w> 8429
refl ect</w> 8428
Co operation</w> 8425
Pe ace</w> 8420
mag ne 8416
f ourth</w> 8415
at titude</w> 8414
rec ords</w> 8413
For ce</w> 8409
R ob 8404
Com mer 8393
liz ation</w> 8391
st ant</w> 8387
ati n</w> 8387
interpre tation</w> 8385
figu res</w> 8383
allow s</w> 8380
appe al</w> 8378
A gency</w> 8375
des pite</w> 8375
har mon 8375
Bu il 8374
judic ial</w> 8369
sen sus</w> 8368
k ids</w> 8367
posi tions</w> 8367
J er 8358
rel ative</w> 8358
ill u 8358
hol e</w> 8357
pri or</w> 8356
z es</w> 8349
n ings</w> 8347
as ing</w> 8346
in k 8345
por ters</w> 8343
por te 8338
e ply</w> 8335
th ro 8335
soldi ers</w> 8335
im mun 8333
ous ness</w> 8332
dis play</w> 8331
ev ent 8329
lay er</w> 8325
identi fy</w> 8324
Th rough</w> 8323
feel ings</w> 8323
sub si 8318
slow ly</w> 8317
ter ing</w> 8314
fam ili 8313
200 1</w> 8311
d ont</w> 8309
o di 8305
Tu esday</w> 8303
program s</w> 8302
st ance</w> 8300
m ac 8299
des er 8287
figh ting</w> 8286
continu ing</w> 8285
comb ined</w> 8285
Ad visory</w> 8280
expan sion</w> 8279
con solid 8275
me at</w> 8274
B ure 8272
A N</w> 8271
v ul 8265
um s</w> 8264
199 7</w> 8262
W ed 8257
pos sibility</w> 8254
ar k</w> 8253
sud denly</w> 8252
D istr 8251
for ty</w> 8251
4 2</w> 8250
vic tim 8248
consequ ences</w> 8244
I II</w> 8239
de aling</w> 8237
pl us</w> 8236
TH E</w> 8236
fa ith</w> 8235
recei ving</w> 8229
the ore 8227
def ense</w> 8227
jur is 8224
cri mes</w> 8223
de fic 8222
commun ications</w> 8219
stat ements</w> 8218
arch it 8217
jec tion</w> 8216
R om 8211
wh atever</w> 8210
st ations</w> 8206
Re port</w> 8202
ti an</w> 8200
or dered</w> 8196
Ordin ance</w> 8192
r ub 8191
ther more</w> 8189
li fe 8182
war ning</w> 8181
al leg 8177
inj ury</w> 8173
4 3</w> 8165
il ed</w> 8165
investig ated</w> 8165
phil os 8163
sc ene</w> 8162
F ol 8161
the tic</w> 8160
19 6 8158
g ar</w> 8157
y ers</w> 8156
f at</w> 8156
pr e</w> 8154
ra b</w> 8152
Isra el 8148
ar d 8142
doc um 8141
B ro 8139
t une</w> 8132
q i</w> 8132
swe et</w> 8124
tran sp 8123
m ale</w> 8113
at a</w> 8113
civil ian</w> 8113
po sts</w> 8109
rap idly</w> 8109
ob jects</w> 8105
a uc 8093
al t</w> 8091
ic a</w> 8091
ing dom</w> 8087
play ers</w> 8087
institu tion</w> 8086
statis tics</w> 8086
industri es</w> 8084
ra z 8083
adop tion</w> 8081
reg ulation</w> 8079
qu ick</w> 8076
suff ering</w> 8072
P C</w> 8071
under taken</w> 8071
M os 8070
man age</w> 8069
cre ating</w> 8065
c in 8063
e ing</w> 8061
sec tors</w> 8061
e ast</w> 8058
U .</w> 8058
con sensus</w> 8056
ear n</w> 8054
busin esses</w> 8052
wat er 8049
draw ing</w> 8048
Mr s.</w> 8047
h es 8046
an ning</w> 8044
lo ts</w> 8038
instr ument</w> 8036
speci alized</w> 8034
A ut 8033
S pe 8033
ar g 8031
mis si 8030
I ran</w> 8028
hop es</w> 8025
Reg ulations</w> 8025
syst em 8023
valu able</w> 8022
d ness</w> 8021
Memb ers</w> 8019
Y ug 8013
J i 8010
consum ers</w> 8010
os la 8006
won der 8006
k es</w> 8004
dang er</w> 8004
res er 8003
multi lateral</w> 8001
satis faction</w> 8001
academ ic</w> 7994
iz es</w> 7993
our selves</w> 7989
h a</w> 7987
199 0</w> 7987
jo y</w> 7982
ar di 7981
awa reness</w> 7979
viol ation</w> 7977
Yug osla 7972
sti pul 7971
suppl ies</w> 7971
squ are</w> 7971
sur ing</w> 7970
wat ching</w> 7969
o v 7967
O ver</w> 7966
lo ans</w> 7965
Con clusion</w> 7964
appoint ment</w> 7963
multi ple</w> 7962
t ex 7960
sur r 7960
B el 7959
d um 7956
sp oke</w> 7951
requ ests</w> 7951
Wh ite</w> 7950
prov ince</w> 7948
Sec tion</w> 7947
em is 7946
ast y</w> 7944
in formed</w> 7942
int ended</w> 7941
concl uded</w> 7939
ton ight</w> 7937
ser iously</w> 7934
employ ed</w> 7934
be d 7932
th oughts</w> 7931
rec ru 7925
c ing</w> 7922
S atur 7921
ch apter</w> 7920
bo ys</w> 7919
dis covered</w> 7915
L oc 7914
am ing</w> 7908
bl ing</w> 7908
C o</w> 7907
pro sper 7906
comb ination</w> 7904
I T</w> 7898
ir ing</w> 7897
wal king</w> 7897
ac tor</w> 7896
Distr ict</w> 7895
th i 7894
inv ited</w> 7891
on to</w> 7884
2 6 7875
elec tions</w> 7875
won der</w> 7872
g or 7868
observ ed</w> 7868
desig n 7862
lifer ation</w> 7861
a rent</w> 7860
s atell 7857
sig ns</w> 7856
E S 7854
are n</w> 7854
respon d</w> 7852
urg ent</w> 7851
re porting</w> 7848
ex ic 7848
Protec tion</w> 7846
ast s</w> 7842
tion ing</w> 7840
dre w</w> 7838
ha bil 7837
require ment</w> 7835
t end</w> 7834
th anks</w> 7834
bir th 7833
pris on 7825
ba g</w> 7825
un able</w> 7822
res c 7821
maxim um</w> 7817
int ellec 7816
mot e</w> 7816
mor al</w> 7815
Some times</w> 7814
bro ke</w> 7812
ick en</w> 7812
an x 7811
small er</w> 7808
Wed n 7808
victim s</w> 7806
ad or</w> 7804
tor al</w> 7802
Ter rit 7801
est er</w> 7796
sec u 7794
cor ner</w> 7793
cont ain</w> 7792
liqu id</w> 7792
am ed</w> 7791
sel ected</w> 7788
in ner</w> 7787
independ ence</w> 7787
W ater</w> 7784
stan ds</w> 7784
sec ure</w> 7773
consul tation</w> 7773
co l</w> 7771
intro duce</w> 7770
parame ters</w> 7770
Gu ang 7769
ail ing</w> 7765
ser vers</w> 7759
un k</w> 7748
T R 7743
enti onal</w> 7736
Bure au</w> 7734
increas es</w> 7733
Mean while</w> 7733
en forcement</w> 7728
c utting</w> 7727
prescri bed</w> 7727
believ es</w> 7723
div ided</w> 7722
car ds</w> 7721
sensi tive</w> 7718
at e 7717
L ab 7716
ha z 7716
earth quake</w> 7710
writ er</w> 7707
ext ended</w> 7706
invol ving</w> 7705
F ood</w> 7704
b lock</w> 7701
bir ds</w> 7701
pro p 7694
re action</w> 7692
Wh ich</w> 7692
stan tly</w> 7692
consist ent</w> 7692
s ong</w> 7690
comfor table</w> 7687
B ud 7684
st ac 7683
circ u 7682
C ro 7681
pleas ed</w> 7680
ang le</w> 7670
n one</w> 7668
fin ish</w> 7665
sh oes</w> 7664
Ri ver</w> 7662
Tim e</w> 7661
cap able</w> 7656
Di vision</w> 7655
play er</w> 7655
guid elines</w> 7655
implement ing</w> 7652
see king</w> 7651
innov ation</w> 7650
Author ity</w> 7650
atmos phere</w> 7650
A rab</w> 7641
al ists</w> 7640
2 5 7639
eas ier</w> 7639
off ering</w> 7637
foc used</w> 7635
ic it</w> 7631
res ses</w> 7630
d ary</w> 7629
elec ted</w> 7628
li mit 7627
characteris tic</w> 7627
Wedn esday</w> 7627
la sting</w> 7626
E F</w> 7622
laun ched</w> 7622
w w 7621
bri ef 7620
en ess</w> 7618
D oc 7616
mis s</w> 7615
dem ands</w> 7611
S om 7610
si vely</w> 7609
b ow 7607
care ful</w> 7607
adver ti 7607
we d 7604
ban king</w> 7603
pub lic 7603
Mis s</w> 7602
gi ft</w> 7601
compl i 7601
restaur ant</w> 7597
exper t</w> 7596
de eply</w> 7595
mag az 7594
piec es</w> 7594
ed y</w> 7590
ement ary</w> 7590
esti val</w> 7589
ha m</w> 7588
comm ents</w> 7585
adjust ment</w> 7585
cap it 7580
Afgh an 7577
fr ag 7573
k is 7566
Prov ince</w> 7566
hel ping</w> 7565
manag ers</w> 7564
mar ked</w> 7559
t ant</w> 7558
cour ses</w> 7555
tem porary</w> 7553
C O 7551
ic y</w> 7547
fac ts</w> 7543
ha el</w> 7540
fe ature</w> 7536
inter view</w> 7536
app ing</w> 7536
C y 7532
v it 7525
Th urs 7523
di a</w> 7523
Fur thermore</w> 7520
um in 7519
ag s</w> 7517
me ant</w> 7517
wil d</w> 7514
X i 7513
stic k</w> 7513
Sum mit</w> 7513
comm and</w> 7511
Afghan istan</w> 7510
di ff 7509
author ized</w> 7509
exp enses</w> 7507
dec la 7504
cha in</w> 7503
holid ay</w> 7503
t elling</w> 7502
Bos nia</w> 7502
re rs</w> 7498
be aring</w> 7493
f alling</w> 7487
M ad 7480
serv ed</w> 7477
u d</w> 7474
c ust 7474
det ail</w> 7473
y . 7471
sha red</w> 7470
M ary</w> 7469
j um 7462
ut ing</w> 7461
establish ing</w> 7461
H el 7457
pleas ure</w> 7450
t um 7449
R ap 7448
as king</w> 7447
sil ver</w> 7440
cul tiv 7439
qui et</w> 7437
gr ass</w> 7436
fac ed</w> 7436
discrimin ation</w> 7436
offic er</w> 7435
memb ership</w> 7432
mar ine</w> 7431
particip ants</w> 7430
pow ers</w> 7427
char ges</w> 7424
agricul ture</w> 7424
Egyp t</w> 7424
monit or</w> 7422
lo an</w> 7421
certific ate</w> 7414
equ ity</w> 7410
s ick</w> 7409
Pl an</w> 7407
it ting</w> 7406
ro ll</w> 7406
smo ke</w> 7406
claim ed</w> 7406
W ar</w> 7403
In de 7403
experi enced</w> 7403
ru ption</w> 7401
We b</w> 7400
sup ports</w> 7399
dec ades</w> 7396
g age</w> 7395
f ail</w> 7395
M exic 7395
re new 7395
per s</w> 7393
to col</w> 7393
struc tural</w> 7391
ot ed</w> 7389
Par is</w> 7389
d . 7387
p ool</w> 7386
li brary</w> 7384
Fin ancial</w> 7384
in s 7383
cru cial</w> 7380
o k</w> 7379
N on</w> 7379
att ached</w> 7378
minim um</w> 7376
pl astic</w> 7374
ut ation</w> 7374
dec line</w> 7366
bat tle</w> 7361
p ping</w> 7351
im posed</w> 7351
manag ed</w> 7350
re alized</w> 7349
del ay</w> 7349
l uc 7348
fe der 7347
Thurs day</w> 7345
confir med</w> 7340
be at</w> 7339
competi tive</w> 7338
Un it</w> 7336
pack age</w> 7334
in ary</w> 7332
ligh tly</w> 7332
princip al</w> 7332
at tribu 7330
call ing</w> 7325
su e</w> 7322
guid ance</w> 7321
a f</w> 7319
m id</w> 7318
ei gh 7315
connec ted</w> 7313
ob serve</w> 7309
wor se</w> 7305
mar g 7304
join ed</w> 7300
ograp hic</w> 7299
ti s</w> 7298
att acks</w> 7298
fore ver</w> 7296
id den</w> 7295
pro of</w> 7292
p as 7288
s now</w> 7283
op tion</w> 7281
grow n</w> 7278
achiev ements</w> 7274
spok esman</w> 7274
z en</w> 7273
con str 7271
re move</w> 7270
pop ul 7267
wonder ful</w> 7266
resul ting</w> 7263
G o</w> 7260
c ool</w> 7260
n om 7258
let ters</w> 7258
lar g 7256
w ishes</w> 7253
rec ord 7250
A L 7247
dep th</w> 7247
sup porting</w> 7245
sanc tions</w> 7244
gen der</w> 7241
ob vious</w> 7238
og en 7237
M ake</w> 7235
K ing</w> 7235
simul ation</w> 7235
enni um</w> 7234
proper ly</w> 7219
newsp aper</w> 7219
c en 7218
stud ying</w> 7218
dro pped</w> 7215
tol er 7209
Li ber 7208
H a 7203
en tion</w> 7201
part nership</w> 7201
fr ame</w> 7200
es h</w> 7199
est ate</w> 7197
tw ice</w> 7195
Ph il 7195
P or 7192
hear ing</w> 7187
Chil dren</w> 7187
stoc ks</w> 7182
v ital</w> 7180
gre w</w> 7178
exp and</w> 7175
star s</w> 7172
the red</w> 7165
initi ative</w> 7162
A T 7161
sel ection</w> 7161
dec ade</w> 7159
be an</w> 7157
b one</w> 7156
att end</w> 7156
Sing ap 7156
famili ar</w> 7156
l a</w> 7154
B et 7154
top ic</w> 7154
Feder al</w> 7153
foot ball</w> 7145
f ab 7142
ust ed</w> 7142
p ush</w> 7140
go v 7139
Pol ice</w> 7138
200 2</w> 7134
U K</w> 7131
W ang</w> 7128
t aste</w> 7128
weap on</w> 7128
L u 7127
z a</w> 7127
Rw anda</w> 7127
ide al</w> 7125
initi atives</w> 7125
Pak istan</w> 7121
dep ends</w> 7120
d il 7119
r ice</w> 7117
langu ages</w> 7117
ir y</w> 7112
Per haps</w> 7108
D ep 7101
F OR</w> 7100
sti c</w> 7096
reduc ing</w> 7096
or m 7093
ab oration</w> 7092
lad y</w> 7089
S chem 7086
or al</w> 7085
t ac 7084
ou red</w> 7083
viol ations</w> 7082
repl ied</w> 7081
in duc 7079
sha re 7079
eval uate</w> 7079
D oes</w> 7078
electr icity</w> 7077
J ack</w> 7076
commun ities</w> 7075
bu ying</w> 7072
appreci ation</w> 7071
P ost</w> 7069
Com missi 7069
B ill</w> 7066
J e 7064
Des pite</w> 7062
5 2</w> 7061
ra w</w> 7060
lin ear</w> 7056
p utting</w> 7055
E S</w> 7051
char ged</w> 7048
b its</w> 7046
b id</w> 7044
deli ber 7043
as er</w> 7039
val ent</w> 7039
Mic hael</w> 7038
con stant</w> 7036
tu ally</w> 7036
s mar 7031
ev il</w> 7028
charac ters</w> 7026
stor m</w> 7026
i o</w> 7025
fashi on</w> 7019
perform ed</w> 7015
y al</w> 7014
discus sions</w> 7014
occur red</w> 7001
prin t</w> 6999
7 5</w> 6997
li ability</w> 6996
net works</w> 6996
to x 6991
univers al</w> 6991
ten sion</w> 6989
ex plan 6987
re ply</w> 6985
experi ences</w> 6983
te ars</w> 6982
ir t</w> 6980
ol der</w> 6978
recogn ize</w> 6978
clu b</w> 6976
diagn osis</w> 6974
indic ate</w> 6971
tour ism</w> 6970
e .</w> 6965
sam ple</w> 6964
depend ent</w> 6962
trad ition</w> 6952
k et 6949
vir us</w> 6948
an nex</w> 6947
hand ling</w> 6947
ext end</w> 6943
Wi th 6943
gu ess</w> 6941
im ages</w> 6939
Israel i</w> 6938
terror ism</w> 6937
integr ity</w> 6935
de ter 6933
R ed</w> 6931
it ely</w> 6931
si x 6931
Par t</w> 6929
sou thern</w> 6927
In te 6925
ow ner</w> 6924
dre ds</w> 6920
an gry</w> 6919
pris on</w> 6919
G ol 6914
dri ver</w> 6913
produc ing</w> 6912
happ ens</w> 6909
tru ly</w> 6909
emp ty</w> 6903
So ci 6900
habil itation</w> 6899
sched ule</w> 6896
ph o 6893
ex ports</w> 6891
signific antly</w> 6891
f all 6890
resol ve</w> 6890
h as 6885
st ret 6880
out standing</w> 6880
d ens 6878
mak ers</w> 6876
regim e</w> 6876
sub sequ 6875
week end</w> 6875
ri d</w> 6873
k noc 6866
min ority</w> 6866
gl ad</w> 6866
A t 6864
en ever</w> 6864
Ira qi</w> 6864
class es</w> 6855
cr y</w> 6853
g y 6852
re mote</w> 6851
ur ies</w> 6851
fe e</w> 6851
mist ake</w> 6850
strugg le</w> 6850
5 5</w> 6848
farm ers</w> 6848
en suring</w> 6839
dom in 6837
E ff 6831
p oc 6828
meas urement</w> 6828
str ange</w> 6823
bun al</w> 6823
s ought</w> 6821
dev ices</w> 6821
In stead</w> 6820
Represent ative</w> 6818
emer ging</w> 6817
ut ely</w> 6815
mo bil 6813
ro oms</w> 6812
relation ships</w> 6812
refl ected</w> 6809
plat form</w> 6805
sc en 6803
sem in 6803
n ity</w> 6798
har m</w> 6798
quanti ty</w> 6798
Olymp ics</w> 6796
it i</w> 6794
Sci ence</w> 6794
D el 6793
t end 6792
m ly</w> 6788
pre gn 6788
r are</w> 6787
com position</w> 6785
chil d 6782
depos it</w> 6782
pa th 6781
Commissi oner</w> 6780
M eas 6779
ul ate</w> 6779
dist ur 6779
id ation</w> 6777
au l</w> 6776
de struction</w> 6775
cour age</w> 6774
encour aged</w> 6774
ti ous</w> 6770
difficul ty</w> 6770
continu ous</w> 6768
PR O 6766
ud es</w> 6764
H en 6758
friend ship</w> 6755
provin ces</w> 6755
up per</w> 6754
cli ent</w> 6752
UN O 6751
am m 6747
lau gh 6747
in put</w> 6746
is ol 6746
criter ia</w> 6743
al co 6741
re vised</w> 6739
G lob 6738
gr ain</w> 6737
fe asi 6737
UN IC 6737
E U</w> 6736
Feder ation</w> 6733
Ci vil</w> 6733
cha ir</w> 6732
B raz 6731
b y 6728
cha irman</w> 6728
stit utes</w> 6726
sch ol 6724
fil es</w> 6722
H ey</w> 6721
Indi an</w> 6719
s aving</w> 6716
bran ch</w> 6713
dr am 6711
e ties</w> 6707
b n</w> 6701
te ams</w> 6700
pre fer</w> 6700
3 00</w> 6695
br inging</w> 6693
st ro 6692
occup ied</w> 6691
il ing</w> 6690
el ing</w> 6682
execu tion</w> 6681
convers ation</w> 6679
su red</w> 6678
treat y</w> 6678
shop ping</w> 6678
uti lization</w> 6676
S ar 6674
consider able</w> 6674
expl os 6673
P en 6672
magne tic</w> 6670
accur ate</w> 6669
bi a</w> 6667
ch urch</w> 6666
br ings</w> 6663
disp ute</w> 6663
vul ner 6661
stu ff</w> 6658
pro liferation</w> 6655
G et</w> 6654
sum mar 6654
L ist 6651
uni on</w> 6651
bl es</w> 6646
e um</w> 6643
b ass 6642
altern ative</w> 6637
intellec tual</w> 6637
lin ked</w> 6636
dre ams</w> 6633
ac ked</w> 6630
Indu stry</w> 6628
g le</w> 6622
P A</w> 6622
min es</w> 6622
sav ings</w> 6620
th row</w> 6618
enti ally</w> 6618
re fer</w> 6617
tre as 6617
sp ect</w> 6614
sal ary</w> 6614
U R 6611
ans w 6609
car ri 6608
ra ising</w> 6606
y ellow</w> 6603
os en</w> 6603
crow d</w> 6600
li min 6599
Satur day</w> 6596
te ach</w> 6593
H un 6592
anc ement</w> 6592
conc ep 6591
satis fied</w> 6591
coll ap 6590
v ast</w> 6589
Yugosla via</w> 6586
a er 6585
c at</w> 6584
gi ble</w> 6578
Meth ods</w> 6578
C E 6574
Con stitution</w> 6573
liter ature</w> 6573
mil lions</w> 6571
ent ing</w> 6570
represent ed</w> 6570
S am 6565
D o 6562
su ffered</w> 6562
fl at</w> 6561
ili ation</w> 6561
gu ys</w> 6560
A re 6559
di strict</w> 6559
sp ac 6559
cere mony</w> 6557
ul ti 6555
rati o</w> 6555
sugg ests</w> 6553
in o</w> 6550
expl ained</w> 6550
C a 6548
wel com 6545
air port</w> 6544
identi ty</w> 6541
s ence</w> 6538
gu il 6538
trans mission</w> 6533
gen ous</w> 6532
op tions</w> 6531
d a</w> 6530
collec tive</w> 6527
commit ments</w> 6526
ex tre 6525
show ing</w> 6525
Dr .</w> 6523
ak ed</w> 6522
dis co 6522
har dly</w> 6522
lim its</w> 6521
we b</w> 6520
emphas is</w> 6518
UNIC EF</w> 6518
ob stac 6514
sist ant</w> 6512
S ou 6510
remain ing</w> 6510
I S</w> 6506
ma them 6503
enti ty</w> 6502
ac king</w> 6501
appro xim 6501
sex ual</w> 6499
s car 6496
With out</w> 6496
comb at</w> 6494
sent ence</w> 6488
mo stly</w> 6487
lic ense</w> 6485
ro p 6482
cont ents</w> 6482
ograp h 6482
cli ents</w> 6480
mo tiv 6477
nov el</w> 6475
ab and 6471
IN G</w> 6471
sched ul 6471
E d 6470
U p 6470
la g</w> 6468
S everal</w> 6460
end or 6458
P an 6457
tr ag 6457
introduc es</w> 6457
div ision</w> 6454
F o 6450
knowle d 6450
cul ar</w> 6449
substan tial</w> 6449
event ually</w> 6449
t ment</w> 6448
jour ney</w> 6448
acc um 6447
welcom ed</w> 6447
c up</w> 6444
Singap ore</w> 6443
clu sions</w> 6442
f ts</w> 6441
patter ns</w> 6440
birth day</w> 6436
s co 6435
occ ur</w> 6435
an ni 6433
Geor ge</w> 6431
ab use</w> 6428
isi ble</w> 6424
mechan ical</w> 6424
Am ong</w> 6420
expendit ure</w> 6420
Analy sis</w> 6419
dec re 6418
re present</w> 6416
ex changes</w> 6416
St at 6415
ap e</w> 6413
mot or</w> 6411
defin ition</w> 6407
B C</w> 6405
cont aining</w> 6400
sh el 6399
a j 6395
Ital y</w> 6393
Ex per 6390
juris diction</w> 6390
ri de</w> 6388
dis h</w> 6388
olo gi 6387
ec tive</w> 6386
commod ity</w> 6384
decla red</w> 6384
pro spec 6383
rest ed</w> 6382
es . 6381
philos op 6381
secon dary</w> 6380
stor ies</w> 6379
Treat y</w> 6379
gr anted</w> 6377
record ed</w> 6377
fi re 6376
audi ence</w> 6376
shar p</w> 6370
pen sion</w> 6368
w earing</w> 6365
z ation</w> 6363
re min 6360
vi br 6360
all ed</w> 6360
ess ing</w> 6358
jour n 6358
smo king</w> 6352
per cent 6348
ow ners</w> 6348
t ative</w> 6347
S ol 6347
Ab out</w> 6346
main taining</w> 6344
strong ly</w> 6343
sur prise</w> 6342
v an 6339
introduc tion</w> 6339
t ab 6338
lik es</w> 6338
ad vis 6337
H y 6336
cent res</w> 6333
consider ing</w> 6332
manufac tu 6332
L im 6328
achiev ement</w> 6327
fin ed</w> 6326
design ated</w> 6325
frequ ently</w> 6324
Th ough</w> 6315
shi ft</w> 6314
is tics</w> 6310
A ir 6307
im pe 6307
phenomen on</w> 6307
diplom atic</w> 6304
dr inking</w> 6303
reli able</w> 6303
worl d 6303
pul l</w> 6302
su b</w> 6300
protec ted</w> 6293
grad uate</w> 6293
bac ter 6292
tic ism</w> 6290
Sci enti 6287
i di 6283
s and</w> 6281
s wi 6281
mi x 6281
sugges tions</w> 6281
Ag enda</w> 6280
fe es</w> 6279
oper ate</w> 6279
modi ties</w> 6279
S pan 6278
sh aring</w> 6276
per spective</w> 6275
me al</w> 6275
cont ain 6275
L atin</w> 6273
shor t 6271
C R</w> 6258
B es 6258
bur den</w> 6256
t ings</w> 6253
P op 6250
l in</w> 6250
moder n 6249
ab ol 6248
Her ze 6248
success fully</w> 6245
gov ina</w> 6245
under stood</w> 6243
O M</w> 6242
in qu 6242
es sive</w> 6242
Herze govina</w> 6242
ash ing</w> 6241
Schem e</w> 6241
M ari 6240
tim ely</w> 6238
lab or 6238
C ub 6237
sup posed</w> 6237
on going</w> 6236
O k 6235
pic tures</w> 6232
cr yst 6230
re viewed</w> 6228
st ressed</w> 6228
compu ters</w> 6228
ir s</w> 6221
ag ues</w> 6216
grad u 6216
Ti bet 6216
V er 6215
En ter 6213
co at</w> 6212
en de 6210
ro ads</w> 6209
volun tary</w> 6209
flow er</w> 6204
wed ding</w> 6203
conserv ation</w> 6197
su m</w> 6196
co m</w> 6196
ali ve</w> 6195
est ing</w> 6193
ti tle</w> 6192
ever th 6192
s ad</w> 6191
le ge</w> 6191
H K</w> 6186
big ger</w> 6185
poli tics</w> 6183
R ic 6180
ori ented</w> 6180
Elec tr 6179
sh ut</w> 6178
cont em 6177
s ounds</w> 6176
om a</w> 6176
everth eless</w> 6173
head ing</w> 6172
applic able</w> 6172
compli ance</w> 6172
i red</w> 6168
y o</w> 6165
gr ave</w> 6165
lat ter</w> 6165
Ch ris 6164
legi timate</w> 6164
L o 6162
d ust</w> 6162
c ab 6160
a . 6159
C ali 6159
Th ird</w> 6159
be gun</w> 6159
ten ed</w> 6159
mis sing</w> 6158
substan tive</w> 6158
An y 6153
adverti sing</w> 6153
st ep 6152
de ar</w> 6151
A ir</w> 6149
Se a</w> 6145
estim ates</w> 6145
fortun ately</w> 6145
g ap</w> 6144
e di 6142
pl as 6142
commis sion</w> 6139
s y</w> 6138
D an 6138
U sing</w> 6135
in ations</w> 6131
Z e 6130
op en 6128
sw im 6128
man i 6127
hom es</w> 6127
in ding</w> 6124
di et</w> 6124
re ti 6123
F re 6122
A C</w> 6122
ru pt</w> 6116
en orm 6114
wel fare</w> 6113
S af 6111
sh r 6111
Har ry</w> 6111
orig in</w> 6110
suff er</w> 6110
al es</w> 6108
hon est</w> 6108
accep table</w> 6107
pain ting</w> 6105
er gy</w> 6104
adv oc 6103
f aster</w> 6101
exam ine</w> 6101
every body</w> 6100
lo g</w> 6098
fl ying</w> 6097
c ope</w> 6094
wor st</w> 6094
fin dings</w> 6094
2 8 6093
appreci ate</w> 6091
chan nel</w> 6091
e able</w> 6090
C enter</w> 6090
typ ical</w> 6087
custom s</w> 6086
sh ops</w> 6085
H aving</w> 6081
y es</w> 6080
ro ot</w> 6080
I M 6077
di r 6075
fu sion</w> 6075
asp ect</w> 6074
co ol 6073
P at 6071
ign ty</w> 6071
bri ef</w> 6070
d ay 6068
fal se</w> 6067
re construction</w> 6063
inf ection</w> 6062
g ro 6059
ad ding</w> 6059
experim ental</w> 6059
lun ch</w> 6058
rep air</w> 6056
acqu isi 6055
larg ely</w> 6054
achiev ing</w> 6052
2 , 6050
Le ban 6049
ou ter</w> 6048
ail ed</w> 6048
Main land</w> 6045
out come</w> 6041
bre ad</w> 6041
her it 6041
A L</w> 6040
tic ket</w> 6040
ough ly</w> 6039
g un 6038
O K</w> 6037
si bly</w> 6037
ab sence</w> 6036
ass embly</w> 6036
ic ing</w> 6035
ot ing</w> 6035
U r 6031
ef ul 6030
fif th</w> 6028
mo v 6027
vent ure</w> 6027
c asting</w> 6026
e e</w> 6022
en th 6021
intellig ence</w> 6016
got ten</w> 6016
R equ 6007
us hing</w> 6007
c and 6006
t ons</w> 6005
Pr in 6004
detec tion</w> 6004
re presents</w> 6003
sal t</w> 6003
hop ed</w> 6003
favor ite</w> 6002
por ter</w> 6001
pun ishment</w> 6001
lin ks</w> 6000
wat ers</w> 6000
conv inc 6000
join tly</w> 5999
p aying</w> 5997
M O 5993
tal ked</w> 5991
Mic ro 5991
E R</w> 5988
be red</w> 5988
. I</w> 5986
en der</w> 5982
beli ef</w> 5982
sovere ignty</w> 5981
ne ur 5980
num erous</w> 5979
pass ing</w> 5978
descri be</w> 5978
ha bit 5971
a o 5968
clos er</w> 5968
house hold</w> 5968
pe t</w> 5967
enti rely</w> 5967
thir ty</w> 5967
an der</w> 5965
al lo 5964
prof its</w> 5964
un employment</w> 5961
regar ded</w> 5960
hun dreds</w> 5959
s inc 5956
pat ent</w> 5952
L ong</w> 5949
re habilitation</w> 5947
invest ments</w> 5947
de dic 5944
w age</w> 5943
row ing</w> 5943
appro aches</w> 5940
Glob al</w> 5940
sy mp 5939
E st 5936
fi es</w> 5931
in ery</w> 5928
aliz ing</w> 5927
ex clu 5923
prin ting</w> 5918
p apers</w> 5916
fel low</w> 5912
f ishing</w> 5911
W all</w> 5910
te sted</w> 5909
main tained</w> 5907
sk ill</w> 5906
in form</w> 5905
S we 5904
re conc 5904
ac tors</w> 5904
hosp it 5903
sac ri 5903
estim ate</w> 5902
satell ite</w> 5899
under take</w> 5898
deli ver</w> 5897
s lightly</w> 5896
in di 5896
dri ven</w> 5896
un t</w> 5895
pri me</w> 5895
an ch 5894
gg ing</w> 5894
resc ue</w> 5894
tion ed</w> 5891
therap y</w> 5891
M an</w> 5890
exten sion</w> 5890
d ad</w> 5888
el ed</w> 5888
me rely</w> 5888
te eth</w> 5887
ob servers</w> 5886
k ne 5884
pro portion</w> 5884
over come</w> 5884
Inv est 5883
tar gets</w> 5882
I L 5880
re moved</w> 5880
Des ign</w> 5880
re l</w> 5875
contr acts</w> 5874
organ ic</w> 5871
es cape</w> 5868
co c 5868
I m</w> 5864
conven ient</w> 5862
S p 5858
smo oth</w> 5849
laun ch</w> 5849
fe ed</w> 5845
fav our 5844
k itch 5843
th inks</w> 5843
ac compan 5842
arrang ement</w> 5842
as hed</w> 5840
versi ties</w> 5836
00 ,000</w> 5833
institu tional</w> 5833
an o</w> 5829
nec k</w> 5828
radi ation</w> 5828
compl icated</w> 5827
St anding</w> 5825
val id</w> 5825
contr ast</w> 5821
mar ry</w> 5817
Regi onal</w> 5817
prof essor</w> 5816
lo on</w> 5814
appl ying</w> 5814
acti v 5811
F am 5810
row s</w> 5809
circu it</w> 5809
pos ing</w> 5805
cap ability</w> 5805
doc tors</w> 5804
St and 5803
dist ingu 5802
fe ren 5800
ag ents</w> 5797
op posite</w> 5796
identi fication</w> 5796
lead s</w> 5794
elec om 5793
si onal</w> 5792
ID S</w> 5792
ti fy</w> 5791
ap art</w> 5789
fif ty</w> 5789
M s.</w> 5788
fe els</w> 5788
em ic</w> 5785
transl ation</w> 5785
res erve</w> 5783
TI ON</w> 5783
eng age</w> 5780
porte ur</w> 5779
exam ples</w> 5776
Col lege</w> 5775
quali fied</w> 5772
S ir</w> 5761
new ly</w> 5761
autom atic</w> 5761
S hi 5760
mis sed</w> 5760
formul ated</w> 5759
isi onal</w> 5758
don es 5757
Mexic o</w> 5756
A S</w> 5754
com ment</w> 5752
ti e</w> 5749
wh ol 5749
struc k</w> 5748
wis dom</w> 5748
she et</w> 5747
Se e</w> 5745
orig in 5743
Is land</w> 5742
Th anks</w> 5740
amoun ts</w> 5739
in ev 5737
Par k</w> 5735
head quarters</w> 5734
Democr atic</w> 5734
re n</w> 5732
su gar</w> 5731
In dones 5729
Prof essor</w> 5728
bal anced</w> 5725
conv entional</w> 5725
g are 5723
L ic 5716
enc ing</w> 5716
S il 5707
de par 5706
c ess</w> 5704
distribu ted</w> 5704
N et 5702
stre ets</w> 5702
sub jects</w> 5701
j ump</w> 5698
percent age</w> 5697
ic als</w> 5696
Cali for 5694
fic ally</w> 5692
a c</w> 5689
spok en</w> 5689
ch osen</w> 5683
ex ha 5683
stead y</w> 5682
vis ited</w> 5681
flow s</w> 5680
notic ed</w> 5678
exten sive</w> 5677
su peri 5675
con stantly</w> 5673
us tice</w> 5672
them e</w> 5671
Per s 5671
f arm</w> 5670
Span ish</w> 5668
n ose</w> 5667
t ough</w> 5663
h ang 5663
list ening</w> 5663
heav en</w> 5662
cooper ate</w> 5662
O ut 5661
An g 5659
meas ured</w> 5657
er ies</w> 5652
ow nership</w> 5650
contro ls</w> 5649
u sion</w> 5648
c ell 5646
h ate</w> 5645
terri ble</w> 5644
p ure</w> 5643
s mil 5638
L t 5634
acc o</w> 5633
enth usi 5632
conf ident</w> 5631
ev ol 5630
gr an 5630
w alls</w> 5629
Kore an</w> 5629
gi ant</w> 5627
P ower</w> 5626
W H 5625
h ome 5621
deli vered</w> 5621
dec reas 5619
low s</w> 5618
pre viously</w> 5616
h at</w> 5615
phot ograp 5615
soci alist</w> 5614
Bes ides</w> 5614
ca using</w> 5612
a b</w> 5610
on e 5610
ere ly</w> 5609
re place</w> 5608
I r 5607
Leg isl 5607
ev a</w> 5606
bl ind</w> 5604
Rap porteur</w> 5599
con stitute</w> 5598
yi eld</w> 5597
l ity</w> 5596
b low</w> 5593
los ing</w> 5593
I P 5592
eval u 5592
ent ary</w> 5591
rel ess</w> 5590
tren ds</w> 5590
hon or</w> 5587
Or gan 5586
fall en</w> 5586
pat ri 5585
vis itors</w> 5584
trans formation</w> 5581
wat ched</w> 5581
s in</w> 5580
f alls</w> 5579
un ity</w> 5578
t aught</w> 5577
ag on</w> 5577
electr ical</w> 5576
elecom mun 5575
recommend ation</w> 5574
s ile</w> 5571
g lo 5570
5 6</w> 5570
run s</w> 5569
theore tical</w> 5569
Rep ub 5568
g ated</w> 5567
a str 5567
K u 5567
Rev i 5567
H on 5566
ref used</w> 5566
com modities</w> 5565
ho l</w> 5564
min eral</w> 5562
b arri 5560
strong er</w> 5559
C al 5558
uc k 5553
li ft</w> 5552
am az 5551
le g</w> 5550
accur acy</w> 5549
bi o 5548
coll aboration</w> 5548
Cro ati 5544
Pe ter</w> 5543
A M 5542
b ra 5542
clo thing</w> 5541
dar k 5540
mas sive</w> 5540
ch er</w> 5539
ch ann 5539
5 4</w> 5536
5 3</w> 5535
calcul ation</w> 5533
territ orial</w> 5532
vic tory</w> 5529
Fi f 5528
ph arm 5526
equi valent</w> 5524
ende av 5524
de als</w> 5521
g ross</w> 5520
g ained</w> 5519
commer ce</w> 5518
ec e</w> 5516
7 7</w> 5515
Pro ject</w> 5512
Pl anning</w> 5511
promis ed</w> 5511
norm ally</w> 5510
re forms</w> 5509
l on 5508
0 1</w> 5508
air e</w> 5506
sh ore</w> 5505
deploy ment</w> 5503
cha mp 5497
de fe 5496
prosper ity</w> 5496
mi xed</w> 5495
cl ou 5492
v ice</w> 5489
m .</w> 5488
pr oud</w> 5488
f oods</w> 5484
A I 5483
M oun 5482
Is lam 5482
s cape</w> 5481
H am 5480
arbitr ation</w> 5480
com posed</w> 5474
hel p 5474
resul ted</w> 5474
AN D</w> 5472
moun tains</w> 5468
opin ions</w> 5468
B al 5467
6 5</w> 5465
pay ments</w> 5465
comfor t</w> 5465
ent re 5463
cal m</w> 5463
st ers</w> 5460
k id 5459
P a 5458
O ver 5458
ec ological</w> 5458
pol l 5458
l uck</w> 5457
oc ean</w> 5454
Pol icy</w> 5454
concentr ation</w> 5454
bot tle</w> 5452
r ational</w> 5451
cre ative</w> 5451
jud gment</w> 5446
Sm ith</w> 5446
A D 5445
kitch en</w> 5445
af ford</w> 5444
L et 5443
ok ay</w> 5443
n esses</w> 5442
m ic</w> 5442
colle agues</w> 5442
V ice</w> 5441
t all</w> 5440
dep end</w> 5439
pul led</w> 5439
associ ation</w> 5439
M at 5436
re mark 5436
disp utes</w> 5436
hib ited</w> 5436
Buil ding</w> 5435
d nt</w> 5433
prepar ing</w> 5433
M er 5431
co w</w> 5431
do gs</w> 5431
qui red</w> 5429
strength ened</w> 5427
dis charge</w> 5423
mit ting</w> 5423
impl ications</w> 5421
beg ins</w> 5421
exp anded</w> 5420
mathem atic 5418
S till</w> 5417
bi ological</w> 5416
T reas 5415
W an</w> 5414
des k</w> 5414
incid ent</w> 5414
a h 5413
st am 5411
s in 5410
as set</w> 5410
illu str 5410
Inde ed</w> 5410
L E 5409
Commun ity</w> 5405
reven ue</w> 5405
dis placed</w> 5403
W he 5400
1 4 5400
stri ke</w> 5398
protec ting</w> 5398
y r 5397
D r</w> 5393
spec tr 5393
flexi ble</w> 5393
for tune</w> 5391
pos iti 5391
pic ked</w> 5391
in formal</w> 5390
P S</w> 5387
Me eting</w> 5385
Tibet an</w> 5385
P ur 5383
c os 5382
do ors</w> 5380
we igh 5377
w aves</w> 5374
regul arly</w> 5374
Tr aining</w> 5373
categ ory</w> 5372
candi dates</w> 5372
chr on 5372
cour ts</w> 5371
bound ary</w> 5371
a e</w> 5368
th ick</w> 5367
con dem 5367
indi genous</w> 5366
inter face</w> 5363
No thing</w> 5363
ph r 5362
hor iz 5362
.. .. 5361
sil ence</w> 5358
Tri bunal</w> 5357
W il 5356
func tional</w> 5356
surpris ed</w> 5356
isc al</w> 5355
shoul der</w> 5355
enh anced</w> 5352
G ive</w> 5351
sud den</w> 5351
ac knowled 5350
p ig 5346
Califor nia</w> 5346
R M 5345
5 8</w> 5344
commit tees</w> 5341
in y</w> 5339
ke eps</w> 5338
world wide</w> 5338
st ages</w> 5335
our ing</w> 5334
surg ery</w> 5334
h all</w> 5332
mess ages</w> 5331
acc ept 5329
L and</w> 5326
T al 5326
vers ary</w> 5324
mach ines</w> 5324
imag ine</w> 5324
re aching</w> 5322
arri ve</w> 5322
reve aled</w> 5321
yp e</w> 5320
ic ul 5318
consi sts</w> 5318
feder al</w> 5316
defin itely</w> 5314
w av 5308
et te</w> 5306
hol der</w> 5305
f ra 5301
exist s</w> 5299
K en 5297
at ten 5297
aim s</w> 5297
m ation</w> 5296
adver tis 5295
argu ment</w> 5295
al ties</w> 5294
s essions</w> 5290
199 8</w> 5287
mist akes</w> 5286
op position</w> 5285
pursu e</w> 5285
ban k 5283
prec ed 5283
um b 5282
decre ase</w> 5281
inten si 5280
leg s</w> 5277
m ate</w> 5276
co vering</w> 5275
T ok 5273
Braz il</w> 5272
h ell</w> 5269
Custom s</w> 5269
ob ile</w> 5268
Cor por 5267
v es 5261
Ke ep</w> 5261
m ber</w> 5259
employe e</w> 5256
recomm end</w> 5255
h i</w> 5254
Res ults</w> 5252
destro yed</w> 5252
regre t</w> 5252
M ag 5251
iti ci 5251
TE R</w> 5251
Sup port</w> 5251
el ine</w> 5248
magaz ine</w> 5248
pleas ant</w> 5247
Wor k</w> 5246
Sec on 5243
work er</w> 5243
def ence</w> 5243
Ha iti</w> 5243
sol ved</w> 5241
uni versities</w> 5241
ul ated</w> 5240
sav ed</w> 5239
sel ect</w> 5238
prote in</w> 5236
Sh ould</w> 5235
I C</w> 5234
mo ves</w> 5233
att ended</w> 5231
h in 5228
per sist 5228
serv ing</w> 5223
get ary</w> 5223
compar ison</w> 5223
D ar 5222
con fig 5222
col on 5222
luc ky</w> 5221
ha bit</w> 5219
ti ght</w> 5218
con vic 5217
coll ected</w> 5217
an tic</w> 5214
pl ing</w> 5214
spon s 5213
ed ings</w> 5210
bre a 5210
pre mis 5209
ri a</w> 5208
ab und 5207
Environ mental</w> 5207
smar t</w> 5207
n avi 5206
g ood 5206
con sent</w> 5206
v als</w> 5205
Gen eva</w> 5203
some body</w> 5202
regul atory</w> 5201
Jo int</w> 5199
Sud an</w> 5199
R ight</w> 5197
ic ked</w> 5197
bre ath</w> 5194
M E 5192
enjo yed</w> 5191
elim inate</w> 5191
he ight</w> 5190
tax es</w> 5189
An gol 5187
set tled</w> 5187
Environ ment</w> 5185
pe ti 5184
inv ention</w> 5184
men tion</w> 5184
Con sul 5183
represent ation</w> 5183
k ni 5182
ess els</w> 5179
volun te 5179
T ell</w> 5178
f ish 5177
applic ant</w> 5176
every where</w> 5170
bo x 5169
sig ning</w> 5169
organiz e</w> 5168
mach inery</w> 5168
al le 5166
ep id 5166
expec tations</w> 5166
f ast 5165
m ar</w> 5163
Fur ther</w> 5163
mat ure</w> 5158
fic i 5158
secret ary</w> 5155
ear nings</w> 5154
Ok ay</w> 5154
N ever</w> 5152
str ain</w> 5151
trans action</w> 5148
bur ning</w> 5148
f illing</w> 5144
w ake</w> 5144
al o 5143
D et 5142
m on</w> 5142
bi ennium</w> 5142
num er 5141
succe ed</w> 5140
tot ally</w> 5138
se es</w> 5137
person ality</w> 5137
mon thly</w> 5136
e x</w> 5135
i i</w> 5134
P i 5133
c ease</w> 5133
con fron 5132
UN H 5132
in corpor 5130
dis sem 5129
m ood</w> 5127
schedul ed</w> 5127
cam era</w> 5120
G ar 5119
per mit</w> 5118
oper ative</w> 5118
N ic 5117
E qu 5116
con grat 5116
s port</w> 5115
coll ect</w> 5115
encour aging</w> 5113
nor thern</w> 5111
less ons</w> 5111
form at</w> 5108
ol ate</w> 5107
clos ure</w> 5103
6 00</w> 5102
sh ine</w> 5102
bon ds</w> 5101
fur n 5099
b loo 5098
vis ual</w> 5098
k er 5096
5 7</w> 5096
veri fication</w> 5096
el derly</w> 5093
pow der</w> 5093
t ells</w> 5092
UNH CR</w> 5091
op ol 5089
hum ans</w> 5089
P aul</w> 5088
f iscal</w> 5088
inv ent 5088
deri ved</w> 5088
conven i 5087
di um</w> 5083
coun tr 5083
star ts</w> 5082
histor ic</w> 5082
I F 5081
inter action</w> 5081
st airs</w> 5080
St u 5075
inter governmental</w> 5074
enh ancing</w> 5074
uti li 5071
Chr ist</w> 5069
at en</w> 5068
leg ally</w> 5067
ther ing</w> 5066
V en 5065
contribu ted</w> 5065
compl ex 5064
K ingdom</w> 5063
Im pl 5063
t ude</w> 5062
pos ure</w> 5062
meas uring</w> 5062
E C</w> 5059
pen alty</w> 5059
z ones</w> 5058
ex cl 5058
wor thy</w> 5057
au dit</w> 5057
f at 5056
S he 5056
W al 5055
hy per 5054
pl ed</w> 5053
gr ant</w> 5052
et e</w> 5051
h ill</w> 5048
w et</w> 5046
J os 5046
bu re 5046
Every one</w> 5046
D ata</w> 5043
sid ers</w> 5041
rac ial</w> 5041
plan et</w> 5039
tion ally</w> 5039
C r 5036
exam ined</w> 5034
Min ist 5034
t our</w> 5033
sw itch</w> 5032
youn ger</w> 5031
ref ers</w> 5031
w an 5029
gr ati 5029
win dows</w> 5029
b ow</w> 5027
pip e</w> 5023
rol ling</w> 5021
bre aking</w> 5019
refl ects</w> 5019
sha dow</w> 5018
anti cip 5016
ur ged</w> 5015
inter net</w> 5014
equ ally</w> 5014
bo l</w> 5012
in th</w> 5011
Gre ek</w> 5008
F u 5007
ti mis 5007
in tention</w> 5006
pre me</w> 5003
A gr 5002
as ide</w> 5001
div or 5001
resol ved</w> 4998
ann a</w> 4997
o o</w> 4996
or ate</w> 4996
Pop ulation</w> 4996
f lood</w> 4995
secret ariat</w> 4994
min al</w> 4993
oblig ation</w> 4993
f it 4992
ti fied</w> 4991
om et 4989
al ian</w> 4988
el ev 4987
to b 4987
gent lem 4987
er ial</w> 4986
comple tion</w> 4986
D en 4985
pri mar 4985
1 st</w> 4983
cl ick</w> 4983
rout e</w> 4983
sp are</w> 4982
pri orities</w> 4982
fre sh 4981
Revi ew</w> 4981
tal ent</w> 4980
g ains</w> 4978
de tention</w> 4978
indic ates</w> 4978
tin y</w> 4978
re cip 4977
pres sing</w> 4977
whe el</w> 4976
religi on</w> 4976
ell er</w> 4975
gen etic</w> 4975
enorm ous</w> 4971
n erv 4966
V ir 4966
st om 4963
experim ents</w> 4963
pos sibly</w> 4962
sol ar</w> 4961
as signed</w> 4960
spir it 4960
y right</w> 4959
R ad 4959
b ic 4958
ev olution</w> 4958
am in</w> 4957
rail way</w> 4957
at ch</w> 4955
gol den</w> 4955
bran ches</w> 4955
Hi m</w> 4954
pro gres 4953
bo ost</w> 4953
&apos; I</w> 4947
w ill 4946
V ol 4946
arrang ed</w> 4945
discipl ine</w> 4945
4 00</w> 4943
eg gs</w> 4943
I D</w> 4941
degre es</w> 4940
gener ated</w> 4939
p ages</w> 4937
re affir 4937
sol e</w> 4937
S pain</w> 4936
nit ure</w> 4936
per su 4935
boo k 4933
ox ide</w> 4932
ous ing</w> 4931
p up 4930
share holders</w> 4930
rep utation</w> 4928
g ence</w> 4927
attrac tive</w> 4924
categ ories</w> 4923
legisl ative</w> 4921
tob acco</w> 4921
3 0 4919
man kind</w> 4919
Sh en 4919
fl av 4914
autom atically</w> 4914
particip ating</w> 4913
s la 4912
o be 4912
in tr 4911
ograph ical</w> 4911
m its</w> 4909
ac he</w> 4909
M s</w> 4908
passeng ers</w> 4907
5 9</w> 4906
cre am</w> 4905
ac ute</w> 4904
Jer us 4904
l aser</w> 4902
V E</w> 4896
ti me 4896
su res</w> 4896
re sum 4895
har m 4895
M other</w> 4894
wor ried</w> 4894
col our</w> 4892
help ful</w> 4892
ei ved</w> 4891
lu x 4891
Su n</w> 4891
co verage</w> 4890
cor ruption</w> 4890
pharm ac 4890
dec laration</w> 4887
v ent</w> 4886
ti gh 4885
pol itici 4885
Gre en</w> 4884
3 , 4882
l t;</w> 4881
& lt;</w> 4881
che ap</w> 4880
fi ber</w> 4878
fun ded</w> 4878
Territ ories</w> 4873
st atic</w> 4871
li p 4870
inv est</w> 4869
tra ffic 4869
Not e</w> 4867
n is</w> 4866
A IDS</w> 4865
t ail</w> 4864
citiz en</w> 4863
S peci 4862
b ond</w> 4862
deter i 4862
S or 4861
M en</w> 4860
co vers</w> 4857
al em</w> 4856
program ming</w> 4854
gg ed</w> 4851
hand ed</w> 4851
C C 4850
E A</w> 4849
win ning</w> 4849
sam ples</w> 4849
vulner able</w> 4848
E L 4844
con ferences</w> 4842
formul a</w> 4842
ro bo 4840
ri d 4840
alco hol</w> 4840
p . 4839
Repub lic 4839
u tr 4837
st abil 4837
ti m</w> 4836
am end 4836
pre mi 4836
emo tional</w> 4836
k a</w> 4835
gu ards</w> 4834
invol ves</w> 4834
Legisl ative</w> 4834
con n 4833
col umn</w> 4831
hard ware</w> 4831
6 6</w> 4830
ro t 4830
c amp</w> 4826
b rown</w> 4826
li ver</w> 4824
defin e</w> 4823
publ ication</w> 4823
ow ing</w> 4821
Pri me</w> 4821
Jerus alem</w> 4821
Loc al</w> 4820
N i 4819
ag u 4819
Geor gi 4819
ear ning</w> 4816
t one</w> 4815
fr ing 4815
occas ion</w> 4814
control ling</w> 4813
N A</w> 4811
nar row</w> 4811
ten der</w> 4810
absol utely</w> 4810
W illi 4808
Par ties</w> 4808
H ot 4807
M y 4806
min orities</w> 4803
it tle</w> 4798
cl ari 4798
analy ze</w> 4798
primar ily</w> 4798
w ire</w> 4796
R en 4795
gr ounds</w> 4795
expl oration</w> 4794
me ter</w> 4792
tom s</w> 4791
Fi ve</w> 4787
ro ots</w> 4786
certific ates</w> 4786
extre me</w> 4786
direc tors</w> 4785
Fol lowing</w> 4785
V is 4784
sto res</w> 4783
philosop hy</w> 4780
li ked</w> 4778
sh ock</w> 4776
nam ely</w> 4776
war ned</w> 4775
r a</w> 4772
ari b 4770
bur n</w> 4770
Pol i 4770
gu ests</w> 4769
destro y</w> 4769
ari a</w> 4767
ox y 4765
R et 4764
Eng ine 4764
candi date</w> 4762
ti ci 4761
tu be</w> 4760
regi ster</w> 4759
stric tly</w> 4758
entre pre 4757
Con struction</w> 4754
Z hang</w> 4753
law yer</w> 4753
descri ption</w> 4752
war ded</w> 4751
T em 4750
exc ep 4750
know ing</w> 4749
exc eption</w> 4749
fav our</w> 4749
cl ust 4748
Rem ember</w> 4747
Som alia</w> 4747
D C 4746
is s 4746
form ity</w> 4744
consci ous</w> 4744
ex ec 4742
invol ve</w> 4742
subsi di 4742
Indu stri 4740
im per 4739
ast ed</w> 4739
fr ac 4739
accept ance</w> 4739
dis pos 4737
produc tivity</w> 4737
ar rested</w> 4735
pe tro 4735
enter ing</w> 4735
ci gare 4734
gen u 4733
there of</w> 4733
reser ves</w> 4733
Saf ety</w> 4733
ul tr 4732
dis abled</w> 4732
proce edings</w> 4728
En ergy</w> 4727
cigare t 4726
K ow 4725
bass ador</w> 4722
wit ness</w> 4721
paragrap hs</w> 4719
ch icken</w> 4718
Un der 4718
manag ing</w> 4718
s par 4716
convinc ed</w> 4715
F ather</w> 4714
serv ant</w> 4712
contr ary</w> 4712
str ing</w> 4710
fin ds</w> 4710
D ef 4705
re struc 4703
cont ing 4702
sh irt</w> 4701
em ail</w> 4698
ev i 4698
acc used</w> 4698
dom ain</w> 4698
re placed</w> 4697
G oo 4695
ot e</w> 4695
f loo 4694
sm ell</w> 4694
im ports</w> 4693
ti se</w> 4691
explan ation</w> 4691
st up 4689
ne ed 4688
cl er 4688
ass emb 4687
H igh 4685
discus ses</w> 4684
pre ad</w> 4683
circ le</w> 4683
cri ticism</w> 4682
ag ers</w> 4681
Kow loon</w> 4681
f ai 4679
c able</w> 4679
T el 4678
J ustice</w> 4678
sub stance</w> 4677
acquisi tion</w> 4677
I A 4674
H ist 4670
ne ar 4669
sc ore</w> 4669
docum entation</w> 4668
ass ess</w> 4667
calcul ated</w> 4667
y m 4666
Ac t</w> 4663
li v 4662
ill ness</w> 4662
perf ec 4661
ven tive</w> 4659
gener ate</w> 4659
f ate</w> 4658
mort gage</w> 4658
clean ing</w> 4658
ch ro 4656
l ake</w> 4655
bl ame</w> 4655
loc ked</w> 4652
cu ts</w> 4651
answ ers</w> 4651
j unc 4649
ret ail</w> 4649
break fast</w> 4649
Agr icul 4649
di versi 4648
tr ained</w> 4647
bre ast</w> 4646
dens ity</w> 4646
e astern</w> 4643
Leban on</w> 4642
coordin ate</w> 4641
op timis 4640
sym bol</w> 4640
Mac ao</w> 4639
ga thered</w> 4637
199 9</w> 4636
A tl 4635
statis tical</w> 4635
prospec ts</w> 4635
sen ding</w> 4633
b i</w> 4632
in si 4632
cap abilities</w> 4630
sust ained</w> 4628
F A 4627
mat ely</w> 4626
less on</w> 4624
ad just</w> 4620
cl oud</w> 4619
survi val</w> 4619
w ash</w> 4618
on ia</w> 4618
Ar ab 4618
nat ur 4618
approxim ately</w> 4616
Ital ian</w> 4615
te dly</w> 4613
aren cy</w> 4612
le ep</w> 4610
cap tain</w> 4610
particip ated</w> 4610
tis sue</w> 4609
lin ing</w> 4607
Meas ures</w> 4607
chann els</w> 4607
serv ants</w> 4604
W a 4602
fav or</w> 4599
b att 4598
ri gh 4596
mon etary</w> 4595
v essels</w> 4594
al i</w> 4594
fair ly</w> 4594
ex am</w> 4593
install ation</w> 4593
C ir 4592
al li 4590
C le 4589
no body</w> 4589
zer o</w> 4589
fail s</w> 4586
g am 4585
v acc 4584
as sume</w> 4583
Ch e 4582
ad ult</w> 4578
clos ing</w> 4577
Bud d 4577
ro of</w> 4576
a ward</w> 4575
re iter 4575
ph y 4573
F l 4572
ref use</w> 4572
observ ation</w> 4572
Cul tural</w> 4571
explo itation</w> 4570
apar tment</w> 4570
i on 4569
F our</w> 4569
t esti 4568
c e 4568
Con si 4567
exp anding</w> 4566
Lab our</w> 4565
coordin ated</w> 4562
ven ant</w> 4560
c up 4559
N ext</w> 4559
ong ue</w> 4558
rec ession</w> 4557
h an</w> 4554
bro thers</w> 4554
y ours</w> 4553
Ch en</w> 4550
mar i 4550
r ation 4549
m ates</w> 4548
ar ts</w> 4546
trans ferred</w> 4546
sum mit</w> 4546
occur s</w> 4544
swim ming</w> 4543
re turns</w> 4542
ex tra 4539
ther mal</w> 4539
d est</w> 4536
ti ble</w> 4535
comp ati 4535
l ending</w> 4534
E M</w> 4534
trans actions</w> 4533
direc ted</w> 4533
no t 4532
fur niture</w> 4531
contribu ting</w> 4531
o ever</w> 4530
B rown</w> 4528
heav ily</w> 4528
int on</w> 4526
invol vement</w> 4525
behavi our</w> 4524
sum mary</w> 4522
an ia</w> 4521
ke ys</w> 4521
fi x 4520
Treas ury</w> 4517
em plo 4516
vic tim</w> 4514
h idden</w> 4513
pl enty</w> 4513
cri ed</w> 4511
tor ies</w> 4510
Ma j 4508
pil ot</w> 4508
se ed</w> 4507
al d</w> 4506
He ad 4505
inv itation</w> 4504
Em ploy 4504
s and 4503
S pr 4503
lau gh</w> 4503
s an 4502
resid ential</w> 4501
0 9</w> 4500
F estival</w> 4499
mol ec 4498
con clusions</w> 4497
sp ite</w> 4497
ob viously</w> 4497
trad em 4497
h ide</w> 4496
8 5</w> 4496
but ton</w> 4495
stipul ated</w> 4494
S an</w> 4493
en na</w> 4489
de ad 4489
W in 4488
aff ecting</w> 4486
Ad di 4486
Be ing</w> 4486
Whe ther</w> 4484
preci ous</w> 4483
G O 4482
Pro tocol</w> 4482
har der</w> 4481
ti de</w> 4480
pho to</w> 4479
Ex am 4474
eful ly</w> 4473
Le e</w> 4472
S pace</w> 4471
fin ite</w> 4471
f et 4468
dis asters</w> 4468
Ac adem 4468
separ ation</w> 4467
y ard</w> 4466
recei pt</w> 4464
veget ables</w> 4462
allow ing</w> 4460
demonstr ated</w> 4460
exper tise</w> 4458
&apos; clock</w> 4457
archit ecture</w> 4456
po t</w> 4454
wh enever</w> 4453
sing ing</w> 4452
attemp ts</w> 4451
um ber</w> 4450
Islam ic</w> 4450
e ously</w> 4449
alle l</w> 4449
co ast 4447
C arib 4446
parti al</w> 4446
Lim ited</w> 4446
organiz ational</w> 4445
har v 4445
im ported</w> 4444
co ast</w> 4443
certain ty</w> 4443
wh is 4442
inter vention</w> 4442
vis iting</w> 4442
C arri 4441
Co de</w> 4441
o tic</w> 4438
sle eping</w> 4438
e ze</w> 4437
vol tage</w> 4435
ad ults</w> 4434
se ats</w> 4434
satis factory</w> 4434
don or</w> 4432
f ans</w> 4431
st y</w> 4431
w ished</w> 4430
List en</w> 4430
9 5</w> 4429
hear ts</w> 4428
neigh bor 4427
peri ods</w> 4426
tain ment</w> 4425
pa rent</w> 4424
al and</w> 4423
labor atory</w> 4421
compl y</w> 4420
form ulation</w> 4417
restric ted</w> 4417
D on 4416
D ru 4416
vi gor 4415
ne utr 4414
par a</w> 4413
hon our</w> 4413
ad ays</w> 4412
E astern</w> 4411
inf ec 4411
law ful</w> 4410
accompan ied</w> 4410
I N</w> 4409
Res pon 4409
F ourth</w> 4408
o de</w> 4408
N at 4408
S a 4405
Carib bean</w> 4405
H ousing</w> 4404
un known</w> 4402
in no 4399
it ate</w> 4399
present ation</w> 4399
Leg al</w> 4396
W TO</w> 4393
p ump</w> 4393
Op en</w> 4393
loc ations</w> 4392
d ressed</w> 4391
ing . 4391
uni form</w> 4391
forec ast</w> 4391
n ic 4388
i tions</w> 4388
cat aly 4388
vir tual</w> 4387
r ay</w> 4386
6 4</w> 4384
si zed</w> 4384
A .</w> 4383
ell o</w> 4383
o dy</w> 4380
ex posure</w> 4380
as m</w> 4378
per mission</w> 4378
reconc iliation</w> 4378
k illing</w> 4377
li ament</w> 4377
ti er</w> 4376
pl ain</w> 4376
S cot 4372
de fault</w> 4371
pe ak</w> 4368
diagn os 4368
t ongue</w> 4367
B re 4365
construc tive</w> 4364
T ex 4363
sub scri 4363
ure ly</w> 4361
at tract</w> 4359
prev enting</w> 4359
prov isional</w> 4358
Pr ince</w> 4358
lo ading</w> 4357
Hen ry</w> 4357
Cub a</w> 4357
D C</w> 4355
tro p 4354
ec k</w> 4353
ut ter</w> 4353
S ust 4351
es pread</w> 4351
necess arily</w> 4351
super vis 4350
fi x</w> 4349
se where</w> 4348
mi x</w> 4348
Soci ety</w> 4348
el abor 4347
there by</w> 4347
h em 4346
l ers</w> 4344
comm only</w> 4344
proc urement</w> 4343
mov ements</w> 4343
ap pra 4342
duc tion</w> 4341
every day</w> 4341
p ounds</w> 4340
cont acts</w> 4340
bel ong 4339
shap ed</w> 4338
elecommun ications</w> 4338
R ules</w> 4337
real istic</w> 4337
restric tions</w> 4336
ship ment</w> 4335
li ps</w> 4334
Pro per 4334
Qu een</w> 4334
bo y 4333
dec lined</w> 4333
Ch ang 4332
head ed</w> 4332
guaran te 4332
C D</w> 4330
W ar 4329
mom ent 4329
Goo gle</w> 4329
ac t 4328
bu b 4326
7 2</w> 4325
n d</w> 4323
0 5</w> 4323
gen e</w> 4322
t ability</w> 4320
dev oted</w> 4318
r ant</w> 4315
H app 4315
on es 4315
innov ative</w> 4315
civil ization</w> 4314
6 1</w> 4313
analy sts</w> 4313
main land</w> 4312
Qu ality</w> 4311
scho ol 4311
bene ficial</w> 4311
pro found</w> 4310
pe as 4310
with draw 4310
tem p 4309
pro secu 4308
occup ation</w> 4308
subsequ ent</w> 4305
P res 4304
Ne w 4304
lo ves</w> 4301
sil ent</w> 4301
Qu es 4301
rev olution</w> 4301
b id 4299
ow ed</w> 4299
some what</w> 4298
hu a</w> 4298
ay er</w> 4297
descri bes</w> 4297
speci fically</w> 4294
UN C 4292
land scape</w> 4292
as sign 4291
6 8</w> 4289
inten s 4289
de alt</w> 4287
fe wer</w> 4287
ri sts</w> 4285
cor n</w> 4285
pain t</w> 4285
Indones ia</w> 4285
transp arency</w> 4284
ff s</w> 4283
dam aged</w> 4283
manufac ture</w> 4283
psych ological</w> 4283
bes ide</w> 4280
poc ket</w> 4280
the ast</w> 4279
B ul 4276
pass age</w> 4276
demonstr ate</w> 4276
s ake</w> 4274
p en</w> 4274
Pre par 4274
absol ute</w> 4274
ri g 4272
govern ance</w> 4272
sugges tion</w> 4272
Ex change</w> 4269
set tle</w> 4269
un usual</w> 4267
install ed</w> 4262
vis its</w> 4261
k in</w> 4260
sol ving</w> 4258
th ful</w> 4256
vac ation</w> 4256
G az 4255
thre w</w> 4255
op tical</w> 4254
compl aints</w> 4254
con trad 4252
econom ics</w> 4252
har mony</w> 4252
cro ps</w> 4252
E M 4251
Jo hn 4251
fil ms</w> 4249
concep ts</w> 4248
ves sel</w> 4244
t ack 4243
ge ographical</w> 4242
p ill 4239
d enti 4239
fil ter</w> 4239
Commer cial</w> 4236
ket ball</w> 4236
t ari 4235
territ ories</w> 4235
he rent</w> 4234
ast es</w> 4234
su rely</w> 4233
ser ves</w> 4233
ic ian</w> 4232
govern ing</w> 4232
thre ats</w> 4232
tw el 4231
F ig 4230
Ze aland</w> 4230
Let ter</w> 4230
arri val</w> 4229
Micro soft</w> 4228
near by</w> 4228
Per manent</w> 4227
obstac les</w> 4227
m ad</w> 4226
0 8</w> 4226
chem icals</w> 4226
human ity</w> 4226
E v 4225
sh ouldn</w> 4225
im pose</w> 4224
f ounded</w> 4223
be er</w> 4223
pre limin 4223
Un fortunately</w> 4223
cl oth</w> 4222
lo aded</w> 4219
al location</w> 4218
lo gic</w> 4217
modi fied</w> 4217
cust om</w> 4217
Lt d</w> 4217
viol ent</w> 4215
speak er</w> 4215
N evertheless</w> 4214
symp toms</w> 4214
perform ing</w> 4213
wid espread</w> 4213
all evi 4211
L ess 4210
Wi thin</w> 4209
T ry</w> 4208
er ad 4208
flu id</w> 4207
ti ed</w> 4206
Med ical</w> 4206
n ative</w> 4205
ch er 4202
carri er</w> 4202
S T 4201
St atis 4201
promot ed</w> 4199
prec ision</w> 4198
Gre ece</w> 4197
guil ty</w> 4197
st ayed</w> 4196
col ors</w> 4194
dr af 4194
G ener 4193
N O 4193
presid ential</w> 4193
re alization</w> 4192
ef s</w> 4192
cot ton</w> 4189
Requ ests</w> 4187
Rec alling</w> 4186
pursu ant</w> 4186
Mus li 4184
1 ,000</w> 4183
any where</w> 4183
b al</w> 4182
UN E 4182
he ating</w> 4181
whe at</w> 4181
di am 4179
L ad 4176
z zy</w> 4174
per or</w> 4174
L ev 4173
appl ies</w> 4173
jud ges</w> 4173
ac quired</w> 4172
a us 4170
eg g</w> 4169
depend ence</w> 4169
config uration</w> 4169
hu an</w> 4168
t ub 4167
end ant</w> 4167
commun icate</w> 4166
ou ts</w> 4165
hop ing</w> 4165
Pri v 4165
F il 4164
Vi enna</w> 4164
countr y 4164
S elf</w> 4162
rest ore</w> 4162
cooper ative</w> 4162
til ity</w> 4161
h ath</w> 4160
inno cent</w> 4159
some where</w> 4157
Impl ement 4157
di versity</w> 4156
ick ness</w> 4156
wh el 4155
tic kets</w> 4155
im pression</w> 4154
pre ventive</w> 4154
j iang</w> 4152
fir mly</w> 4152
1 3 4151
speci ally</w> 4151
6 3</w> 4149
ap ple</w> 4147
ill er</w> 4147
J ames</w> 4144
val ve</w> 4144
dimen sional</w> 4144
D yn 4142
G l 4142
des ir 4142
Th ail 4141
ess ence</w> 4140
essi onal</w> 4140
olu tionary</w> 4139
pro mul 4138
dis count</w> 4138
Techn ical</w> 4138
re d 4135
inter ference</w> 4134
be ings</w> 4132
fi red</w> 4132
end ers</w> 4132
rol led</w> 4131
c ake</w> 4130
Poli tical</w> 4129
d less</w> 4128
tec h</w> 4128
repe ated</w> 4128
f ears</w> 4126
re ment</w> 4126
Vi et 4125
L ar 4124
l es 4124
for um</w> 4123
anni versary</w> 4122
7 3</w> 4121
log ical</w> 4121
expendit ures</w> 4120
traffic king</w> 4120
y l</w> 4119
dark ness</w> 4118
ch lor 4117
m ouse</w> 4116
Com pu 4115
read s</w> 4114
Su per 4113
accid ents</w> 4113
Cri minal</w> 4113
child hood</w> 4113
ro les</w> 4110
te or 4110
fe ed 4109
au to</w> 4109
ch oc 4108
restruc turing</w> 4108
ren tly</w> 4107
u ous</w> 4106
remark able</w> 4103
Thail and</w> 4103
asp ir 4101
flexi bility</w> 4101
mari time</w> 4098
harmon ious</w> 4097
rec ur 4096
rel and</w> 4096
arti ficial</w> 4096
par allel</w> 4093
go d</w> 4093
s ongs</w> 4092
T aking</w> 4092
comp are</w> 4092
min or</w> 4089
UN F 4087
ex hibition</w> 4084
bel t</w> 4084
Cam bo 4084
mean ing 4083
ad mit</w> 4082
modern ization</w> 4082
M P 4081
L in 4078
de grad 4078
pan el</w> 4076
u ph 4075
b and 4075
sh oc 4075
emphas ized</w> 4075
fing ers</w> 4075
cl ing</w> 4073
tan eously</w> 4073
H os 4072
wor n</w> 4072
l ation</w> 4071
d ur 4070
prof ile</w> 4069
C ON 4068
8 00</w> 4068
Are a</w> 4068
sup pose</w> 4064
Sm all</w> 4062
safe guard</w> 4062
ri x</w> 4060
x i</w> 4057
re sume</w> 4057
br illi 4057
f ice</w> 4056
Y u 4056
parame ter</w> 4056
Angol a</w> 4056
Dec ade</w> 4055
6 7</w> 4054
fore ig 4053
Tok yo</w> 4053
clou ds</w> 4052
don ors</w> 4050
con firm</w> 4048
be ach</w> 4046
wid er</w> 4046
sign als</w> 4046
H ong 4045
Ar my</w> 4045
inj ured</w> 4045
dest ination</w> 4044
D u 4043
Meth od</w> 4043
analy ses</w> 4042
bel ong</w> 4042
nation ality</w> 4040
H ome</w> 4039
p in 4038
h o</w> 4038
6 2</w> 4038
the ories</w> 4038
B lack</w> 4037
ex act</w> 4036
emb ar 4036
ati es</w> 4034
professi on 4034
necess ity</w> 4032
dra u 4032
Off r</w> 4032
instruc tions</w> 4032
cop ies</w> 4030
g all 4028
198 9</w> 4028
prin ted</w> 4027
reserv o 4027
pro hibited</w> 4025
pr on 4025
Con cer 4025
y ang</w> 4024
vari able</w> 4023
municip alities</w> 4022
2 9 4021
oo m</w> 4020
y cle</w> 4019
gh ty</w> 4019
avail ability</w> 4019
s er</w> 4017
Ar gent 4017
ship ping</w> 4016
be l</w> 4015
cho ices</w> 4013
ne gl 4010
entr ance</w> 4009
u i</w> 4007
secon ds</w> 4006
prison ment</w> 4006
con siders</w> 4005
co ach</w> 4004
B a 4002
car go</w> 4002
el a</w> 4001
concl ude</w> 4001
de pression</w> 4000
b adly</w> 3999
ad mitted</w> 3999
mir ror</w> 3999
le af</w> 3998
J our 3997
ul timate</w> 3996
produc es</w> 3996
C .</w> 3995
comp ound</w> 3995
mo m</w> 3994
g al</w> 3993
re ver 3990
wor e</w> 3989
oper ators</w> 3987
withdraw al</w> 3987
sp o 3986
a to</w> 3984
id er</w> 3984
ill icit</w> 3983
cul tures</w> 3983
dis cre 3981
publ ications</w> 3981
cra zy</w> 3980
c entr 3979
inter nation 3979
fac ility</w> 3979
p um 3977
arrang e</w> 3977
in ser 3976
rec k 3976
priv il 3976
camp us</w> 3975
min ent</w> 3974
phot os</w> 3973
U k 3970
im prisonment</w> 3970
P C 3969
ic on</w> 3968
ro man 3967
ic ks</w> 3967
Croati a</w> 3967
el sewhere</w> 3966
i ers</w> 3965
bor ne</w> 3964
rec all</w> 3963
An n 3963
survi ve</w> 3963
ur ge</w> 3962
contin ent</w> 3962
R O 3961
me ters</w> 3960
ac le</w> 3959
v isible</w> 3957
s h</w> 3956
ar ding</w> 3956
view ing</w> 3956
terror ist</w> 3956
L a 3954
ar ising</w> 3954
exc ess</w> 3953
ment ally</w> 3952
h at 3951
termin ation</w> 3948
reli ability</w> 3948
t ank</w> 3947
at om 3947
sub stances</w> 3947
bel ongs</w> 3946
ili ans</w> 3946
p y</w> 3945
S us 3945
B A</w> 3945
Pre vention</w> 3945
fun ny</w> 3944
depos its</w> 3943
passeng er</w> 3942
fing er</w> 3941
0 6</w> 3940
gr as 3940
con vention</w> 3938
ig nor 3938
S ic 3936
Ch em 3936
mo thers</w> 3936
reg ards</w> 3936
exc iting</w> 3936
an i</w> 3935
nutri tion</w> 3935
e tr 3934
lo vely</w> 3934
aw n</w> 3931
t ape</w> 3930
b lo 3930
Rob ert</w> 3929
in jection</w> 3928
pres er 3928
rout ine</w> 3928
n an 3927
Ap ple</w> 3925
Uk rain 3925
sh ell</w> 3924
consci ousness</w> 3923
Commer ce</w> 3923
comp ul 3922
mis sile</w> 3922
L oo 3920
she ep</w> 3920
perfec tly</w> 3920
s word</w> 3919
enti ties</w> 3919
mak er</w> 3919
P ut</w> 3918
w ages</w> 3918
O ld</w> 3917
S O 3915
Th om 3915
kis s</w> 3915
a es 3914
satis fy</w> 3914
7 6</w> 3912
ha bits</w> 3911
k id</w> 3910
for cing</w> 3908
ti eth</w> 3907
N ig 3905
ex posed</w> 3905
L ittle</w> 3904
pres sive</w> 3901
organ is 3900
Austr alian</w> 3900
Fam ily</w> 3900
oxy gen</w> 3900
f oun 3899
m atic</w> 3898
A T</w> 3897
ati vity</w> 3897
spirit ual</w> 3896
Sust ainable</w> 3895
migr ants</w> 3893
entrepre neur 3893
pl ed 3892
mag ic</w> 3892
st uck</w> 3891
conduc ting</w> 3891
r y 3890
lo ving</w> 3889
str act</w> 3889
Li u</w> 3889
sec tions</w> 3888
vot ing</w> 3888
d ying</w> 3883
al umin 3883
over whel 3882
collap se</w> 3882
0 3</w> 3881
V ic 3881
tend ency</w> 3881
ex pe 3880
tow ns</w> 3880
Sim il 3880
ci de</w> 3879
conc e 3879
be am</w> 3877
cop yright</w> 3877
prelimin ary</w> 3877
F ran 3875
as ion</w> 3874
nerv ous</w> 3872
st ones</w> 3871
gir l 3871
e es</w> 3870
Y oun 3869
P O 3868
ob li 3868
superi or</w> 3866
Fin ance</w> 3864
bur st</w> 3863
w oo 3862
B ay</w> 3861
Coun tries</w> 3861
high way</w> 3861
sequ ence</w> 3861
dig nity</w> 3861
re jected</w> 3860
tou ched</w> 3859
Stud ents</w> 3859
Est ablis 3858
cho os 3857
Ch ic 3855
est y</w> 3854
let es</w> 3853
sh ed</w> 3850
pop ulations</w> 3848
auth ors</w> 3848
d ong</w> 3847
UN PRO 3847
surr ounding</w> 3847
classi fication</w> 3846
al located</w> 3845
ac commod 3845
UNPRO FOR</w> 3845
ash es</w> 3844
7 1</w> 3842
Secon dly</w> 3841
des c 3838
a ths</w> 3837
fore sts</w> 3837
system atic</w> 3837
add ressing</w> 3836
P D 3835
re di 3835
stro ke</w> 3835
Fif th</w> 3835
at tered</w> 3834
voc ational</w> 3833
eas ed</w> 3832
desig ning</w> 3832
circul ation</w> 3831
newsp apers</w> 3830
exerc ises</w> 3827
has n</w> 3827
jud g 3826
integr al</w> 3825
M organ</w> 3823
exce ed</w> 3822
Offic er</w> 3822
stom ach</w> 3821
dispos al</w> 3820
m ay 3819
I reland</w> 3819
j ac 3816
sus pic 3816
f ers</w> 3815
spl it</w> 3814
pro pose</w> 3813
initi ated</w> 3813
Sor ry</w> 3812
Gi ven</w> 3811
C I 3809
th ri 3807
om ing</w> 3806
s ory</w> 3804
soldi er</w> 3804
min ds</w> 3803
inv ite</w> 3803
Mar tin</w> 3803
contem porary</w> 3803
uti lity</w> 3801
Head quarters</w> 3800
en ary</w> 3799
ic ed</w> 3799
el ect</w> 3799
as c 3799
emis sions</w> 3799
b ills</w> 3798
ch est</w> 3798
cre di 3798
Sup pl 3798
gl asses</w> 3797
7 00</w> 3796
re mo 3796
typ ically</w> 3796
A ust 3793
pra ise</w> 3793
pri de</w> 3792
ar rest</w> 3790
In spec 3790
optim ization</w> 3790
b ags</w> 3788
M aster</w> 3787
ke y 3787
continu ously</w> 3787
M a</w> 3786
ow s</w> 3785
per mitted</w> 3783
pro spect</w> 3782
sent enced</w> 3781
-------- -------- 3780
tre ating</w> 3779
m ere</w> 3778
0 2</w> 3778
T S</w> 3778
con stitutes</w> 3778
gener ations</w> 3776
class room</w> 3775
I ran 3774
kni fe</w> 3774
S wit 3773
T ai</w> 3773
gi fts</w> 3773
con gres 3771
Mar k</w> 3771
f lag</w> 3769
u h</w> 3769
D om 3769
ing redi 3769
movi es</w> 3768
c ure</w> 3767
meth od 3767
top ics</w> 3767
ph ones</w> 3766
0 7</w> 3765
oper ator</w> 3765
intens ity</w> 3764
mur der</w> 3763
exc ited</w> 3762
A V 3761
low est</w> 3758
os si 3757
us age</w> 3756
Ad v 3756
peac e 3756
h man</w> 3754
in sist 3754
g ear</w> 3751
7 4</w> 3750
8 7</w> 3749
coo king</w> 3749
9 9</w> 3748
conn ect</w> 3748
T un 3747
p ushed</w> 3744
conveni ence</w> 3743
st ored</w> 3742
m m</w> 3740
aff ects</w> 3740
civ ilians</w> 3740
g .</w> 3739
k ong</w> 3739
mani fe 3739
Ne ws</w> 3738
negoti ation</w> 3735
ten ing</w> 3734
WH O</w> 3734
coast al</w> 3734
ni ght 3733
appro ve</w> 3732
prec eding</w> 3732
stup id</w> 3731
c ant</w> 3730
ra m</w> 3729
hy dr 3729
roc ks</w> 3729
prison ers</w> 3729
Tr ad 3728
g al 3727
Stu dies</w> 3727
genu ine</w> 3727
Dis armament</w> 3726
Fr anc 3726
ww w 3725
g ue</w> 3724
c ad 3724
par tly</w> 3724
intellig ent</w> 3724
C iti 3723
am id</w> 3722
bas ketball</w> 3722
r ush</w> 3720
de al 3719
ep er</w> 3719
os ity</w> 3716
acc es 3716
J ord 3715
Res erve</w> 3714
u g</w> 3713
und i</w> 3712
grat eful</w> 3712
SA R</w> 3711
p tions</w> 3710
br ush</w> 3710
resid ence</w> 3709
jum ped</w> 3709
cur ricul 3708
comm it</w> 3707
op pon 3706
ass ur 3706
Carri e</w> 3706
i el</w> 3705
A P</w> 3705
ri an</w> 3703
app arent</w> 3703
zh en</w> 3703
dum ping</w> 3703
sw it 3701
tem por 3700
ment ation</w> 3700
l ord</w> 3699
min i 3699
Su preme</w> 3699
b inding</w> 3698
happ ening</w> 3698
ip p 3697
arti st</w> 3697
is ite</w> 3696
pro por 3696
err ors</w> 3696
chr onic</w> 3696
commis sions</w> 3695
L O 3692
exc essive</w> 3692
indic ators</w> 3692
For um</w> 3692
bas ically</w> 3691
For m</w> 3691
for gotten</w> 3690
ear ned</w> 3690
b ye</w> 3688
C N 3687
inten se</w> 3687
it er</w> 3686
ur o</w> 3686
ens ing</w> 3686
attrac ted</w> 3685
tit udes</w> 3684
Inv estig 3684
under ground</w> 3683
arr ay</w> 3683
Net work</w> 3683
bi ke</w> 3680
chec ked</w> 3679
s enti 3678
sim pl 3678
fu r</w> 3677
busin ess 3677
d or 3676
improv ements</w> 3676
premis es</w> 3676
des ert</w> 3675
Jan e</w> 3675
B ang 3674
adv ent 3674
w ol 3673
gu est</w> 3673
f ar 3670
tr uck</w> 3670
Bur undi</w> 3670
equ ation</w> 3669
hy s 3667
induc ed</w> 3667
trem end 3664
M .</w> 3663
execu tives</w> 3663
ant ine</w> 3662
lic ence</w> 3661
cop per</w> 3661
St an 3660
u l</w> 3658
b ath 3658
func tioning</w> 3656
t ence</w> 3655
hun gry</w> 3655
proce ed</w> 3655
EN T</w> 3655
CH AP 3655
L angu 3654
as y</w> 3654
char t</w> 3654
Organ isation</w> 3654
Dyn asty</w> 3654
gg er</w> 3653
Tur key</w> 3652
yi el 3652
vibr ation</w> 3652
speak ers</w> 3651
CHAP TER</w> 3651
inv al 3649
ber t</w> 3649
Am bassador</w> 3648
l oud</w> 3646
per pe 3646
dis cover</w> 3645
aggres sion</w> 3645
C S 3644
ren der</w> 3644
cor ro 3644
inten sive</w> 3643
po is 3641
Rec og 3641
Mr s</w> 3639
fo ol 3639
mem bered</w> 3639
Prin ci 3639
desig ns</w> 3638
str ang 3637
lau ghter</w> 3637
Cl inton</w> 3635
et ly</w> 3633
alo g</w> 3633
. 1</w> 3631
Georgi a</w> 3631
l ec 3629
vi et</w> 3628
pro pri 3627
sig nature</w> 3627
secre ts</w> 3627
on a</w> 3625
chec king</w> 3625
w anna</w> 3621
announ cement</w> 3621
V ery</w> 3619
n inth</w> 3617
rel ate</w> 3617
ge ted</w> 3617
qui ries</w> 3617
threat ened</w> 3617
D ad</w> 3616
Mo del</w> 3616
ones elf</w> 3616
ath letes</w> 3615
20 10</w> 3615
occas i 3615
8 8</w> 3613
con s 3613
mort ality</w> 3612
S H 3609
pres erve</w> 3609
fre ely</w> 3609
wel comes</w> 3609
A D</w> 3608
t less</w> 3608
gradu ates</w> 3608
du pl 3607
pun ished</w> 3607
ic ide</w> 3606
harm ful</w> 3606
al thy</w> 3605
re placement</w> 3604
natur ally</w> 3603
emb arr 3602
Pro vision</w> 3600
d ancing</w> 3599
as leep</w> 3599
pri ze</w> 3598
sim pli 3598
ch ose</w> 3597
me ets</w> 3597
Mo der 3597
rel atives</w> 3596
tre aties</w> 3596
tow er</w> 3596
ex trac 3594
fer ring</w> 3594
Stand ard</w> 3594
K now 3593
frequ ent</w> 3593
gun s</w> 3590
J im</w> 3589
cou ples</w> 3589
squ e 3589
la p</w> 3588
hand led</w> 3588
disco very</w> 3588
brief ly</w> 3587
rub ber</w> 3586
bur ied</w> 3584
dedic ated</w> 3584
n u 3582
r um 3581
o h</w> 3581
del ic 3580
f an</w> 3579
S of 3579
qu alities</w> 3579
p ir 3577
c ook</w> 3577
remo val</w> 3577
in ity</w> 3576
em an</w> 3576
dec or 3576
drau lic</w> 3575
st on</w> 3574
ent ally</w> 3574
bl ack 3574
employ er</w> 3574
refuge e</w> 3574
Every thing</w> 3574
es c 3573
ch ances</w> 3573
se al</w> 3573
twel ve</w> 3573
R u 3571
T ax</w> 3571
chem istry</w> 3570
rul ing</w> 3570
re membered</w> 3568
har b 3568
met res</w> 3568
exp ense</w> 3567
ti fic 3566
So viet</w> 3565
Bas ic</w> 3563
6 9</w> 3562
break s</w> 3562
arg ue</w> 3562
Di ffe 3561
glob alization</w> 3561
formul ate</w> 3561
Chic ago</w> 3561
T or 3560
cr ack</w> 3560
B S</w> 3559
5 ,000</w> 3559
em in 3559
divor ce</w> 3558
E mer 3557
t ance</w> 3554
ow n 3554
cur ve</w> 3554
www . 3554
in fring 3553
ni e</w> 3553
optim al</w> 3553
ques tion 3552
Dec ides</w> 3552
b row 3550
lo ose</w> 3549
mus cle</w> 3549
is ure</w> 3548
pres erv 3548
pursu it</w> 3548
w ings</w> 3547
aut umn</w> 3547
F er 3546
di ab 3546
ill ance</w> 3546
enter tainment</w> 3546
refl ection</w> 3546
law yers</w> 3546
feed back</w> 3546
P lat 3543
H ello</w> 3543
sub mission</w> 3543
olog ist</w> 3542
emer ged</w> 3542
T om 3541
K ar 3541
du le</w> 3541
hol y</w> 3541
ath le 3541
P ress</w> 3540
R C</w> 3539
prop ag 3538
He av 3537
cro p</w> 3537
9 8</w> 3536
dr inks</w> 3536
schem es</w> 3536
H IV</w> 3535
M ong 3534
provin cial</w> 3534
D ear</w> 3533
fru its</w> 3533
R ac 3531
sh oot</w> 3531
de emed</w> 3531
correc tly</w> 3529
ut ch</w> 3528
exc use</w> 3528
tour ist</w> 3528
t ful</w> 3526
gen cies</w> 3526
hospit als</w> 3526
Implement ation</w> 3526
t ants</w> 3525
Ex peri 3525
Jo e</w> 3525
f old</w> 3524
municip al</w> 3524
Mil itary</w> 3523
w ound</w> 3522
1 50</w> 3521
ad visory</w> 3521
dro ve</w> 3521
man ip 3520
sc op 3520
odi c</w> 3520
inter medi 3518
chi p</w> 3518
exclu sive</w> 3518
n est</w> 3517
ri vers</w> 3517
eigh th</w> 3516
cri tici 3515
Rom an</w> 3515
pas sion</w> 3514
f ant 3513
the at 3513
ver tical</w> 3513
d ingly</w> 3511
Y ang</w> 3511
ca p</w> 3511
Industri al</w> 3510
Iran ian</w> 3510
mot or 3509
des per 3508
a ver 3506
M om</w> 3506
Cer tific 3506
Sic huan</w> 3506
ass ure</w> 3505
hy po 3504
mic ro</w> 3504
soci eties</w> 3503
f ed</w> 3502
7 8</w> 3502
Chris tian</w> 3501
sec ut 3500
com posite</w> 3499
cle arance</w> 3499
Regi stration</w> 3498
sus pec 3497
b ell</w> 3496
4 , 3496
cre w</w> 3496
employ ers</w> 3496
r ab 3495
t ables</w> 3495
contrad ic 3495
any body</w> 3494
cont am 3493
As sistant</w> 3493
leg es</w> 3492
rel ates</w> 3491
fe eding</w> 3489
adap t</w> 3489
Con tract</w> 3488
dir ty</w> 3488
Willi am</w> 3488
character ized</w> 3487
hi bit</w> 3486
0 4</w> 3484
al arm</w> 3484
oc ity</w> 3484
C ross</w> 3483
I P</w> 3482
contain er</w> 3482
ti p</w> 3481
auc tion</w> 3481
bri d 3480
dimen sion</w> 3480
te enth</w> 3479
poss ess</w> 3479
ra rely</w> 3478
ber g</w> 3476
sur plus</w> 3474
ligh t 3473
cryst al</w> 3473
C up</w> 3471
te en 3470
E liz 3469
enem ies</w> 3469
car di 3468
M ot 3467
st ake</w> 3467
tradem ark</w> 3467
i k 3466
in struction</w> 3466
es cap 3466
Com b 3466
sens or</w> 3465
fil ed</w> 3464
favor able</w> 3464
uni fied</w> 3463
assess ed</w> 3463
deploy ed</w> 3463
Invest ment</w> 3462
coun ting</w> 3459
toler ance</w> 3459
p it 3458
st amp</w> 3458
9 6</w> 3457
elec toral</w> 3457
determin ing</w> 3457
celebr ate</w> 3456
fer ti 3453
suppl iers</w> 3453
construc ted</w> 3452
Gol d 3451
e ted</w> 3450
m ass 3448
H ur 3447
up date</w> 3447
b o</w> 3446
re ward</w> 3446
ap h 3445
are r</w> 3445
encour ages</w> 3445
lon ely</w> 3445
choc olate</w> 3444
corpor ation</w> 3443
incid ents</w> 3443
sha ke</w> 3442
complex ity</w> 3442
compe tence</w> 3441
se ized</w> 3440
U L 3439
pre ferred</w> 3439
s man</w> 3438
qu e 3438
val idity</w> 3437
herit age</w> 3436
tow n 3435
con formity</w> 3434
et es</w> 3434
acqu ire</w> 3434
manufactu rers</w> 3434
depar ture</w> 3434
Coun ty</w> 3433
anx i 3433
co g 3432
plac ing</w> 3432
marg in</w> 3432
extra ordinary</w> 3432
t les</w> 3431
Tr av 3429
feasi bility</w> 3429
p ack</w> 3428
mat rix</w> 3428
P ot 3427
amaz ing</w> 3427
i p</w> 3426
al a</w> 3425
loc ate</w> 3425
accord ingly</w> 3425
J ones</w> 3424
un likely</w> 3424
M et 3423
sm oo 3422
pac king</w> 3422
Hum an 3421
G DP</w> 3420
mem or 3420
d are</w> 3419
con ve 3419
le ather</w> 3419
poin ting</w> 3419
uni verse</w> 3418
T ru 3417
w ell 3417
As sistance</w> 3417
broad er</w> 3416
ob il 3415
st ems</w> 3414
Mal ay 3414
8 6</w> 3412
Mar ket</w> 3412
wa ited</w> 3412
d ating</w> 3411
n as 3410
re verse</w> 3410
tr action</w> 3410
separ ated</w> 3410
Mi ke</w> 3409
hol es</w> 3408
gr ace</w> 3407
val uation</w> 3407
constitu tional</w> 3407
hi p</w> 3406
b ath</w> 3405
produc ers</w> 3405
prepar ations</w> 3405
in cur 3402
Res ources</w> 3401
g ers</w> 3400
sem i</w> 3400
c .</w> 3399
we i 3398
ten nis</w> 3398
constr aints</w> 3397
car ries</w> 3396
lux ury</w> 3396
t ar</w> 3395
Produc ts</w> 3395
spectr um</w> 3395
l amp</w> 3394
v ar 3394
C lin 3394
ste am</w> 3393
immun e</w> 3393
en coun 3392
Co venant</w> 3392
S A</w> 3391
C la 3389
sm ugg 3389
stand ardi 3389
differen ti 3389
gre en 3388
analy zes</w> 3388
fa thers</w> 3388
gl ory</w> 3388
9 2</w> 3386
K ey 3385
7 9</w> 3384
susp ect</w> 3383
T ra 3382
den ied</w> 3382
repe at 3382
o id</w> 3381
N A 3381
z y 3379
house holds</w> 3379
P os 3378
M e</w> 3376
c ep 3375
N uclear</w> 3374
mi ti 3374
observ ations</w> 3372
Minist ers</w> 3372
g as 3371
home work</w> 3371
e try</w> 3370
Youn g</w> 3370
assist ant</w> 3369
ologi sts</w> 3368
spons ors</w> 3368
er ation</w> 3367
sup er</w> 3367
D ig 3366
w ashing</w> 3366
b uc 3364
ad ds</w> 3364
gu ided</w> 3364
inter ven 3362
susp ended</w> 3362
bacter ia</w> 3362
c ast 3359
re turning</w> 3359
an no 3358
on ics</w> 3357
sil k</w> 3357
Less on</w> 3357
th an 3356
ul ous</w> 3356
def end</w> 3356
i . 3354
separ ately</w> 3354
tou rists</w> 3354
enthusi asm</w> 3352
sinc ere</w> 3351
invest ed</w> 3349
construc t</w> 3349
ju ice</w> 3349
Ric hard</w> 3348
er ly</w> 3347
equip ped</w> 3347
Inte gr 3346
um es</w> 3345
ligh ting</w> 3345
sym pa 3345
a ult</w> 3344
direc tions</w> 3344
re tri 3343
se eds</w> 3342
Por tu 3341
ad vised</w> 3339
Pre mi 3339
Wel come</w> 3339
Ar ti 3338
dro me</w> 3337
re str 3336
grap hy</w> 3336
memb ran 3335
ic op 3334
Tim es</w> 3333
Bi g</w> 3333
reti rement</w> 3333
r ats</w> 3332
tem ple</w> 3332
dram atic</w> 3332
S P 3331
in spir 3331
holid ays</w> 3330
Ch ange</w> 3329
represent ing</w> 3329
tox ic</w> 3329
S et 3328
le um</w> 3328
w ed</w> 3326
10 . 3326
j i 3325
cre ates</w> 3324
B ab 3323
L ater</w> 3322
her o</w> 3322
ligh ted</w> 3320
D V 3319
9 4</w> 3319
up set</w> 3319
aren tly</w> 3319
sequ ently</w> 3318
promis ing</w> 3318
Nor thern</w> 3317
M un 3316
re marks</w> 3316
any more</w> 3316
l en</w> 3315
farm er</w> 3315
minist ers</w> 3315
cy lin 3314
ak s</w> 3313
D ist 3312
re mind</w> 3312
mo ist 3312
Jord an</w> 3312
ti ps</w> 3311
Con tin 3310
Dep uty</w> 3310
s ement</w> 3309
re productive</w> 3308
W as</w> 3307
pos session</w> 3307
H or 3306
fi l</w> 3306
Wh atever</w> 3305
numer ical</w> 3305
rel ax</w> 3304
m ad 3303
ati zation</w> 3303
St aff</w> 3302
wid th</w> 3302
origin ally</w> 3302
ex it</w> 3301
T est</w> 3300
sacri fice</w> 3300
gi ene</w> 3299
Shen zhen</w> 3299
sh ou 3298
id a</w> 3297
IA EA</w> 3297
C . 3296
acceler ate</w> 3296
vill ages</w> 3295
D ou 3294
ten s</w> 3294
Co ordin 3294
distinc t</w> 3294
Th ink</w> 3293
S k 3292
Guang dong</w> 3292
oun ce</w> 3291
do zen</w> 3291
Man ager</w> 3291
trop ical</w> 3291
P har 3290
M el 3290
a ison</w> 3289
v ary</w> 3289
St ation</w> 3289
repe at</w> 3289
1 1 3288
tra its</w> 3288
ulti mately</w> 3288
roman tic</w> 3288
Le ague</w> 3287
ab eth</w> 3286
for got</w> 3286
bloc ks</w> 3286
adjust ed</w> 3284
ter ly</w> 3281
ar ise</w> 3280
li p</w> 3280
concer t</w> 3280
mem ories</w> 3279
Tr ust</w> 3277
C op 3276
ap point</w> 3276
dec isi 3276
bor row 3276
di stric 3275
St ar 3275
disp ens 3275
accompl ished</w> 3273
E N</w> 3272
Spr ing</w> 3272
di ag 3271
L ou 3270
allow ance</w> 3270
reve al</w> 3270
en tic 3267
l l 3266
dis k</w> 3266
H as</w> 3265
8 1</w> 3265
el eg 3264
coll abor 3264
fo res 3264
work shop</w> 3263
r on</w> 3262
ag ged</w> 3262
equ itable</w> 3262
bit ter</w> 3262
quali fications</w> 3262
shel ter</w> 3262
defic it</w> 3261
P ow 3260
R ome</w> 3260
dis played</w> 3259
enjo y 3259
gent le</w> 3258
six th</w> 3258
li sts</w> 3256
analy zing</w> 3256
aband oned</w> 3256
b all 3255
dic t 3255
feasi ble</w> 3255
Ob serv 3254
B .</w> 3253
UN IT 3253
invest or</w> 3253
tax i</w> 3253
inev itable</w> 3253
Engine ering</w> 3253
lif ted</w> 3252
step ped</w> 3251
gr and</w> 3250
phy si 3250
A U</w> 3249
M ing</w> 3249
b age</w> 3249
9 3</w> 3249
st aff 3249
Char les</w> 3249
con du 3247
Up on</w> 3247
Commun ist</w> 3246
Hot el</w> 3246
cor relation</w> 3245
T our 3244
w o 3244
ci ve</w> 3243
inter n 3243
In iti 3243
Mo z 3242
deb ts</w> 3241
foc using</w> 3241
L earn</w> 3240
is tic 3240
fl esh</w> 3240
hun g</w> 3239
ren tal</w> 3238
transp arent</w> 3238
N E 3237
er ce</w> 3237
de aths</w> 3237
des ired</w> 3237
tro op</w> 3236
inst ant</w> 3236
bom b</w> 3236
desir able</w> 3236
g ather</w> 3235
ab ide</w> 3235
Mos cow</w> 3235
pharmac eu 3233
subsidi ary</w> 3233
f ever</w> 3232
dep ending</w> 3232
e z 3231
un certainty</w> 3231
ill a</w> 3231
trans form</w> 3230
grow s</w> 3228
Pan el</w> 3228
op posed</w> 3227
ul f</w> 3227
Ex p 3227
M S</w> 3226
ad verse</w> 3226
res emb 3226
fri gh 3226
recomm ends</w> 3226
regar dless</w> 3226
Academ y</w> 3225
t elecommunications</w> 3223
compe te</w> 3223
assum ed</w> 3223
det ect</w> 3222
Ukrain e</w> 3222
Cambo dia</w> 3221
n es 3220
ph os 3220
under lying</w> 3220
ant a</w> 3220
purch asing</w> 3220
p ile</w> 3219
Fig ure</w> 3219
9 1</w> 3218
hang ing</w> 3218
Compu ter</w> 3218
F oundation</w> 3216
po p</w> 3216
invent ory</w> 3216
mix ture</w> 3215
a res</w> 3214
app arently</w> 3214
migr ant</w> 3214
under taking</w> 3213
nur sing</w> 3213
I G 3211
cr ash</w> 3211
t ling</w> 3210
gr ac 3210
junc tion</w> 3210
mom ents</w> 3208
ful fil</w> 3207
grap h 3207
Ch o 3206
transi t</w> 3206
organis ations</w> 3206
F ed</w> 3204
as ser 3204
Ar t</w> 3204
parti cles</w> 3204
ran dom</w> 3204
mac ro 3204
vot ers</w> 3203
P ub 3202
Mos es</w> 3202
di ver 3201
cl am 3201
s oup</w> 3197
a qu 3197
any way</w> 3197
treas ure</w> 3197
incid ence</w> 3196
St reng 3195
dec l 3195
Chil d</w> 3194
suppl ier</w> 3193
c av 3192
pen etr 3192
k ick</w> 3190
In surance</w> 3190
elim ination</w> 3190
domin ant</w> 3190
distric ts</w> 3189
H o 3188
Corpor ation</w> 3188
hor ses</w> 3187
process ed</w> 3187
A h</w> 3186
ec tor</w> 3186
swi m</w> 3186
con version</w> 3185
gh ted</w> 3185
cha mber</w> 3185
J ean</w> 3184
tremend ous</w> 3184
H u</w> 3183
sho oting</w> 3183
substan ti 3182
R eli 3181
Tur k 3181
d uration</w> 3180
conf isc 3180
L . 3178
ic ians</w> 3178
m u 3177
emo tions</w> 3177
pregn ant</w> 3176
embarr ass 3176
thre sh 3175
8 2</w> 3174
ric h 3174
investig ations</w> 3174
ab ling</w> 3172
avi ation</w> 3172
shor tage</w> 3172
applic ants</w> 3172
life time</w> 3172
l end</w> 3171
ang el</w> 3171
influ enced</w> 3170
concentr ate</w> 3170
em a</w> 3169
fi er</w> 3169
Par ti 3168
fail ing</w> 3168
soci o</w> 3167
t ancy</w> 3165
b ones</w> 3165
Th ir 3165
ori entation</w> 3165
F ree</w> 3164
rup t 3164
thor oughly</w> 3163
Li brary</w> 3163
imag ination</w> 3163
peti tion</w> 3163
s now 3162
dist ant</w> 3162
Hong kong</w> 3162
log istics</w> 3161
bene ath</w> 3161
epid emic</w> 3160
aff air</w> 3159
O thers</w> 3158
Mong ol 3158
M ain</w> 3156
Langu age</w> 3156
speci fy</w> 3155
pursu ed</w> 3154
n am</w> 3153
m ice</w> 3153
pain ful</w> 3152
arti stic</w> 3151
defe at</w> 3151
read ers</w> 3150
hur ry</w> 3150
i res</w> 3149
l an 3149
st ation 3149
ob server</w> 3149
r hy 3148
l ou 3148
Si x</w> 3148
t ail 3147
ing ness</w> 3146
bo ards</w> 3146
un preced 3145
appra is 3145
t ue</w> 3144
fl u</w> 3143
tr ace</w> 3142
dr ought</w> 3141
p an</w> 3140
mon opol 3140
horiz on 3140
b orders</w> 3139
8 3</w> 3139
surve illance</w> 3139
oph istic 3138
Tr an 3137
Not ing</w> 3136
moment um</w> 3136
b la 3135
il le</w> 3135
emphas ize</w> 3135
Is lands</w> 3134
198 8</w> 3134
sli p</w> 3134
guarante ed</w> 3134
suspec ted</w> 3134
prec ise</w> 3133
W u</w> 3132
sus pension</w> 3132
in fer 3130
D .</w> 3127
con qu 3127
sh an</w> 3127
n erve</w> 3126
H all</w> 3125
profession als</w> 3124
adv ise</w> 3123
C L 3122
Med ic 3122
l ot 3121
Proper ty</w> 3121
ful fill</w> 3120
exist ed</w> 3120
dri vers</w> 3118
ra p</w> 3115
O w 3114
in et</w> 3113
e a</w> 3112
f ool</w> 3112
inj uries</w> 3112
rec over</w> 3111
qu it</w> 3110
inv o 3110
Sou thern</w> 3110
pen ding</w> 3109
Trans port</w> 3109
fab ric</w> 3109
w are 3108
in her 3108
spi red</w> 3107
limit ation</w> 3106
sear ching</w> 3104
Cap ital</w> 3104
Argent ina</w> 3103
z ens</w> 3101
vel ocity</w> 3101
C at 3100
it ment</w> 3100
Eliz abeth</w> 3100
Co ordination</w> 3099
sym bol 3099
des erve</w> 3098
alleg ed</w> 3098
val ley</w> 3097
ti les</w> 3096
dissem ination</w> 3096
syn chron 3094
Scienti fic</w> 3094
se is 3093
clim b</w> 3093
heal th 3093
9 00</w> 3091
compl aint</w> 3091
termin al</w> 3091
Govern ing</w> 3091
Exc use</w> 3091
Custom er</w> 3091
endor sed</w> 3090
f ound 3089
er ic</w> 3089
compul sory</w> 3089
f estival</w> 3087
mo dule</w> 3087
Palest ine</w> 3087
foreig ners</w> 3087
re views</w> 3086
are ly</w> 3086
eng agement</w> 3086
it ably</w> 3085
ai red</w> 3085
fac tories</w> 3085
Com pan 3084
restaur ants</w> 3084
brilli ant</w> 3084
Treat ment</w> 3082
decl are</w> 3081
E r 3080
man ual</w> 3080
ten ds</w> 3080
tan eous</w> 3079
j et</w> 3078
In cre 3078
unpreced ented</w> 3078
rec ording</w> 3077
organiz ing</w> 3077
autonom y</w> 3077
s ophistic 3076
S ig 3076
Liber ia</w> 3076
st al 3075
int end</w> 3075
shar ply</w> 3075
ga thering</w> 3075
Phil ipp 3075
lu gg 3074
Col l 3073
demon stration</w> 3073
Ang el 3073
me tr 3072
Sur vey</w> 3072
coun ts</w> 3071
In ter</w> 3071
guar ding</w> 3071
extr action</w> 3071
girl friend</w> 3071
Accor dingly</w> 3070
sev enth</w> 3070
M uch</w> 3069
politici ans</w> 3069
internation ally</w> 3069
di verse</w> 3067
sovere ign</w> 3067
Nig er 3066
bu ff 3065
V I</w> 3064
mus eum</w> 3064
p ast 3063
S et</w> 3063
p .</w> 3062
mo ther 3062
ig no 3062
ome ter</w> 3062
up dated</w> 3062
list ened</w> 3062
ev ed</w> 3056
ag gre 3056
port fol 3056
Gaz a</w> 3056
dis pat 3055
respon ses</w> 3055
H O 3054
gr ay</w> 3054
V ari 3053
di str 3053
Q ing 3052
accompl ish</w> 3052
v y</w> 3051
un cle</w> 3051
execu ted</w> 3051
guaran tees</w> 3051
fle w</w> 3050
B an 3049
cent uries</w> 3048
occas ions</w> 3048
incre di 3047
prof ession</w> 3047
promis es</w> 3047
d ents</w> 3046
grap h</w> 3046
fortun ate</w> 3046
Certific ate</w> 3046
Mus eum</w> 3045
defic i 3045
cen ters</w> 3045
bra ve</w> 3045
box es</w> 3045
ev ident</w> 3043
com promise</w> 3043
sty les</w> 3043
SC E</w> 3043
ch ol 3041
vi g 3041
wal ks</w> 3041
L aw 3040
cr ude</w> 3040
wit n 3040
lay out</w> 3040
speak s</w> 3040
C P 3039
C O</w> 3039
al k 3039
th west</w> 3037
hy draulic</w> 3037
ep h</w> 3036
econom ists</w> 3036
col leges</w> 3036
weak ness</w> 3035
sub regional</w> 3033
method ology</w> 3033
h ire</w> 3032
m ast 3032
ing er</w> 3031
Wor ks</w> 3031
out look</w> 3030
bac ked</w> 3029
v in 3028
class ical</w> 3028
st aying</w> 3026
uc tu 3026
rel uc 3026
1 1. 3025
su its</w> 3025
ei ve</w> 3024
l o</w> 3022
k ingdom</w> 3022
im bur 3022
grati tude</w> 3022
Ac tually</w> 3021
preserv ation</w> 3021
b ars</w> 3020
ol en</w> 3019
pe red</w> 3019
radi o 3019
hel icop 3018
hon ey</w> 3018
scen ari 3017
on ary</w> 3016
g est 3014
li able</w> 3014
repeat edly</w> 3014
lo v 3013
Com pl 3013
man dates</w> 3012
di stor 3009
pr ince</w> 3009
assign ment</w> 3009
deep er</w> 3008
Dan iel</w> 3007
navi gation</w> 3007
cal end 3006
consequ ence</w> 3006
frac ture</w> 3005
en za</w> 3004
engine er</w> 3004
Bet ween</w> 3004
M ul 3003
resp ected</w> 3003
vac u 3003
a warded</w> 2999
to oth</w> 2999
dev ast 2999
Atl antic</w> 2998
p oo 2997
2 7 2997
Te am</w> 2997
promp tly</w> 2997
D ue</w> 2996
ak er</w> 2996
Ne ther 2995
f ati 2994
J am 2994
reserv ation</w> 2994
country side</w> 2994
C ent 2993
re sistant</w> 2993
Gr and 2993
fro zen</w> 2993
Jos eph</w> 2993
N an 2992
war ming</w> 2992
grap hic</w> 2989
Dis cus 2989
Str at 2989
woo den</w> 2988
occup ational</w> 2987
aggres sive</w> 2987
bor row</w> 2986
sp ots</w> 2985
bud getary</w> 2985
A B 2984
p ale</w> 2984
p ushing</w> 2984
with draw</w> 2984
mat h</w> 2984
Hos p 2984
stri ve</w> 2983
tun nel</w> 2983
be ars</w> 2982
pl ates</w> 2981
fl uctu 2981
Nat ural</w> 2980
du al</w> 2979
tis m</w> 2979
broad cast</w> 2979
assist ed</w> 2978
mathematic al</w> 2978
M ater 2977
re patri 2977
thor ough</w> 2977
f ting</w> 2976
ha dn</w> 2972
pos sibilities</w> 2972
Compan ies</w> 2972
P ho 2971
e ager</w> 2970
12 . 2970
decreas ed</w> 2970
wel ding</w> 2969
L ake</w> 2968
predic t</w> 2968
reservo ir</w> 2966
cr ying</w> 2965
W A</w> 2964
Pol y 2964
H aw 2963
ke en</w> 2963
pot entially</w> 2963
acknowled ged</w> 2963
D E 2962
N ature</w> 2962
as cular</w> 2962
semin ars</w> 2962
promul gated</w> 2960
S uc 2959
ir ts</w> 2959
dau gh 2959
men u</w> 2958
Prof essional</w> 2958
oper ated</w> 2957
settl ements</w> 2957
B oo 2956
op ing</w> 2956
b ag 2955
8 9</w> 2955
concentr ated</w> 2955
8 4</w> 2954
Un til</w> 2954
bat tery</w> 2954
par king</w> 2953
emo tion</w> 2953
Recog n 2953
rup ted</w> 2952
b acks</w> 2951
ot ted</w> 2951
tum or</w> 2950
A th 2948
en vel 2947
tal ents</w> 2947
valu ed</w> 2947
s or</w> 2946
pass es</w> 2946
liter ary</w> 2946
pac ked</w> 2945
Hosp ital</w> 2945
bu yers</w> 2944
wi reless</w> 2944
bi an</w> 2944
win ner</w> 2944
defin ite</w> 2943
Con trac 2941
f lies</w> 2939
pl enary</w> 2939
off ence</w> 2939
US A</w> 2939
dic tionary</w> 2938
protec tive</w> 2938
Swit zer 2938
D NA</w> 2937
cap ture</w> 2937
stoc k 2937
i tive</w> 2936
inter ior</w> 2936
fl ame</w> 2936
respon ded</w> 2936
foc uses</w> 2935
cool ing</w> 2935
d am</w> 2934
Air port</w> 2934
em en</w> 2933
zz le</w> 2931
Or der</w> 2930
e ag 2929
re medi 2929
S har 2927
Canad ian</w> 2927
journ alists</w> 2927
meaning ful</w> 2927
phos ph 2927
to il 2926
qui etly</w> 2926
barri ers</w> 2926
Republic an</w> 2926
Viet nam</w> 2926
sing er</w> 2925
Ap pe 2925
mi ghty</w> 2924
fu zzy</w> 2923
fol k</w> 2923
mut ually</w> 2921
simul taneously</w> 2921
classi c</w> 2921
Re al</w> 2920
ris es</w> 2920
Oc ean</w> 2920
th read</w> 2919
par ad 2918
teor ological</w> 2918
dr unk</w> 2917
th at 2916
join ing</w> 2916
fif tieth</w> 2916
M em 2915
in ating</w> 2915
is ely</w> 2915
c ali 2914
curricul um</w> 2914
F D 2913
H ai 2913
compati ble</w> 2913
199 0s</w> 2912
pro tocol</w> 2911
rupt cy</w> 2911
ste in</w> 2910
kne e</w> 2910
Switzer land</w> 2910
gen es</w> 2908
conf id 2908
del ayed</w> 2906
bud gets</w> 2905
L earning</w> 2904
di an</w> 2904
TA D</w> 2903
consider ations</w> 2902
acces sible</w> 2902
f ted</w> 2901
M L</w> 2900
Le hman</w> 2898
robo t</w> 2896
di dnt</w> 2895
w ounded</w> 2894
peri odic</w> 2894
peace keeping</w> 2894
hun ger</w> 2893
subsi dies</w> 2893
ar ization</w> 2892
quali fication</w> 2892
C lu 2891
i. e.</w> 2891
sho e</w> 2890
ou l</w> 2888
pe p 2888
vir tue</w> 2888
explos ion</w> 2888
in form 2887
b ad 2886
bes ides</w> 2886
will ingness</w> 2886
b os 2885
d ose</w> 2884
ro gen</w> 2884
tr ain 2883
s ang</w> 2882
isl ands</w> 2882
favour able</w> 2882
diam ond</w> 2882
ak a</w> 2881
pow ered</w> 2880
uni or</w> 2880
harv est</w> 2880
Parti cip 2880
th rown</w> 2879
my ster 2879
coordin ates</w> 2879
M echan 2878
adv ancement</w> 2878
corpor ations</w> 2878
UNF PA</w> 2876
r i</w> 2875
un ited</w> 2874
dis appeared</w> 2874
vo id</w> 2874
5 , 2873
in habit 2873
en vis 2873
collec ting</w> 2873
E s 2872
UNC TAD</w> 2872
br on 2871
sli de</w> 2871
re imbur 2870
eli gible</w> 2870
ub s</w> 2869
inst all</w> 2868
Swe den</w> 2868
res ort</w> 2867
inter im</w> 2867
ed itor</w> 2866
up s</w> 2866
Aut om 2866
ad mir 2865
cigaret te</w> 2865
ni an</w> 2864
exc it 2864
Com m 2863
Pers onal</w> 2863
bene fici 2862
e aten</w> 2861
T own</w> 2861
ris en</w> 2861
M ulti 2860
m ill</w> 2860
Wh oever</w> 2860
mor ph 2860
deri v 2859
Statis tics</w> 2858
. A</w> 2857
Y outh</w> 2857
b ite</w> 2856
re fr 2856
stead ily</w> 2856
de duc 2853
he dge</w> 2853
eli hood</w> 2853
trac king</w> 2853
S qu 2852
m ud</w> 2852
or ph 2852
isol ated</w> 2852
Aut onom 2851
RM B</w> 2851
. It</w> 2850
m ers</w> 2850
pr icing</w> 2849
Ex port</w> 2849
f lights</w> 2848
H al 2848
H an</w> 2848
ic h 2847
te ar</w> 2847
enjo ying</w> 2847
hi red</w> 2846
Str uc 2846
en ly</w> 2845
Prov isions</w> 2845
su icide</w> 2843
nor ms</w> 2843
Po st 2843
resum ed</w> 2842
es is</w> 2841
Pr acti 2841
prepar atory</w> 2840
anxi ety</w> 2839
writ ers</w> 2838
bab ies</w> 2838
Scienti sts</w> 2838
i us</w> 2837
diplom acy</w> 2837
pr ud 2836
dam ages</w> 2836
sent ences</w> 2836
got ta</w> 2836
daugh ters</w> 2836
M ach 2835
so red</w> 2835
gri d</w> 2834
p h</w> 2833
T ang</w> 2833
ne uro 2833
shoul ders</w> 2833
r d</w> 2832
Sh a</w> 2832
bur ned</w> 2832
pack aging</w> 2832
l ap 2830
A l</w> 2830
In tro 2830
ran ch</w> 2830
capac ities</w> 2830
c au 2829
incorpor ated</w> 2829
g ently</w> 2828
en abled</w> 2828
s wal 2827
1 20</w> 2826
ill ary</w> 2826
expl ains</w> 2826
ess entially</w> 2825
fo ster</w> 2825
independ ently</w> 2825
semin ar</w> 2824
l av 2823
f ought</w> 2823
J ac 2823
integr ate</w> 2823
Dru g</w> 2823
M and 2822
Mar ine</w> 2822
ign ore</w> 2820
dep uty</w> 2819
coordin ating</w> 2819
e ffic 2818
I R 2818
A ward</w> 2817
ri ding</w> 2817
plan ted</w> 2817
manufactu rer</w> 2817
initi ally</w> 2815
vot es</w> 2815
9 7</w> 2814
constitu tion</w> 2814
Cri me</w> 2814
e ks</w> 2813
Oper ations</w> 2813
tar geted</w> 2812
suppl ied</w> 2812
en abling</w> 2811
pl un 2811
p ts</w> 2810
co ating</w> 2809
jo ke</w> 2809
tra it</w> 2809
boo m</w> 2808
un expected</w> 2807
chec ks</w> 2807
arg uments</w> 2807
ad dy</w> 2805
trans mitted</w> 2805
ret ain</w> 2805
del icate</w> 2805
Proc ed 2804
r aft</w> 2803
ro pe</w> 2803
ex emp 2803
trav eling</w> 2803
X in 2802
it ative</w> 2801
str anger</w> 2801
a rest</w> 2800
anc er</w> 2799
assess ments</w> 2799
gentlem an</w> 2799
re porters</w> 2798
Con t 2796
od d</w> 2795
trag edy</w> 2795
rec y 2794
phys ics</w> 2794
dynam ics</w> 2794
absor ption</w> 2794
S r</w> 2793
di o</w> 2792
adop ting</w> 2792
influ ences</w> 2792
Pro gram</w> 2791
O il</w> 2790
as is</w> 2790
associ ations</w> 2790
Moder n</w> 2790
Clu b</w> 2790
U p</w> 2789
at oes</w> 2789
E arly</w> 2788
sk illed</w> 2787
rel ax 2786
w oods</w> 2785
Electr onic</w> 2785
pro minent</w> 2784
grad ing</w> 2784
consist ently</w> 2784
hor ri 2783
FA O</w> 2783
P ear 2782
in tim 2782
reser ved</w> 2782
Maj or</w> 2782
Jour nal</w> 2782
thro at</w> 2781
ber y</w> 2780
consul t</w> 2780
e uro</w> 2779
p ap 2779
2 3 2779
di min 2779
am ine</w> 2779
dis hes</w> 2779
ut ory</w> 2779
her o 2779
dimen sions</w> 2779
allo y</w> 2779
d awn</w> 2778
expres sions</w> 2778
s light</w> 2777
dispens able</w> 2777
accur ately</w> 2776
pregn ancy</w> 2776
for give</w> 2775
Guang zhou</w> 2775
Agricul ture</w> 2775
Budd h 2775
m asses</w> 2774
crow ded</w> 2773
Nether lands</w> 2773
er able</w> 2771
dec ides</w> 2770
condu cive</w> 2770
p a</w> 2768
ev es</w> 2767
entr usted</w> 2767
ec os 2766
ch ina</w> 2766
r ail</w> 2765
as sured</w> 2765
rec re 2765
vari ation</w> 2765
ro g 2764
Pe o 2764
public ity</w> 2764
bl an 2763
produc er</w> 2763
Sec urities</w> 2763
righ te 2763
pi ano</w> 2762
sal aries</w> 2761
b a</w> 2760
psych ology</w> 2760
l ingu 2759
calcul ate</w> 2759
smil ed</w> 2759
d ens</w> 2758
br al</w> 2758
no tify</w> 2757
encoun tered</w> 2757
ak en</w> 2756
B ir 2755
bid ding</w> 2755
B est</w> 2754
Li ght</w> 2754
veri fy</w> 2754
p ity</w> 2753
I l 2753
oun ced</w> 2753
J ack 2752
sev erely</w> 2752
detec ted</w> 2752
ban ds</w> 2751
vol ati 2751
bed room</w> 2751
id ers</w> 2750
sel ler</w> 2750
No body</w> 2750
mod est</w> 2750
promp t</w> 2749
Bro ad 2749
ven ue</w> 2747
adv ances</w> 2747
syn thesis</w> 2747
shor tly</w> 2746
grav ity</w> 2746
bu m 2745
rest oration</w> 2744
res sion</w> 2743
ke eper</w> 2743
introduc ing</w> 2743
sensi tivity</w> 2743
pr ay</w> 2742
br ands</w> 2741
gener ous</w> 2741
arti sts</w> 2741
dil ig 2741
summar ized</w> 2741
r ank</w> 2740
it ated</w> 2740
expec ts</w> 2740
2 ,000</w> 2739
Hist ory</w> 2739
D al 2738
N one</w> 2738
si on 2738
me tric</w> 2738
i fication</w> 2737
at ter</w> 2737
control ler</w> 2737
solid arity</w> 2737
ultr as 2737
Musli m</w> 2737
ad ium</w> 2736
we ren</w> 2736
connec tions</w> 2736
conven tions</w> 2736
l ung</w> 2735
ri val</w> 2734
Ch eck</w> 2734
B ol 2733
sp ati 2733
car riage</w> 2733
I ll</w> 2732
st h</w> 2732
No . 2732
Un less</w> 2730
C ath 2729
An ti</w> 2729
tu m</w> 2729
che er 2727
Malay sia</w> 2727
succe eded</w> 2726
am i</w> 2724
wor th 2724
Thom as</w> 2724
re tired</w> 2723
bow l</w> 2723
H i</w> 2722
el et</w> 2722
ann ually</w> 2722
comb ine</w> 2720
advertis ement</w> 2720
brea thing</w> 2720
s ne 2718
y eah</w> 2717
S pi 2717
ent ine</w> 2716
gr ass 2716
requ iring</w> 2716
li am 2715
recru itment</w> 2715
audi o</w> 2714
wil d 2713
cros sed</w> 2713
Ku wait</w> 2712
model ing</w> 2711
effici ently</w> 2710
ug ly</w> 2710
PD F</w> 2710
molec ular</w> 2709
S wis 2708
fri ger 2708
discus sing</w> 2708
ap ologi 2707
ex em 2707
O ut</w> 2706
or ange</w> 2706
tor ture</w> 2705
pain ted</w> 2705
re friger 2704
def ects</w> 2704
scienti st</w> 2704
T en 2703
rec alled</w> 2703
compreh en 2703
St ri 2701
pri est</w> 2701
att acked</w> 2700
stam ps</w> 2700
prosecu tion</w> 2700
renew ed</w> 2699
I A</w> 2698
bas es</w> 2698
flo ating</w> 2698
k o 2696
se g 2696
S ports</w> 2695
ter ies</w> 2693
10 ,000</w> 2693
cont est</w> 2692
Con serv 2692
grad es</w> 2692
purch ased</w> 2692
s our 2691
T aj 2690
me als</w> 2689
hear t 2689
rang ing</w> 2689
e. g.</w> 2689
whol es 2689
Pr inc 2688
horizon tal</w> 2688
calend ar</w> 2688
B il 2687
su es</w> 2687
Ac ti 2687
ci um</w> 2686
in dispensable</w> 2685
op ens</w> 2684
uni fication</w> 2684
kin dness</w> 2684
T ot 2683
Per sons</w> 2683
sh ook</w> 2682
br ac 2682
n an</w> 2681
er os 2681
it ude</w> 2681
at us</w> 2681
moder ate</w> 2681
ex es</w> 2680
le dge</w> 2680
iti onally</w> 2680
competi tiveness</w> 2680
att ach</w> 2679
Sen ate</w> 2679
oo th 2678
Sh all</w> 2678
hand some</w> 2678
DV D</w> 2678
X inj 2677
ol ic</w> 2677
au g 2677
aff ection</w> 2677
commun ic 2677
congres ses</w> 2677
sist ers</w> 2676
ine a</w> 2675
r at</w> 2674
E l</w> 2674
bank ruptcy</w> 2674
gram s</w> 2673
L ist</w> 2672
S E 2672
A G 2671
ni ghts</w> 2671
se gment</w> 2670
min ded</w> 2670
Human itarian</w> 2670
h et 2669
cul p 2669
your e</w> 2669
A R</w> 2668
ter ror</w> 2668
Nor way</w> 2668
P o</w> 2667
econom ist</w> 2667
fra ud</w> 2667
Strat egy</w> 2667
sp ell</w> 2666
develop s</w> 2665
vacu um</w> 2665
M ay 2663
sub jected</w> 2663
choos ing</w> 2663
res ist</w> 2662
out lined</w> 2662
clust er</w> 2662
ell a</w> 2661
No tice</w> 2661
down load</w> 2661
spec tac 2660
A ud 2658
Y uan</w> 2658
inter f 2658
discipl inary</w> 2658
P ass 2656
vir tually</w> 2656
Swis s</w> 2656
rel la</w> 2655
bor ing</w> 2655
analy sed</w> 2654
gener ating</w> 2654
st an</w> 2653
sor row</w> 2653
m ess</w> 2652
Har v 2652
W u 2651
H ab 2651
appe als</w> 2651
inf ected</w> 2650
distinc tion</w> 2650
h oo 2649
Prepar atory</w> 2649
Simil arly</w> 2649
W en</w> 2647
as ive</w> 2647
at titudes</w> 2645
Con sum 2645
GO s</w> 2645
compl ain</w> 2644
Ro yal</w> 2644
comp uting</w> 2643
L ands</w> 2642
li t</w> 2642
ari ties</w> 2641
jac ket</w> 2641
l ecture</w> 2640
j i</w> 2640
se di 2640
air y</w> 2640
desig ner</w> 2640
nur se</w> 2640
off set</w> 2639
pul se</w> 2639
assist ing</w> 2639
schol ars</w> 2639
we althy</w> 2638
2 nd</w> 2636
win ds</w> 2636
imp ul 2636
publis hing</w> 2636
lo ver</w> 2635
sha me</w> 2635
S ure</w> 2634
T A</w> 2634
L os</w> 2633
p ays</w> 2633
Exper ts</w> 2632
degrad ation</w> 2632
P et 2631
D own 2631
dis order</w> 2631
prec isely</w> 2631
incl usion</w> 2630
fre ight</w> 2630
lif ting</w> 2630
sha ft</w> 2629
gr ound 2628
proc ur 2628
ot a</w> 2627
ess ly</w> 2627
read er</w> 2627
capit a</w> 2627
diab etes</w> 2627
B or 2626
peri o 2626
Par t 2626
syn drome</w> 2625
phr ase</w> 2625
c ess 2624
mat ching</w> 2624
sc and 2624
Oper ation</w> 2624
Ji ang 2624
Territ ory</w> 2624
membran e</w> 2624
g au 2623
As k</w> 2623
surve ys</w> 2623
for th 2622
en ables</w> 2621
ce iling</w> 2621
Stan ley</w> 2621
rad ar</w> 2620
abund ant</w> 2620
O f 2619
lo y 2618
eth ics</w> 2618
n asty</w> 2617
L uc 2617
p m</w> 2617
af for 2617
refl ecting</w> 2617
p av 2616
ome ters</w> 2616
Char ac 2616
inqu iry</w> 2616
Win dows</w> 2616
g az 2615
l anding</w> 2615
on ate</w> 2615
Exc ell 2615
veget able</w> 2615
poll ut 2615
thresh old</w> 2615
e ge</w> 2614
plan es</w> 2614
consolid ation</w> 2614
imp acts</w> 2613
p. m.</w> 2613
cy cl 2612
Im prov 2612
Ag ain</w> 2612
S top</w> 2611
Enter prises</w> 2611
ste al</w> 2610
r oughly</w> 2609
Ex pl 2609
fati gue</w> 2609
che aper</w> 2608
auth entic 2608
j ust 2607
met abol 2607
bul k</w> 2607
d a 2606
oc e 2606
Cul ture</w> 2606
P ati 2605
N GOs</w> 2605
W here 2604
2 4 2604
ar chi 2603
g aining</w> 2602
i est</w> 2602
b ent</w> 2602
bub ble</w> 2602
r ough 2601
un necessary</w> 2601
ul ty</w> 2601
Ti an 2601
bar rel</w> 2601
Cur rently</w> 2601
un happy</w> 2600
ch ant</w> 2600
r ings</w> 2599
the id</w> 2599
nov ation</w> 2599
G ulf</w> 2598
pati ence</w> 2598
Aust ria</w> 2598
P sy 2597
T su 2597
jour nal</w> 2597
hydro gen</w> 2597
apprais al</w> 2597
A TION</w> 2596
G al 2596
agre es</w> 2596
sle pt</w> 2596
cl ever</w> 2595
ho c</w> 2595
El ection</w> 2595
v ise</w> 2594
ab ul 2594
win d 2593
install ations</w> 2592
Produc tion</w> 2592
feren tial</w> 2592
ber ry</w> 2591
h ob 2590
c ub 2590
she ets</w> 2590
ard ous</w> 2590
r ite</w> 2589
N ow 2589
lab el</w> 2589
occ er</w> 2589
S S</w> 2588
R oom</w> 2588
O B 2587
ac knowledge</w> 2587
tr ick</w> 2587
div ide</w> 2587
Cl ass</w> 2587
f uc 2586
U l 2586
dra g</w> 2586
oul try</w> 2586
Dig ital</w> 2586
gi d</w> 2585
Gold man</w> 2585
effic acy</w> 2585
C T</w> 2584
Loo king</w> 2584
M R 2583
d d 2583
R os 2583
U g 2583
con gress</w> 2583
Ad d</w> 2583
stret ch</w> 2583
sco res</w> 2583
d ent</w> 2582
B ack</w> 2582
st olen</w> 2582
author ization</w> 2582
expec ting</w> 2582
pursu ing</w> 2582
p it</w> 2581
I B 2581
work shops</w> 2580
. com</w> 2579
ch ur 2579
de pri 2578
dis gu 2578
med al</w> 2578
re vi 2577
some how</w> 2577
fru str 2577
spon sored</w> 2577
. 鈥</w> 2576
che ese</w> 2576
spir its</w> 2576
ren dered</w> 2575
ministr y</w> 2574
r am 2573
O x 2573
ha ir 2573
pres sures</w> 2573
accoun tability</w> 2573
anticip ated</w> 2573
decisi ve</w> 2572
C E</w> 2571
li br 2571
war s</w> 2571
Rel ations</w> 2571
bic ycle</w> 2571
Al most</w> 2570
consider ably</w> 2570
TI VE</w> 2570
An im 2568
ke wise</w> 2568
We ap 2568
knoc k</w> 2568
sophistic ated</w> 2568
cros sing</w> 2567
pill ar</w> 2567
A long</w> 2566
m ou 2566
in adequate</w> 2566
identi fying</w> 2566
let ting</w> 2565
ir rit 2564
pris ing</w> 2564
Bo b</w> 2564
d ressing</w> 2563
ag ging</w> 2563
ener y</w> 2563
col or 2563
accoun ted</w> 2563
m ile</w> 2562
C ain</w> 2561
le an 2561
k n 2560
un ch</w> 2559
enti ves</w> 2559
Gu id 2559
s p</w> 2558
bo ats</w> 2557
sel dom</w> 2557
ed oms</w> 2557
Po int</w> 2557
gre y</w> 2556
issu ing</w> 2556
Develop ing</w> 2556
inst inc 2556
t us</w> 2555
in spired</w> 2555
bu m</w> 2555
la b</w> 2555
W at 2554
d .</w> 2554
dro ps</w> 2554
pi g</w> 2554
propos es</w> 2554
portfol io</w> 2554
H and 2553
re vision</w> 2553
D S</w> 2552
or ous</w> 2552
st ery</w> 2552
ar c 2551
loo p</w> 2551
analy tical</w> 2551
Pa ul 2551
g ast 2550
B on 2550
attemp ted</w> 2550
im aging</w> 2549
char ging</w> 2549
invest ing</w> 2549
canc el</w> 2548
reven ues</w> 2548
de plo 2547
at ings</w> 2546
Fi eld</w> 2546
cam ps</w> 2546
eu tic</w> 2546
negoti ating</w> 2544
argu ed</w> 2544
Afgh an</w> 2544
phenomen a</w> 2544
Princi ples</w> 2544
stri p</w> 2543
mus ical</w> 2543
EC O 2543
where as</w> 2542
er o 2541
is k</w> 2541
temper atures</w> 2541
C C</w> 2540
ran ks</w> 2539
seis mic</w> 2539
il legally</w> 2538
govern or</w> 2538
e ball</w> 2536
im migration</w> 2536
sc ared</w> 2536
Addi tional</w> 2535
Re affir 2534
s en</w> 2533
k m</w> 2533
h yp 2532
h ills</w> 2532
tic ul 2532
eth ical</w> 2531
S U 2530
sp reading</w> 2530
prin cess</w> 2530
u li 2529
p ink</w> 2529
pro jec 2529
be ef</w> 2529
Sus an</w> 2529
n av 2528
F lor 2528
ap y</w> 2528
cas u 2528
accep ting</w> 2528
mil li 2527
cap tured</w> 2527
hun ting</w> 2527
en tive</w> 2526
subsequ ently</w> 2525
d ull</w> 2524
es el</w> 2524
ad hes 2524
anx ious</w> 2524
John son</w> 2523
le isure</w> 2522
hy bri 2522
198 7</w> 2522
stic ks</w> 2522
li er</w> 2521
appreci ated</w> 2521
perc eived</w> 2521
-- - 2520
O AU</w> 2519
fa x</w> 2519
ali ke</w> 2519
cultiv ation</w> 2519
convic tion</w> 2519
mag nit 2517
eleg ant</w> 2517
Xinj iang</w> 2517
I d</w> 2516
198 0</w> 2516
IM F</w> 2516
bl u 2515
Des cri 2515
Eff ect</w> 2515
b our 2514
min er 2514
figu red</w> 2514
i x</w> 2513
pl ug</w> 2513
do or 2513
Niger ia</w> 2513
analy st</w> 2512
D aily</w> 2511
q ing</w> 2511
cat tle</w> 2511
quar antine</w> 2511
Sub committee</w> 2511
differen tial</w> 2511
ret ro 2510
post ed</w> 2510
gras p</w> 2510
no tion</w> 2509
id en 2509
olo gic</w> 2509
rul ed</w> 2509
K o 2508
ad mission</w> 2508
fe at 2508
dev il</w> 2508
ingredi ents</w> 2508
wol f</w> 2508
delic ious</w> 2508
he l</w> 2507
Not es</w> 2506
non linear</w> 2506
accommod ation</w> 2506
no ble</w> 2505
cre ativity</w> 2505
wi ves</w> 2505
spati al</w> 2505
S han 2504
fl ed</w> 2504
person ally</w> 2503
B O 2502
requ isite</w> 2502
appl i 2502
compar ative</w> 2502
volunte ers</w> 2502
u el</w> 2501
ach ment</w> 2501
mid night</w> 2501
Hol y</w> 2501
igno red</w> 2501
fa ults</w> 2500
flow ing</w> 2500
Bos nian</w> 2500
Practi ce</w> 2500
min bi</w> 2499
quanti tative</w> 2499
Bl ue</w> 2499
dr ama</w> 2498
rec eption</w> 2497
UNO MI 2497
T O 2496
Com par 2495
autom obile</w> 2495
hy giene</w> 2494
S ay</w> 2493
z o 2493
z er</w> 2493
dis placement</w> 2493
predic tion</w> 2492
K w 2491
vers al</w> 2491
omet res</w> 2491
v enti 2490
col ored</w> 2490
roc ket</w> 2490
ever age</w> 2489
show er</w> 2489
ad he 2488
sur ge</w> 2488
inf ant</w> 2488
sl ope</w> 2488
Some one</w> 2488
knoc ked</w> 2488
cre atures</w> 2487
an ium</w> 2486
lin k 2486
Sud denly</w> 2486
smil ing</w> 2486
con science</w> 2484
bu yer</w> 2484
predic ted</w> 2484
classi fied</w> 2484
deliber ations</w> 2484
T in</w> 2483
Turk ish</w> 2483
de formation</w> 2482
Ri o</w> 2482
je al 2482
S an 2481
develop ers</w> 2481
lad ies</w> 2481
minist ering</w> 2481
y ear 2480
ag on 2480
M ol 2479
cre ature</w> 2479
th um 2478
Fr ank</w> 2478
petro leum</w> 2478
e rec 2477
et ting</w> 2477
educ ated</w> 2477
den y</w> 2477
enh ancement</w> 2477
at or 2475
kil ometres</w> 2475
inhabit ants</w> 2475
v a</w> 2474
di oxide</w> 2474
fi erce</w> 2474
tur b 2474
boy friend</w> 2474
in sufficient</w> 2473
bl ade</w> 2473
econom ically</w> 2473
Re form</w> 2473
Ret ur 2473
Angel es</w> 2473
ow ns</w> 2472
po etry</w> 2472
trad itions</w> 2472
to ys</w> 2471
struc tive</w> 2471
uni ons</w> 2471
Mon ey</w> 2471
circul ar</w> 2471
cor d</w> 2470
bre eding</w> 2469
Ag ainst</w> 2469
diff er</w> 2469
Pol and</w> 2468
engine ers</w> 2468
form ance</w> 2467
out line</w> 2467
u k 2466
a xed</w> 2466
in sec 2466
ro yal</w> 2466
saf ely</w> 2465
Every body</w> 2465
Philipp ines</w> 2465
premi um</w> 2464
war m 2463
challeng ing</w> 2463
conting ent</w> 2463
cast le</w> 2463
tribu te</w> 2462
qu iry</w> 2461
for b 2461
tl ement</w> 2461
after wards</w> 2461
threat ening</w> 2461
h il 2460
I O 2459
re mun 2459
vis a</w> 2459
priv acy</w> 2459
strugg ling</w> 2459
6 , 2458
stat utory</w> 2458
Ur ban</w> 2458
re bel 2457
ev al</w> 2457
cer am 2456
tack le</w> 2456
u ties</w> 2455
se y</w> 2455
char ity</w> 2455
fre edoms</w> 2455
objec tion</w> 2455
Enter prise</w> 2455
trans fers</w> 2454
O ffici 2453
der ness</w> 2453
public ly</w> 2453
re ar</w> 2452
earli est</w> 2452
D re 2451
m ire</w> 2451
foc al</w> 2451
F P</w> 2450
el ly</w> 2450
ste re 2450
Sen ior</w> 2450
g ent</w> 2449
G M</w> 2449
Autonom ous</w> 2448
em i 2447
neighb ouring</w> 2447
al isation</w> 2446
es cal 2446
vol can 2446
qu een</w> 2445
recei ves</w> 2445
atten ding</w> 2445
My an 2445
en ters</w> 2443
sel ls</w> 2443
modi fication</w> 2443
surr ounded</w> 2443
rhy th 2443
ap par 2442
Rec ently</w> 2442
motiv ation</w> 2442
C ard</w> 2441
tempor arily</w> 2440
magnit ude</w> 2440
ten sions</w> 2439
g in 2438
L at 2438
ro ad 2438
prov es</w> 2438
So on</w> 2438
mus cles</w> 2438
witn essed</w> 2438
us al</w> 2437
confir mation</w> 2437
Sal es</w> 2437
Exper im 2437
mid st</w> 2436
sp here</w> 2435
pi one 2435
cust ody</w> 2435
F ire</w> 2434
er arch 2434
s oc 2433
pre jud 2433
ain age</w> 2432
Har b 2432
tax ation</w> 2432
emis sion</w> 2432
Myan mar</w> 2432
under tak 2431
ful ness</w> 2431
Par liament</w> 2431
glo be</w> 2431
b old</w> 2430
op ia</w> 2430
up grade</w> 2430
reserv ations</w> 2430
incur red</w> 2430
ir ri 2429
pass port</w> 2429
was hed</w> 2429
where ver</w> 2429
indic ation</w> 2428
Sof tware</w> 2428
vi c</w> 2427
del ays</w> 2427
rest ored</w> 2427
reco vered</w> 2426
Fran k 2426
substanti ally</w> 2426
M E</w> 2425
il er</w> 2424
bo o</w> 2424
pan ic</w> 2424
won dered</w> 2424
frag ile</w> 2424
ti te</w> 2423
ra ham</w> 2423
tim ing</w> 2423
stimul us</w> 2423
y an</w> 2422
s cor 2422
In c</w> 2422
ob taining</w> 2422
mathematic s</w> 2422
en zy 2421
so oner</w> 2421
appro ached</w> 2421
ly wood</w> 2421
e on</w> 2420
c auti 2420
prov en</w> 2420
Mo vement</w> 2420
assur ance</w> 2420
be i</w> 2419
cl ay</w> 2419
He ad</w> 2419
Reg ulation</w> 2419
lay ers</w> 2419
t es 2418
sh ut 2418
scre w</w> 2418
rac ism</w> 2418
Str ate 2418
d os 2417
c ous 2417
pro test</w> 2415
coun ties</w> 2414
S on</w> 2413
b arely</w> 2413
quanti ties</w> 2413
mobil ization</w> 2413
ve ter 2411
inc entives</w> 2411
T el</w> 2410
avo ided</w> 2410
bur g</w> 2409
di c</w> 2408
pol l</w> 2408
my stery</w> 2407
rev olutionary</w> 2407
amend ment</w> 2407
insist ed</w> 2407
c um 2406
ell ation</w> 2406
Cir cular</w> 2406
privil eg 2406
h ep 2405
ph eric</w> 2405
alleg ations</w> 2405
end less</w> 2404
att end 2404
p in</w> 2403
ak e 2403
mean time</w> 2403
To o</w> 2403
Diffe rent</w> 2403
r av 2402
W ong</w> 2402
sun shine</w> 2402
UNIT A</w> 2402
un il 2401
rec ep 2401
ast on 2401
St ar</w> 2400
cr af 2400
ab stract</w> 2399
ne um 2399
set tings</w> 2399
certi fication</w> 2399
emplo y</w> 2399
aes thetic</w> 2399
ap ol 2398
perform ances</w> 2398
surpris ing</w> 2398
Tex as</w> 2398
M ur 2397
dec lar 2397
emer gencies</w> 2397
Bet ter</w> 2397
sinc erely</w> 2397
exten ding</w> 2396
re fin 2395
surg ical</w> 2395
c ut 2394
Com man 2394
ni tive</w> 2394
Clin ical</w> 2394
re aches</w> 2393
Wh enever</w> 2392
stri king</w> 2392
multi pl 2392
correc tion</w> 2392
conserv ative</w> 2392
Doc tor</w> 2392
H ence</w> 2391
1 00 2390
Un like</w> 2390
tol l</w> 2390
amend ments</w> 2390
Happ y</w> 2390
Al ex 2389
pris oner</w> 2388
extr act</w> 2388
ti ans</w> 2387
im pressive</w> 2387
tri gger</w> 2387
wit nesses</w> 2387
liqu idity</w> 2387
abul ary</w> 2387
B ag 2385
ch equ 2385
pe t 2385
Cor p.</w> 2385
cru el</w> 2385
sn ake</w> 2385
tra um 2384
thi ef</w> 2384
D ate</w> 2383
O s 2383
ff ic</w> 2383
barri er</w> 2383
ame ter</w> 2382
Col om 2382
offici ally</w> 2382
R ound</w> 2381
or th 2381
ow e</w> 2381
u a</w> 2380
happ ily</w> 2380
speci fications</w> 2380
tri um 2379
Some thing</w> 2379
ver sions</w> 2378
Gr and</w> 2378
cir cles</w> 2378
vot ed</w> 2378
Cap tain</w> 2378
Pear l</w> 2378
Ch urch</w> 2377
sub stitute</w> 2377
ann y</w> 2377
a than</w> 2376
is co</w> 2376
sacri fic 2376
bound aries</w> 2375
u sive</w> 2374
H A</w> 2374
Y u</w> 2374
re vol 2374
associ ate</w> 2374
rein forced</w> 2374
dest iny</w> 2373
S am</w> 2372
al ter</w> 2372
ev ac 2372
conc eption</w> 2369
bri de</w> 2369
constitu ted</w> 2369
perc eption</w> 2369
Wa it</w> 2368
m ust 2367
1 3. 2367
T an 2367
p itch</w> 2366
c ow 2366
T C 2366
imper ative</w> 2366
en counter</w> 2365
Sy n 2365
neighb ours</w> 2365
Tra ffic</w> 2365
T able</w> 2364
Y ou 2364
limit ations</w> 2364
cle ans 2363
D am 2362
lic en 2362
moun ted</w> 2361
n ick 2360
P hys 2360
Sy stems</w> 2360
bas in</w> 2359
bas ket</w> 2359
sor ts</w> 2359
Wel fare</w> 2359
C PC</w> 2358
dis appointed</w> 2357
loc ks</w> 2357
negoti ate</w> 2357
S T</w> 2356
si p 2356
ins ist</w> 2356
t ang 2354
E D 2354
tr ap</w> 2354
dem anded</w> 2353
il ian</w> 2352
respec ts</w> 2352
ad o</w> 2351
laugh ed</w> 2351
Premi er</w> 2351
no tification</w> 2350
im pressed</w> 2350
C air 2349
isol ation</w> 2349
alumin um</w> 2349
Acti vities</w> 2349
see ks</w> 2348
Of ten</w> 2348
Ob server</w> 2347
v isi 2346
ter n</w> 2346
ter ior</w> 2346
r age</w> 2345
p assi 2345
neighb or</w> 2345
monopol y</w> 2345
a wards</w> 2344
V e 2344
ro d</w> 2344
less ly</w> 2344
dead line</w> 2343
s al</w> 2342
j in</w> 2342
un anim 2342
distingu ished</w> 2342
K im</w> 2341
co efficient</w> 2341
Ass ess 2340
N either</w> 2339
un ning</w> 2339
prev ented</w> 2339
ol ine</w> 2338
pharmaceu tical</w> 2337
gu iding</w> 2336
thir ds</w> 2336
regre t 2336
S aud 2335
k ings</w> 2335
sal v 2335
def endant</w> 2335
s atur 2334
M obile</w> 2334
CE O</w> 2334
pol e</w> 2333
mer cy</w> 2333
sol ic 2333
inten ds</w> 2332
pal ace</w> 2332
expe di 2331
ri ght 2330
coun ted</w> 2330
tri als</w> 2330
Harv ard</w> 2329
vari ables</w> 2328
consolid ated</w> 2328
p se</w> 2327
H ear 2327
regul ate</w> 2327
deser ves</w> 2327
m our 2326
7 , 2326
be hold</w> 2325
ome try</w> 2325
occur rence</w> 2325
laugh ing</w> 2325
par ticle</w> 2324
dr illing</w> 2324
competi tors</w> 2324
HK SAR</w> 2324
S C</w> 2323
T ask</w> 2323
C alls</w> 2323
V ill 2323
trou bled</w> 2323
Spi rit</w> 2323
iden tical</w> 2323
pain tings</w> 2322
b are</w> 2321
po et</w> 2321
acqu ain 2320
bed ded</w> 2320
ad er</w> 2319
Ad d. 2318
organ isation</w> 2318
ju ven 2318
Ques tions</w> 2318
Bul g 2318
Tour ism</w> 2318
trav el 2317
furn ace</w> 2317
in ch</w> 2316
s on 2315
N or</w> 2315
s culp 2314
des pair</w> 2314
Re ad</w> 2314
vo ices</w> 2314
coun cil</w> 2313
M usic</w> 2312
om ed</w> 2311
Any one</w> 2311
rel ay</w> 2310
N umber</w> 2309
se em 2309
ran ean</w> 2309
Ste ve</w> 2309
neighb ors</w> 2309
liber ty</w> 2309
D ri 2308
comb ining</w> 2308
ili bri 2308
erad ication</w> 2308
re feren 2307
Stud ent</w> 2307
B en</w> 2306
Y ang 2306
ess ay</w> 2306
cha ir 2306
1 4. 2305
O rig 2305
acti c</w> 2305
contr actual</w> 2305
E th 2304
pre cip 2304
grand father</w> 2304
C SCE</w> 2303
re ferences</w> 2303
sc ar</w> 2303
post p 2303
F ord</w> 2302
contr actor</w> 2302
p ound</w> 2301
dem anding</w> 2301
hot els</w> 2301
therap eutic</w> 2301
edi tion</w> 2301
L I 2300
L og 2300
belong ing</w> 2300
C lim 2299
N .</w> 2299
sc al 2299
def ect</w> 2299
but ter</w> 2299
s occer</w> 2298
P ic 2298
mil d</w> 2298
eng aging</w> 2298
Im port</w> 2298
Val entine</w> 2298
comp ounds</w> 2297
ation . 2297
ques tioned</w> 2297
Y a 2296
al istic</w> 2296
go ds</w> 2295
St amp</w> 2295
hum or</w> 2295
inte st 2295
vie wer</w> 2295
persist ent</w> 2295
k es 2294
facilit ating</w> 2294
pr o</w> 2293
embar go</w> 2293
moist ure</w> 2293
C amp 2292
al ert</w> 2292
ful filled</w> 2292
cris es</w> 2292
credi bility</w> 2292
D utch</w> 2291
announ ce</w> 2291
Gr ad 2290
rad ical</w> 2290
Y un 2289
at ri 2289
fin anced</w> 2289
TE R 2289
h ence</w> 2288
ch ap 2288
car cin 2288
chec k 2288
F ut 2287
v .</w> 2287
mon d</w> 2287
prob ability</w> 2287
long ed</w> 2287
and y</w> 2286
absor bed</w> 2286
ON S</w> 2285
Den mark</w> 2285
Medic ine</w> 2285
y nam 2284
am ended</w> 2284
bus tion</w> 2284
exam ining</w> 2284
obli ged</w> 2284
lo ads</w> 2283
mul tin 2283
a. m.</w> 2283
draf ting</w> 2283
el eph 2282
reduc es</w> 2282
el astic</w> 2281
pro ph 2281
Coun try</w> 2280
cal cium</w> 2280
deli ght</w> 2280
col um 2279
dec om 2278
Pro b 2278
Mac au</w> 2278
repatri ation</w> 2278
p oultry</w> 2277
w ay 2277
lo d 2277
bl ast</w> 2277
bal ances</w> 2277
haz ardous</w> 2277
optimis tic</w> 2277
Inspec tion</w> 2277
Emer gency</w> 2277
m asters</w> 2276
2 50</w> 2276
ha b 2276
pub lish</w> 2276
Ste ph 2276
Sal v 2276
exerc ising</w> 2275
E thi 2274
j ury</w> 2274
plo t</w> 2274
indic ating</w> 2274
or derly</w> 2273
stre am 2273
R oc 2272
pe l</w> 2272
swe ar</w> 2272
Bel gi 2272
Plat form</w> 2272
in stances</w> 2271
be ating</w> 2271
Administr ator</w> 2271
tax pay 2271
magaz ines</w> 2271
X X 2270
accum ulation</w> 2270
l aying</w> 2269
E limin 2269
c tic</w> 2269
J on 2269
ro l</w> 2269
f itting</w> 2268
A MI 2268
S OM</w> 2267
ak ers</w> 2267
198 5</w> 2267
curren cies</w> 2267
Cy pr 2267
herit ance</w> 2267
Offici als</w> 2267
sh elf</w> 2266
est e 2266
environ ments</w> 2266
pay able</w> 2266
g eting</w> 2265
proce eds</w> 2265
t s 2264
St .</w> 2264
end ang 2263
UNE SCO</w> 2263
Cypr us</w> 2263
con vey</w> 2261
or bit</w> 2260
vi e</w> 2260
grad uation</w> 2260
Gre en 2260
The ory</w> 2260
farm ing</w> 2260
corro sion</w> 2260
re consideration</w> 2259
coun sel</w> 2259
Bar ack</w> 2259
ul ative</w> 2258
cred ited</w> 2258
popul arity</w> 2258
h ers</w> 2257
B R 2257
th ough 2257
row ave</w> 2257
sol em 2257
Cer tain 2257
escap ed</w> 2257
E D</w> 2256
in herent</w> 2256
met als</w> 2256
f ake</w> 2255
ro tation</w> 2255
str icken</w> 2255
vi able</w> 2255
mort g 2255
con form</w> 2254
concer ted</w> 2254
evalu ated</w> 2254
peas ants</w> 2254
con junction</w> 2253
ge ological</w> 2253
list ing</w> 2253
Dis crimin 2253
Now adays</w> 2253
Ch ung</w> 2252
comm em 2252
mis t</w> 2252
mil it 2252
din ing</w> 2252
stop ping</w> 2252
om y</w> 2251
gl ance</w> 2251
gol f</w> 2251
f ancy</w> 2250
p esti 2250
ut most</w> 2250
mar king</w> 2250
ei l</w> 2250
them es</w> 2250
week ly</w> 2250
ha ble</w> 2249
Gener ally</w> 2248
i th 2246
ed . 2246
moun t</w> 2246
atic s</w> 2246
remin ded</w> 2246
Investig ation</w> 2246
il es</w> 2245
mat ches</w> 2245
mod es</w> 2245
Dal ai</w> 2244
b other</w> 2243
acc ess 2243
resear ches</w> 2243
s au 2242
con fusion</w> 2242
r ushed</w> 2241
in comes</w> 2241
ad dic 2241
acc ord</w> 2241
Ar ts</w> 2241
B ranch</w> 2240
to y</w> 2240
bl essed</w> 2239
safe guarding</w> 2239
Hun g 2239
medic ines</w> 2238
beli efs</w> 2237
infec tious</w> 2237
ad ol 2236
hi erarch 2236
appl es</w> 2236
att aches</w> 2236
P aper</w> 2235
U s 2235
st ops</w> 2235
dec ent</w> 2235
plas ma</w> 2235
O P 2234
de adly</w> 2234
St ock</w> 2234
super vise</w> 2234
Key words</w> 2234
cali br 2234
j unior</w> 2233
198 0s</w> 2233
algorith ms</w> 2233
ad a</w> 2232
crimin als</w> 2232
Hol lywood</w> 2232
h iding</w> 2231
eng ines</w> 2231
Saud i</w> 2231
B ac 2230
calcul ating</w> 2229
B ook</w> 2228
wr apped</w> 2228
stret ched</w> 2228
be ar 2227
Per i 2227
R ather</w> 2226
T ar 2226
re actions</w> 2226
conven ed</w> 2226
N P 2225
trad ers</w> 2225
won dering</w> 2225
r ating</w> 2224
o b</w> 2224
ro m 2224
ol dest</w> 2224
arm ing</w> 2224
Per formance</w> 2224
l est</w> 2223
es tion</w> 2223
sh it</w> 2223
post al</w> 2223
stimul ate</w> 2223
Moun t</w> 2223
laun ching</w> 2222
safe guards</w> 2222
trag ic</w> 2222
d row 2221
al together</w> 2221
dev i 2221
sun light</w> 2221
green house</w> 2221
D A</w> 2220
gan g</w> 2220
Mar x 2220
attribu te</w> 2220
ferti liz 2220
ra ises</w> 2219
o res 2218
scri pt</w> 2218
ig ned</w> 2217
vacc ine</w> 2217
An ti 2216
respon ding</w> 2216
threat en</w> 2216
J EC 2215
ti li 2215
re moving</w> 2215
fac ial</w> 2215
Jud ah</w> 2215
entrepreneur s</w> 2215
n ut</w> 2214
rout es</w> 2214
ar ch</w> 2213
ilibri um</w> 2213
n arr 2212
sec toral</w> 2212
bre eze</w> 2211
obstac le</w> 2211
wei gh</w> 2211
Ch an 2210
si de 2209
tr il 2209
wor ship</w> 2209
respon dents</w> 2209
cred itors</w> 2209
di al</w> 2208
198 6</w> 2208
tal e</w> 2207
Si x 2207
ware house</w> 2207
w ai 2206
ch in 2206
bl ank</w> 2206
det ained</w> 2206
grand mother</w> 2206
Y O 2205
en n 2205
add resses</w> 2205
C R 2204
th ickness</w> 2204
po em</w> 2204
contro versi 2204
wa ste 2204
Hel en</w> 2204
toil et</w> 2204
Palestin ians</w> 2203
mag nific 2202
T ype</w> 2201
ad ness</w> 2201
s wee 2200
Certain ly</w> 2200
t . 2199
rel axed</w> 2199
life style</w> 2199
Priv ate</w> 2199
pled ged</w> 2198
excit ement</w> 2198
P ort</w> 2197
st ering</w> 2197
consolid ate</w> 2197
Assess ment</w> 2197
co des</w> 2196
dat ory</w> 2196
hos tile</w> 2196
am boo</w> 2195
me tic</w> 2195
la h</w> 2195
sol ely</w> 2194
sha de</w> 2194
differen tly</w> 2194
dram atically</w> 2194
champ ion</w> 2194
Portu gal</w> 2193
radio active</w> 2193
pro be</w> 2192
oc y 2192
inc entive</w> 2192
Am end 2192
ta p</w> 2191
inst ability</w> 2191
bi ology</w> 2190
fore stry</w> 2190
gri ef</w> 2190
Cair o</w> 2190
C el 2189
An tar 2189
1 00,000</w> 2188
UNO SOM</w> 2188
undertak ings</w> 2188
ac ent</w> 2187
ha st 2187
ad ministering</w> 2187
ch op 2187
Eff ects</w> 2187
atom ic</w> 2186
theat re</w> 2186
al ter 2185
i ary</w> 2184
P hot 2184
under stand 2184
dri ed</w> 2184
adjust ments</w> 2183
ple 鈥檚</w> 2183
Flor ida</w> 2183
Com pared</w> 2182
tem per</w> 2182
sw ing</w> 2182
trav elling</w> 2182
un certain</w> 2181
no de</w> 2181
thr ust</w> 2181
aliz es</w> 2181
environ mentally</w> 2181
l or</w> 2180
cons ist</w> 2180
m apping</w> 2179
C os 2178
Con sequently</w> 2178
prev ailing</w> 2178
but ter 2178
arbitr ary</w> 2178
att or 2177
direc tory</w> 2177
plan tation</w> 2177
influ enza</w> 2177
smugg ling</w> 2177
s b</w> 2176
gr o</w> 2176
Re fuge 2176
st ag 2175
Al ban 2175
v an</w> 2174
em ia</w> 2174
syn thetic</w> 2174
Democr ats</w> 2174
F ind</w> 2173
ch ester</w> 2173
loc ally</w> 2173
ther ine</w> 2173
celebr ation</w> 2173
bath room</w> 2173
l ub 2172
fil ing</w> 2172
Discrimin ation</w> 2172
o cide</w> 2171
deteri or 2171
m es 2170
st resses</w> 2170
eng er</w> 2170
prosper ous</w> 2170
brea the</w> 2170
i als</w> 2169
A ge</w> 2169
shor ter</w> 2169
m aid</w> 2168
super visory</w> 2168
veri fied</w> 2167
pip eline</w> 2167
rob ust</w> 2167
m ask</w> 2166
tr ay</w> 2166
de eds</w> 2166
elim inated</w> 2166
in heritance</w> 2165
there in</w> 2165
Mc Cain</w> 2165
Mongol ia</w> 2165
lugg age</w> 2165
F lo 2164
bil lions</w> 2164
W rit 2163
R ol 2163
Ar men 2163
Gu inea</w> 2163
er ings</w> 2162
sec ured</w> 2162
Ac ting</w> 2162
Ste el</w> 2162
Lar ge</w> 2162
r yp 2161
K ey</w> 2160
cri tics</w> 2160
r ics</w> 2159
tr ust 2159
bre ach</w> 2159
contr actors</w> 2159
exce eding</w> 2159
Tot al</w> 2159
M AR 2158
w ear 2158
gar bage</w> 2158
cab inet</w> 2158
Experi ence</w> 2158
Down load</w> 2158
now adays</w> 2157
electr on</w> 2157
b ai 2156
clim bed</w> 2156
absor b</w> 2156
criter ion</w> 2156
attribu tes</w> 2156
t ness</w> 2155
w ool</w> 2155
ac ity</w> 2155
li ti 2155
ex ag 2155
k i 2154
B . 2154
purch ases</w> 2152
Che ung</w> 2152
b log</w> 2151
resol ving</w> 2151
n ucle 2150
u ality</w> 2150
fi br 2150
Mon it 2150
sympa thy</w> 2150
c ave</w> 2149
dis abilities</w> 2149
ud ge</w> 2149
dra ws</w> 2149
T ong</w> 2148
resp ir 2148
tion ers</w> 2148
doub tedly</w> 2148
minim ize</w> 2148
g in</w> 2147
tor ch</w> 2147
enjo ys</w> 2147
Ben j 2147
g ates</w> 2146
T ax 2146
C z 2146
se aled</w> 2146
Ph ase</w> 2146
spok es 2146
e ther</w> 2145
s u</w> 2145
L in</w> 2145
V II</w> 2145
st um 2145
ge o 2145
equ ations</w> 2145
commis si 2145
diversi fication</w> 2145
r on 2144
G ir 2144
C F 2144
fl at 2144
A zer 2143
re porter</w> 2143
ou ting</w> 2143
ch ase</w> 2143
pr ag 2143
emer gence</w> 2143
eros ion</w> 2143
H ill</w> 2142
1 6. 2142
el and</w> 2141
ide ological</w> 2141
promot es</w> 2140
reason ably</w> 2140
coc k 2140
DC P</w> 2139
R ef 2138
am pli 2138
renew al</w> 2138
trans national</w> 2137
Al ways</w> 2137
Com preh 2136
mer ger</w> 2136
soci alism</w> 2136
Concer ning</w> 2136
ac com 2135
slow down</w> 2135
envis aged</w> 2135
H ope</w> 2134
mac ro</w> 2134
c rown</w> 2133
overwhel ming</w> 2133
S D</w> 2132
G old</w> 2132
C ap</w> 2132
br ains</w> 2132
cri pt</w> 2132
ON G</w> 2132
h ast</w> 2131
O ther 2131
Ar ch 2131
main tains</w> 2131
e uro 2130
d u</w> 2130
fut ures</w> 2130
conf used</w> 2129
Gu ide</w> 2129
f its</w> 2128
ri gid</w> 2128
fl ash</w> 2128
exclu sively</w> 2128
res in</w> 2127
im migrants</w> 2127
emer ge</w> 2127
I mag 2126
relev ance</w> 2126
connec ting</w> 2126
acceler ated</w> 2126
kil ometers</w> 2126
mini stered</w> 2126
perio dic 2126
um er 2125
air ing</w> 2125
bur y</w> 2125
P ay 2124
sh y</w> 2124
bon us</w> 2124
P . 2123
c ited</w> 2123
b alls</w> 2123
al ised</w> 2123
so dium</w> 2123
sust ain</w> 2123
dang ers</w> 2123
abund ance</w> 2123
aspir ations</w> 2123
pul ling</w> 2122
behavi ors</w> 2122
appar atus</w> 2122
re ci 2121
1 10</w> 2120
form ally</w> 2120
up ward</w> 2120
Exc ept</w> 2120
b low 2119
ad here</w> 2119
enti als</w> 2119
expres sing</w> 2119
oppon ent</w> 2119
gr ants</w> 2118
Pers on 2118
cle aring</w> 2117
Cha ir 2117
progres sive</w> 2117
enjoy ment</w> 2117
M A</w> 2116
R am 2116
K az 2116
I ve</w> 2116
li abilities</w> 2116
wor ries</w> 2116
doc tr 2116
Em peror</w> 2116
campaig ns</w> 2116
b ore</w> 2115
w icked</w> 2115
swe at</w> 2115
y le</w> 2114
f ounding</w> 2114
fe ared</w> 2113
congrat ulate</w> 2113
exec ute</w> 2113
S how</w> 2112
Ser bia</w> 2112
per me 2111
speci fication</w> 2111
De ath</w> 2111
free ze</w> 2111
k o</w> 2110
in stitute</w> 2110
cle ared</w> 2110
mobil ize</w> 2110
Monit oring</w> 2110
per mits</w> 2109
du m</w> 2109
shi eld</w> 2109
p aste</w> 2108
bri gh 2108
L ow</w> 2107
or r 2107
ev id 2107
pec uli 2107
assum ption</w> 2107
scen es</w> 2107
advent ure</w> 2107
l acking</w> 2106
at el 2106
pass word</w> 2106
me tal 2105
Col um 2105
modi fy</w> 2105
coo ked</w> 2105
distingu ish</w> 2105
sk i</w> 2104
judg ement</w> 2104
Other wise</w> 2104
T og 2103
off ensive</w> 2103
UN DCP</w> 2103
5 th</w> 2102
ab o 2102
compl ement</w> 2102
equ ilibrium</w> 2102
clim bing</w> 2102
ambi que</w> 2102
cog nitive</w> 2102
irri gation</w> 2102
5 0,000</w> 2101
In dependent</w> 2101
adequ ately</w> 2101
Jam a 2101
di ameter</w> 2100
Moz ambique</w> 2100
A . 2099
may or</w> 2099
h ook</w> 2098
vari ed</w> 2098
worl ds</w> 2098
dir t</w> 2098
excep tional</w> 2098
U ru 2097
exha usted</w> 2096
3 rd</w> 2095
trans formed</w> 2095
contin uation</w> 2095
prin ts</w> 2095
ab sent</w> 2094
diagnos tic</w> 2094
fric tion</w> 2093
ri dic 2092
inv asion</w> 2092
appro aching</w> 2092
reve als</w> 2092
qu et</w> 2091
par ks</w> 2091
nation als</w> 2091
Ug anda</w> 2091
it an</w> 2090
emplo ying</w> 2090
rac ing</w> 2089
Princ ess</w> 2089
t ough 2088
D O 2088
in er 2088
ch at</w> 2088
sco red</w> 2088
econom ical</w> 2087
Me dia</w> 2087
favour ite</w> 2087
Ann ual</w> 2087
t ap 2086
an eous</w> 2085
pi e</w> 2085
ambi tious</w> 2085
o x</w> 2084
mo re 2084
A M</w> 2083
p ist 2083
2 1st</w> 2083
pro jected</w> 2083
fu els</w> 2083
nation wide</w> 2083
3 ,000</w> 2082
ur ges</w> 2082
qu al 2082
tr ains</w> 2082
sil es</w> 2082
Proc ess</w> 2082
8 , 2081
char m</w> 2081
jus tified</w> 2081
Cre dit</w> 2081
preser ved</w> 2081
mo c 2080
PR C</w> 2080
neutr al</w> 2080
pr ayer</w> 2079
sc enery</w> 2079
analy se</w> 2079
presid ency</w> 2079
Val ley</w> 2079
ov o</w> 2079
Know ledge</w> 2079
Recogn izing</w> 2079
w astes</w> 2078
ge ographic</w> 2078
Q ing</w> 2077
occasi onally</w> 2077
P u 2076
j un 2076
in c</w> 2076
We b 2076
photograp h</w> 2076
di g</w> 2075
uc ks</w> 2075
ain less</w> 2075
rol ler</w> 2075
Benj amin</w> 2075
fool ish</w> 2074
id able</w> 2073
mo date</w> 2073
comm ander</w> 2073
hal t</w> 2073
M aking</w> 2072
it ted</w> 2072
vo y</w> 2072
Don ald</w> 2072
c ill 2071
th ening</w> 2071
pl edge</w> 2071
In flu 2071
ast ly</w> 2071
continu ally</w> 2071
ax is</w> 2071
interf ere</w> 2071
Produc t</w> 2070
schol ar 2070
o ved</w> 2069
T D</w> 2069
tel e 2069
neighbor hood</w> 2069
l ing 2068
parti ally</w> 2068
positi vely</w> 2068
R ent</w> 2067
dri ves</w> 2067
Chem ical</w> 2067
p oured</w> 2066
S . 2066
rel s</w> 2066
improv es</w> 2066
Offic es</w> 2066
secut or</w> 2066
Psy ch 2066
v ain</w> 2065
ur ban 2065
dis plays</w> 2065
Com mon</w> 2065
cat s</w> 2065
S av 2064
emb race</w> 2064
flav or</w> 2064
un like</w> 2063
Ch el 2062
he ated</w> 2062
M as 2061
j ail</w> 2061
us h 2061
UN AMI 2061
sil ly</w> 2061
consist ency</w> 2061
Weap ons</w> 2061
hybri d</w> 2061
ti ger</w> 2060
dis ability</w> 2060
ret ained</w> 2060
comb ating</w> 2060
dur able</w> 2060
wild life</w> 2060
s ink</w> 2059
S c 2059
en acted</w> 2059
quot ed</w> 2059
cl ubs</w> 2059
sc attered</w> 2059
Uru gu 2059
5 0 2058
es ome</w> 2058
colon ial</w> 2058
reaffir med</w> 2058
ab normal</w> 2057
ener ge 2057
ge red</w> 2057
cataly st</w> 2057
n aked</w> 2056
Y i</w> 2056
high light</w> 2056
e h</w> 2055
v end 2055
E state</w> 2055
ros es</w> 2055
trac ks</w> 2055
Fir stly</w> 2055
land ed</w> 2055
smoo thly</w> 2055
n i</w> 2054
em peror</w> 2054
dr ying</w> 2054
iter ranean</w> 2054
[...]
